ĠDirac
Ġprogramming
lli
dN
åºŀ
{\,
Ġplane
|
!(
è´¨åŃĲ
é£Łåĵģ
çļĦä»£æķ°
æįĲ
æ©ĺ
|\\&\
çĽ´
æºĲèĩª
).
åľ¨æŁĲ
æīĢå¾Ĺ
éĥ½åı¯
çļĦåħ¶ä»ĸ
æ¢°
ĠæĬĢæľ¯
Ġlonger
ç¥ŀåľ£ç½Ĺé©¬å¸ĿåĽ½
ç»ĺåĪ¶
åħ³éĹŃ
equation
ç®Ń
ç¢³
Ġshot
Ġvectors
}+
intu
åĴĮæĸĩåĮĸ
å¹³éĿ¢ä¸Ĭ
)\,.
çĵ·
åĲĽä¸»
åŀĤçĽ´äºİ
Ġreasonably
Ġtaking
sso
Ġan
éĩıåº¦
At
rating
Ġinelastic
259
Ġgrain
çļĦå¤©
Ġkinds
nx
}\|
Ġgeneralize
Á
Ġtiming
çļĦæĹĭè½¬
Ġçī¹å¾ģ
ç¼ĸåĨĻ
ĠåĲį
107
å·¥åİĤ
pt
Omega
Ġentanglement
cm
Ġprecisely
Ġarrays
Ġäºĭä»¶
alog
ä¸ĭåİ»
)|^{
when
nl
å¹´ä»¥åīį
ymbol
åĽ¾åĥı
å¯Ĩçłģ
Ġcooperation
æł
Ġ\|_{
Ġexploited
æĪĲç«ĭäºĨ
æĵįçºµ
Ġfavor
Ġbath
pv
åłªèĲ¨æĸ¯
ä¼½
statis
éĩı
pies
Ġabove
ĠåĮºåŁŁ
arent
open
åĢĴ
Ġprotostellar
åĢįæķ°
Ġquiescent
Ġfiel
åħ¶åŃĲ
}^{*}(
åħ±è½Ń
Ġtakes
çļĦå½¢æĪĲ
åıĮåĲĳ
priate
æµĭå¾Ĺ
Ġaffected
æĶ¿åħļ
çĹķ
ĠCat
æıĲä¾ĽäºĨä¸Ģä¸ª
Ġprinci
Ġerg
Ġexperience
ĠçŁ
Ġcontrol
xing
ĠPop
Ġlast
äºĶä¸ĸ
Ġcircle
Ġenvelop
éĩıåŃĲåĬĽåŃ¦ä¸Ń
dents
Ġnonmagnetic
Ġnoninteracting
Ġç©ºéĹ´çļĦ
Ġäºī
sche
Ġwhereas
Ġç¬¬äºĮ
Ġeven
Ġabsorbing
ä½¿ä»ĸ
mber
pop
å¾®æ³¢
ĠSMBH
ging
iy
æľĢçĿĢåĲįçļĦ
Ġcauses
å¼ķåı·
æĭīèĴĤ
å®¤
ç²¾
åįłçĶ¨
}\:
å¹¶è¡¨æĺİ
Ġsubstrates
208
Ġeasy
äºĪ
éĵ¾è¡¨
ĠBu
è°ĥåĳ³
æĪĲåĲį
åī§åĽ¢
^*,\)
æİ¨è¿Ľ
Ġè¾¹
Ġselforgani
Ġboundaries
fined
Ġç¨ĭ
classi
Ġbe
å¾·éĽ·
Ġmentioned
functional
oriz
'|\
è®¤çŁ¥
æķ°åĪĹ
ç§ĳç½Ĺ
è¿Ļæ¬¡
Ġ"
very
å²ģ
Ġcontro
Ġsusta
nium
Ġbroken
åħīåŃ¦
;(
å¹´æĪĲç«ĭ
new
phical
Ġsolving
kern
Ġruns
ĠAr
Ġ+{
çĢ
54
Ġtra
ç¿ħ
åĪļä½ĵ
hor
å¹ħ
Ġspecific
æĪĸç§°
Ġpermu
ç»§ç»Ń
eak
ĠFe
ù
}}_\
æ³¢éķ¿çļĦ
Ġfab
Ġå¾ģ
bidden
çīĽæ´¥å¤§åŃ¦
ç¨ĢéĩĬ
Ġconcepts
)=
Ġsuscepti
CMB
crystalline
Ġæ²¡
ically
éĩĮæĸ¯
éĽ¾
éĩįè¦ģçļĦ
ä¸¤åĽ½
ĠCombin
Ġcurrent
gala
æĮĩçļĦæĺ¯
è¥¿æł¼
ç©ºéĹ´åĴĮ
åįłæľī
qz
lll
æ°¨éħ¸
Kx
Ġvia
rf
åħīè°±åĪĨæŀĲ
roxi
}^\
ĠMASS
è¯ģæĺİæĺ¯
æĭĴç»Ŀ
è¿½éļıèĢħ
Ġinclusive
éĶ¥ä½ĵ
fraction
ä¹Ķ
åħ´å¥ĭ
éĤ£
Cu
Re
ue
è®¡ç®ĹçļĦ
Ġobje
å¹´ä»»
hard
Ġ\\=
ç§¯ç´¯
ĠRiver
IM
Ci
è´§å¸ģ
çļĦç¡¬
æĿ
èİ·å¾Ĺ
|<
Ġ},\
slant
å¦ĤæŃ¤
çļĦåľ°åĮº
xF
anied
çĶµè§£
è½¬ç§»
è¿ĳè·Ŀç¦»
ls
ä¿¡åı·
Ġtransformation
çº¦ä¸º
ĠInterestingly
çļĦä½ľåĵģ
èĩªå¹´
SDSS
forms
ntom
Ġove
Ġåİĭ
IG
Ġdevi
Ġresult
pen
åľ°çĲĨ
)}.\
Ġtruncation
thetic
æµ·å³¡
å®ĮæĪĲ
èĭ±åĽ½çļĦ
åĴĮåľ¨
lers
200
ĠESO
ĠçĽ¸
èī¯
çĶ¨ä¸Ģä¸ª
Ġwithdrawn
Ġåľ¨
æľ¬
Ġnearest
})_{
Ġpredicts
eshbach
flavor
Ġsegregation
)]^
^*\)
Ġ}^{
iQ
çļĦæĶ¹åıĺ
module
tatively
lecular
é½
æ¹¿
lef
åĪĽä½ľäºĨ
;\;\;\
Ġhypergeometric
Ġheavily
Ġstudi
Ġvalid
oseph
Ġago
ä¹ı
æ³ķæ¡Ī
]\;
2
belian
Ġ\!\
BW
Ģæľ¯
æ´»æĢ§
Pa
)>
çĵ
stant
Ġç»ĵåĲĪ
hop
æ²¿å²¸
æİ¨åĬ¨
è¿ĻæĹ¶
åģľæŃ¢
å²¸
éļľç¢į
77
é¢Ŀå¤ĸçļĦ
resistance
çļĦç´¢
ductions
ĠHCN
å¤įæĿĤåº¦
Ġtorque
Ġapproximation
é£ŀå¼¹
Ġellip
ä¸¹
æĤ¬
ways
ndra
Ġneutrinos
Ġfeature
us
Ġsho
)&:=
Ġæ¹
28
æľīåĪ©äºİ
Ġwells
³
çļĦæķħäºĭ
transport
éĩıçº²
è¯Ńæ³ķ
I
å¹³çŃī
åĵĩ
å¤©ç©º
ĠAP
209
ä¸ļåĴĮ
fF
é«ĺåĪĨè¾¨çİĩ
ellanic
åĪ»
äº¤éĢļ
Ġsubstantial
Ġutility
è¿ĽæĶ»
ä¹ĲåĻ¨
Ġmimic
sb
~.
quanti
èĸĦèĨľ
Ġobservation
æķ°çļĦ
å¾ĭå¸Ī
æĴŃ
dv
éĺ¿æł¹å»·
nikov
active
çļĦç¥ŀ
)]\
çļĦçĨµ
ĠSW
DU
çĿĢåĲįçļĦ
view
tor
Ġæ³¢åĬ¨
åĴĮL
å¸®
æĻĭ
Ġshorter
Ġcontain
çĶļèĩ³
fven
å¤§ä¼Ĺ
å»¶è¿Ł
Ġä½Ĩæĺ¯
cycle
olu
éĺĪ
Ġabund
Ġåĩłä½ķ
åĢ¼åĴĮ
æī©å¤§åĪ°
Ġap
ĠRR
èİ·åıĸ
Ġrecorded
Ae
|-|
åħ¥å°Ħ
æ³¢å£«
ga
Ġresolution
Ġä¸ºäºĨ
given
ç¬¬äºĮç§į
Rn
æĻº
RB
å¯¼èĩ´çļĦ
éķ¿åº¦ä¸º
ĠLocal
setminus
æĭŁ
Ġdou
æĮ¥
åĮ»éĻ¢
Ġartificial
ç«Ļ
çº³è¥¿
ĠåĽ½å®¶
æĳĩ
æĪĳä»¬åıª
Ġlocations
çļĦæ¸©åº¦
åĽ¾æ¡Ī
pid
Ġidentify
æľīåºı
queness
ĠæģĴæĺŁ
ç±»ä¼¼äºİ
çļĦæ¨¡
æĢ§æĺ¯
åĳĪçİ°
Ġphenomenon
æĴĴ
ip
åıįé¦Ī
Ĝ
éĽĨçļĦ
çļĦåħĪ
æ¡ĥ
åĤ¨
å®Įæķ´
çº¬åº¦
æĪĲä¸Ģä¸ª
Ġæµ·
è¿ľç¦»
Ġneighboring
onic
Ġ(\
Ġintegrals
æµ·æ£®åł¡
Ġperiod
bc
çŁĽçĽ¾
æ¼«
Ġcompon
ç³»ç»ŁçļĦ
Ġcoherence
Ġdust
äº¤
proton
bx
æľ±
Ġaccele
éķĩåİĭ
Ġsynchronization
Ġquasiparticle
ä¾ĭå¤ĸ
'}^
å¦¥
æ¯ıä¸Ģ
Ġä¼°è®¡
tative
)]
supercon
Ġmanybody
Ġinvol
Ġsimplicial
å®½åħ¬éĩĮ
Ġfunda
Ġconcept
center
ç¿¼
Ġpower
æĸŃ
çļĦèīºæľ¯
mian
åĨħç§¯
ç¢°
ski
ç³ĸ
Ġcru
èµĦæł¼
åģļ
åį³åľ¨
Ġcomplementary
»
ĠBA
çī¹
imath
ĠVe
çļĦç®Ģåįķ
Ġsolely
Ġdiscre
ay
æł¡æŃ£
ĠæĹ©æľŁ
tility
Ġçľ
Ġdiscussed
çļĦæļĹçī©è´¨
^{-(\
Ġfunction
Ġå¤´
Pl
å¸¸å¾®åĪĨæĸ¹ç¨ĭ
Ġenhances
ack
çĲĨåŃ¦
ĠExamples
lica
Ġdifferential
|^\
æ£ĴçĲĥ
qy
Ġera
å®īéĤ£
bilities
Ġmove
åĲĮæĦı
Ġrecoil
ä»Ģ
ä»°
¥ŀ
Ġsupport
Ġtherefore
Ġaxi
æ¾³
å·²çŁ¥çļĦ
èĲ¨åħĭ
oti
Msun
Ġeigenvalues
criptstyle
})-\
æľºåħ³
ĠCarlo
Ġvac
Ġdetermination
112
Ġæİ
math
å¾®åĪĨ
Ġprogenitors
æºĥ
ç¤ºäºĨ
å®£ç§°
æĵįä½ľåĻ¨
ying
Ġthere
Ġbarrier
Ġcollinear
ä¸Ĭå¸Ŀ
ration
Ġano
ifshi
æ¯Ķ
tro
çŃīåĲĮ
åı¥
å®¡æŁ¥äºĨ
Ġfurther
oxi
Ġwant
ĠAng
Ġsin
å¼ĢæĶ¾
Ġcomb
Ġparadig
Ġmultipartite
IGO
Ġmeasurements
Ġmini
Ġfoli
Ġsignature
Ġé¦ĸ
éģ¥
ricated
ĠBEC
ĠWilson
ä»²
Ġempha
tains
cade
Ġcold
})}{(
_{-
çĶŁæ´»çļĦ
Ġnucleosynthesis
cir
Ġinteri
jc
å¹´å¼Ģå§ĭ
å»ºç«ĭçļĦ
)\|
kr
éĹ´
åºķ
ĠCha
Ġchaotic
Ġspint
Ġordered
dm
ç»ıåħ¸
åĽ½åĬ¡
tainty
ĠShi
Ġkinematics
æĹħæ¸¸ä¸ļ
|=|
rj
ç¾İåĪ©
Ġapproxima
CX
Ġhighl
ĠKey
åĲįè¯į
Ġpolari
cavity
ĠéĻ¤äºĨ
èī
ĠHall
æĪĲä¸ºäºĨ
Ġå±ŀ
Ġregression
Ġestimates
éĶ®çĽĺ
}={\
Ġconventional
å¯¹äºİ
Ġç»ı
Ġled
ä¸Ģåº¦
Ġidentical
Ġpossi
Ġoff
Ġdefects
ĠInter
èĪªè¡Į
åľĨæŁ±å½¢
çº¿æĢ§åıĺæį¢
åıĤ
scale
ĠMg
éĺĶ
ĠåĪ«
}]
".
}}<
Ġpublic
tech
å¹´çļĦ
æĿ¥åĪ°
æİ¢æµĭåĪ°
ç¦ıåĪ©
èĥ¸
å®£
çĲĨè§£ä¸º
Ġbroadcast
Ġlay
Ġfractal
Ġshapes
'(\
çĽ¸åħ³èģĶ
æİ¨å¯¼
å¤©æĸĩ
Ġmaking
ĠBC
Ġmolecule
km
loc
Ġæĸ¹åĲĳ
éĿ¢ç§¯çº¦
Ġemb
çļĦåľ°éĿ¢
æĿ¥å®ļä¹ī
modu
åĴĮä¸ī
Ġserve
ĠCL
æĪĳä»¬æııè¿°äºĨ
erson
ĠéĢŁåº¦
è¡Ģ
åĢ¼
Ġdivision
then
TD
æĺİç¡®çļĦ
Ġbilayer
lj
QS
æŀģç«¯
æľ«
Ġprogress
\}\,
å¼Ģéĩĩ
å®¶æĹı
gy
Ġ&&
ĠSch
%
åĩºçİ°äºĨ
ä¹Łä¸İ
Ġemissions
åħ¶ä»ĸçļĦ
åĪĨå¼Ģ
tot
ä¹ĭéĹ´çļĦçĽ¸äºĴä½ľçĶ¨
Ġè¿ĺ
^{+\
place
Ġpumping
Ġshow
èĢħåĴĮ
Ġpie
ĠLaw
Ġautomata
è´£ä»»
ĠDel
Ġreliable
limited
æµ
èĸĽå®ļ
ä¸»è¦ģçĶ±
ä½ľåĵģåĮħæĭ¬
åĪĨæķ°
Ġmoduli
Ġcompanion
åıĳæĢ§
å¹´ä»¥
é¥¼
ĠHardy
éĹŃåĲĪ
Ġexist
Ġéģĵ
Ġholog
Ġiner
wo
Ġ))
Ġcurves
Ġbije
æİ¢æµĭ
tx
ç»Łè®¡æķ°æį®
æİĮ
terexa
tinction
èĭ¦
Ġexceeds
Ġvariability
ĠCe
å¤«äºº
Ġdenote
ĠMonte
MT
\!\!
æĭīå¤ļ
å°Ķå¾·
Ġtt
jmath
null
Ġheated
far
Ġscattering
Ġnebulae
}})=
ball
çļĦæ·
éħįç½®
Ġinhomogene
oth
èīĩ
Ġused
wave
Ġ\\&
Ġcare
Ġnatural
)!
æ¢ģ
DEs
æłĩéĩıåľº
æ¬¢è¿İ
æĸ¯åĬł
åĮ»çĸĹ
çĶµç£ģæ³¢
åĽºä½ĵ
Ġplace
}]\
èľĤ
approximation
iv
ç¬¬ä¸Ģä½į
circ
Ġåıĸ
Long
Ġmu
Ġminimization
ephe
æķĻå¸Ī
çİ¯çĲĥ
Ġfermions
Ġvarieties
Ġlengths
Ġè¿Ļè¡¨æĺİ
erature
é£Łçī©
çĻ½äºº
Ġcombined
é¢
åĩºæĿ¥
åıĳå±ķèµ·æĿ¥
Ġconservative
æĪĳä»¬æł¹æį®
Ġåĵį
ctives
è¡į
power
Ġåıĺå¼Ĥ
åı¬
çĭ¬çī¹çļĦ
\\&=\
Ġcovering
çļĦçĶµåŃĲ
ç®Ĺæ³ķ
gor
tyle
Ġburst
control
ĠCou
Ġmagne
ractions
ä½ľæĪĺ
ccur
Ġinto
Ġæī©å±ķ
Ġkin
Ġwi
çļĦçŁ³
Ġdynamics
çļĦç¾İåĽ½
åĵ¥å¾·
ĠFour
å¢¨è¥¿åĵ¥
è¿ľè¿ľ
è¿ĩåİ»
Ġie
)))
Ġrandomized
Ġsec
})^*
ild
å¤´éĥ¨
éĽķ
ä»ĭç»į
Ġempirical
Ay
Ġlik
æķĽ
inkowski
è¹
éĢŁåº¦
çİ
Ġçİĩ
è¿Ľè¡ĮäºĨçłĶç©¶
Mg
Ġopportu
evolution
åħ¹æĽ¼
ä¸ĥä¸ĸ
Ġçĭ¬ç«ĭ
å¤ĸçļĦ
ccccc
æĻ®ç«ĭåħ¹å¥ĸ
ä¸ŃçļĦæīĢæľī
ĠLegend
onal
å¹³åı°
burg
Ġconcentrate
Ġdegeneracy
ç¥Ńåı¸
Ġ\\
ä¸ĭéĻĲ
æ£Ĵ
FG
XB
))_{
æ¢ħ
ç¨ĭåº¦
Ĩ
å¹³åĿĩåĢ¼
Ġposition
tured
å°Ķé¡¿
é£
èĢ¶ç¨£
Ġinterest
åĲĦç§į
mf
sm
well
berger
èĤł
Ġmagnitudes
åĸľåī§
åįģå¹´
æŀĦæĪĲ
iberg
cell
åħ¶çĪ¶
Ġqubit
éħ®
MP
èī²å½©
è¾¹ç¼ĺ
DL
Ġevaluated
Ġstateoftheart
ben
å¼ķåħ¥
å¤§è¥¿æ´ĭ
éĵģçŁ¿
ĠéĹ´çļĦ
ĠMac
Ġreceived
å¼±çļĦ
çĳ°
>\)
ç©ºéĹ´
cripts
Ġperspe
Ġtunnel
Ġå®ĩå®Ļ
å®¿ä¸»
Ġour
å°¼è¥¿äºļ
æŃ¤åľ°
å·²æĪĲä¸º
dization
Ġplasma
ĠæĪĳä»¬çĶ¨
è¡įçĶŁçī©
Ġalready
çļĦå¯¹ç§°
lk
éĵģè·¯
Ġéĥ¨åĪĨ
ä½ľä¸º
æ¤į
éĢļçĶ¨
Ġpromo
220
åĩ»
éĢıè¿ĩ
åĪĨå¸ĥçļĦ
æĸ¹ä¾¿
å¸Įä¼¯
Ġbulges
Ġmanagement
^{{
çĽ¸éĤ»
å¾ĹåĪ°
åıįå°Ħ
^*)
Ġcoverage
Ġwarm
Ġplays
^*_\
éĽĨç¾¤
åīĸ
Ġsolves
æĪĳä»¬æĬĬ
å¢ŀçĽĬ
åĩ½æķ°æĺ¯
ä¸ľåįĹäºļ
äº¿
æĺ¾å¾®éķľ
åı¯ä»¥çĽ´æİ¥
ilities
Ġjo
NC
æııè¿°ä¸º
Ġspreading
);\
ä½ĵéķ¿
ä¿Ŀéļľ
çļĦå¹³åĿĩ
Ġsimilar
éĻ¢
Ġwar
Ċ
ç¬¬ä¸Ģæī¹
Ġåħ¸
ä¸ºä¾ĭ
Ġreference
)\\=&\
å¸ĥèİ±
éŁ¦å°Ķ
éļĶç¦»
åľ¨ä¸¤
Ġpen
Ġinteracting
æ´»åĬ¨çļĦ
Ġæ´¾
Ġinsensitive
Ġweaker
æķıæĦŁ
åĨħå®¹
ĠåĽ½
top
åĽ½éĻħ
rd
å¾Īå¿«
)\\=&
çļĦç¨ĭåº¦
åĶ±çīĩ
ĠCD
Ġinstrument
vx
éĢĲåĩº
Ġsecure
å»ºç«ĭ
åĬłåĭĴæ¯Ķ
è·¨
Ġconclusion
æľĢçŁŃ
ded
ĠVirgo
Ġelliptical
çĪĨçĤ¸
avy
åĽŀå½Ĵ
æµĨ
éĢļéģĵ
lie
æŃ£ç¡®çļĦ
Ġ\;
è¡Įä¸º
aq
èĢĮè¢«
Ġspeed
é£ŁæĢ§
tices
ç½Ĳ
èªĵ
ft
Ġonedimensional
ĠäºĴåĬ¨
ä½ĵåĨħ
Stokes
Ġelonga
ĠMagnetic
æĽ´å¿«
è°ĥèĬĤ
Ġcharac
Ġcontact
app
ĠYb
ä»·æł¼
cuss
å®¡åĪ¤
Ġå¡Ķ
}),
Ġsuccessfully
Ġgeq
rting
Ġ\)
Ġnormal
Ġefficiently
èĭ¥
outh
Ġcorrection
ĠGalactic
\|^
encies
nding
present
Ġneeded
}}}\
Ġfast
å®ŀçĶ¨
Ġrotations
æ¸©å¸¦
}_
çļĦæ¡Ĩæŀ¶
ä»İåĪ°
ĠGross
ä½ľå®¶
91
çº§çļĦ
gx
Ġinclusion
Ġbro
Ġface
Ġfla
å¦Ĥæŀľä¸į
Ġato
åºĶå½ĵ
ä¸ļåĬ¡
tact
70
Ġtwop
ä¹īåĬ¡
genera
Vu
rtimes
Ġoptimized
Ġ\\&\
ĠVi
Ġrealized
Ġblo
Ħ¶
Ġentangled
||^
Ġtrade
98
rad
åħ«ä¸ĸ
è¡įå°Ħ
cope
rop
çŃīåĢ¼
åĴĮåħī
Ġobey
æĹ
ĠNMR
Ġsensi
Ġ&-\
åħ¨éĿ¢
reco
æīŃ
çĽ¸åħ³åħ³ç³»
Ġaffine
çĽŁåĨĽ
)=&
å°ĺåŁĥ
Ġhu
Ġcores
æĹ§
|.
æľ¯
mples
988
EH
Ġthen
å¾ĹåĪ°äºĨ
KN
æľĢéĩįè¦ģ
Ġmaps
resolution
Ġ=(
Ġvariations
Ġblue
ctions
ĠæĪĳä»¬å°Ĩ
åĭ
)^*\
ĠAX
Ġreferred
åĵ¥
Ġconservation
Ġpeculiar
ç³»
ĠNavier
èī²ç´ł
Ġthought
equ
éĺ¿
omers
çļĦéĽ¶
!\)
è¿Ħä»Ĭ
Ġæĺ¾
ino
æĵįä½ľåĳĺ
ish
ĠçĬ¶
Ġhot
/(
Ġtime
çĸ¼çĹĽ
}'
Ġlepton
termin
''-
çī¹è®¸
aterni
ies
dor
sgn
å°ıæĹ¶
éĿ¢ç§¯å¹³æĸ¹åħ¬éĩĮ
MM
èĢĥçłĶ
Xf
åĬłéĢŁ
äºĨä¸ĢäºĽ
photon
hook
FS
å¹¶çĶ¨
mistry
Ġviolation
417
poor
Ġresum
Ġsuperior
(|
Ġconcerning
å²Ľä¸Ĭ
matical
æĭīæĽ¼
}}),
Ġscaling
Ġ:\
éĴĻ
mall
Ġstudied
Ġsignatures
ranes
ä¸Ģä»½
changed
åħīåŃ¦åĴĮ
ĠæķĪåºĶ
çĶ¨æĿ¥
Ġåħ·æľī
chiral
Ġmeans
flection
æįķé£Ł
éĺ¶çº§
è§ĴåĬ¨
ĠçŁ¥
lanck
)}}(
BP
çļĦçģ«
complete
Ġexcluded
ç»ĪçĤ¹
Ġques
SI
class
Ġresults
çļĦæ²Ļ
isot
cap
åĲł
,-
Sal
Ġlinked
æİĴéĻ¤
çŃĸçķ¥
Ġmeaning
ISM
è¿ĩæĿ¥
äºĨåľ¨
N
surfaces
ht
lane
lic
Ġissue
Ġread
æµ·å²¸
Ġproduces
sk
çĭĦ
minated
åĲİæŀľ
¾İåĽ½
bigsqcup
æĴ°åĨĻ
åĪĨåĪ«æĺ¯
Ġç¾İåĽ½
æķħäºĭ
Ġwavelet
orenstein
çļĦåĨħ
åį°
Ġ),
ä¸ºé£Ł
ysis
graphs
TEGRA
åĪ»çĶ»
haronov
çĤ¹
å¹³åİŁ
ĠTx
omi
quad
Ġonline
265
milli
beled
å¾®ç²Ĵ
ç»ıçĶ±
Ġsense
çļĦæ
çĪµå£«ä¹Ĳ
è´¥
æµģä¸Ń
Ġcomputing
Ġèº«
éĤ¦
å®ŀ
åĲİåľ¨
å¸¸è§Ħ
ĠæĻ¯
åŁºæľ¬çļĦ
è¥¿èĹı
çļĦåľ°åĿĢ
ones
ĠåĲİ
Ġobserver
Ġ]
ĠGiven
vised
),\\
æ¦Ĥæĭ¬
isation
Ġè¦ģæ±Ĥ
Ġproxi
Ġcompetition
è¡°
Ġweights
å¸¦å®½
})=-\
åĽ
çī©ç§į
Ġoperational
estima
Ġcompan
Ġcla
pinning
æĿĥåĬĽ
ĠHence
Ġcry
éĢł
dence
Ġ
Ġcompatible
}\|_{
åĩºåĶ®
çļĦåĮºåŁŁ
è¾©æĬ¤
PP
Ġestablished
Ġcalculate
\{
Ġinterpo
æĭīæ¯Ķ
Ġph
olutions
ä¸Ńå¾®
Ġlandscape
)].\)
Py
æĮ¤
Ġconverges
æĭīåħĭ
Ġones
Ġprompt
asy
fier
åĲİç»Ń
tex
Ġhom
Ġèĥ½å¤Ł
å¯Ĩåº¦ä¸º
Ġæł¹
ä¸Ģèĩ´çļĦ
Ġè¿Ľè¡ĮäºĨ
åħ³èģĶæĢ§
Ġç¨
ĠInte
åī©
æľºçļĦ
aries
ĠRNA
ä¼ĹæīĢåĳ¨çŁ¥
and
ä¸»ä¹īçļĦ
åį¡è¯º
çİ°è±¡çļĦ
Ġaff
Ġnegligible
åĽºå®ļ
rh
ion
æµģä¼ł
ĠSimilarly
Ġdatabase
Ġheavi
Ġcompanions
åħĪåĲİ
æ¿Ĵä¸´
HM
dK
lum
Ġcombinatorial
çļĦç±»ä¼¼
)},\
å¼ķå¯¼
ĠIs
Ġrs
Ġrigh
çİ°åľ¨
åĪĻç§°
Ġ|(
Ġgluons
Ġsuperconducting
Ġsimilarities
land
Ġ~~~~
Ġæ¨¡åĿĹ
Ġserves
ĠHar
ank
ä¿±ä¹Ĳ
èį£
Ġexponentially
ä¸Ĭä¸ĭ
||_{
çļĦæıĲ
\|\)
independent
Mo
éĽķåĪ»å®¶
çļĦäº¤
çİ»å°Ķ
merican
Ġè¯´æĺİ
Ġçº¿
æľĪæĹ¥
PU
å¸¦æľī
til
Ġusing
çĶ¨æĪ·
Ġplayers
åŃ£
_{\!
Pd
åŃ¦ä¸Ĭ
éĺħè¯»
åĮĹç¾İæ´²
ç«¹
çĥ§
Ġlinear
éĺħ
åłĨ
lications
})>
åŁºæĢģ
Ġsyste
Go
Ġhappens
weighted
åı¶
ç»ĵæŀľä¸º
çļĦæ¨¡åŀĭ
ç»Ļå®ļä¸Ģä¸ª
çº¬
RW
}^{
å¯¹ç§°
åĴĮåıĮ
éŀ
è¿ĩäºİ
Ġdebris
||_{\
Ġä½Ĩ
Ġsepa
éŁµ
Ġcent
Ġshells
sg
Ġ:=
ä¹ĭåĴĮ
è½°
Ġmembrane
æĪª
å·®åĪ«
æĴĳ
Ġfabricated
èİ±èĮµ
Ġtran
Ġti
Ġç²¾ç¡®
æ³¼
Ġimplies
Ġpairwise
åĮħæĭ¬äºĨ
ĠLemma
æĸ°éĹ»
å¢ĥ
éĹ»
eigen
vector
Ġdecre
Ġmetamateri
è¿¹è±¡
ĠNe
Ġcognitive
structured
çĶŁæ®ĸ
Ġimmediately
èĲ§
ĠRu
=(
éĢīä¸Ń
é«ĺé¢ĳ
éĺĢ
ä»ĸä¸İ
æĪĳä»¬è®¡ç®ĹäºĨ
è§¦åıĳ
ä¸įåŃĺåľ¨
Ġwr
Ġstrong
çĽ¸ç»§
ç¡®å®ŀ
Ġcarbon
edge
ckle
å¤§äºİ
exci
è¿ĩçļĦ
yer
çĶŁäº§
ä¾ĽåºĶ
çĶµå®¹åĻ¨
èĢĲ
åĪĨåĮĸ
åĲĮçĲĨ
æģ©
çº·
intil
çĶµè·¯
èģĶåĲĪä¼ļ
Ġspect
=\
^*-
Ĺ
Ġendom
hr
piter
lators
æ¶Īæķ£
ä¾į
åįķè¯į
\{(\
Ġii
terof
Ġothers
ĠHadron
Ġçłģ
ç¼ºå¤±
éª¤
ä¼łå¥ĩ
Cha
åĪĽ
å·¥åħ·
Ġgoals
æĥ¯
})\\&=
å¯¹é½Ĳ
è¾Ĳå°Ħ
æĶ¾æĿ¾
ä½Ľç½ĹéĩĮè¾¾
ĠèĪ¬
Ġfil
<mask>
alle
WA
è¯Ħè®ºå®¶
hm
Ġæĸĩ
dson
\{\|
Ġcontrary
åħ¬çĲĨ
ric
åĿŀ
mis
Ġfluctuating
certainty
NO
å®¾å¤ķæ³ķå°¼äºļ
å¦Ĥæŀľä½ł
æĺ¯çĶ±
æµĭåº¦
Ġselfin
4
Ġpointing
Ġsummari
Ġdwarf
Ġleaves
And
çļĦçĭ¬ç«ĭ
mq
åįłæį®
roma
æĶ¹
Ġpolymers
lescopes
æ¨¡åŀĭä¸ŃçļĦ
kov
Ġç
å¯¼çİĩ
Ġnilpotent
Ġfluxes
tellar
è¿·
Delta
è¡Įä¸ļ
Ġass
~=~
kes
å¤ªéĺ³ç³»
çĽ´è§Ĵ
Ġbalance
uclear
harp
ĠNd
}||
Ġcharacters
çļĦä¸Ńå¤®
æī©å¼ł
Ġanalysed
æł¼å¼ı
different
ije
åŁºæľ¬ä¸Ĭ
ks
fg
ijkl
mma
åĽ½éĺ²
Ġhold
Ġsemicon
ĠMath
connected
èļ
}_{(\
Ġanalytically
ï
mera
fo
äººä½ĵ
Ġconducting
Ġå®Įåħ¨
}~\
è·Ŀç¦»çļĦ
responding
Ġcoordin
Ġéļı
Ġpredic
Ġnuclear
æĪĳä»¬çļĦæĸ¹æ³ķ
ssive
160
èĤĸåĥı
å¤ĩ
ç¡®ä¿Ŀ
æĪĳä»¬éĢļè¿ĩ
æĹ¥å¸¸
çļĦè¡Į
Ġhemis
Ġobservational
|}(
Ġhighlight
è®®
å½±çīĩ
èĳ¡
Ġseparations
åŁŁåĲį
limit
éĦĤåĽ¾æĽ¼å¸ĿåĽ½
Ale
Ġåıĳ
çĶľ
curves
tt
æķ£è£ħ
Ġdefinitions
è¿ģå¾Ļ
ä½©
è¯»åıĸ
å±ŀ
Ġä»ª
èĭĶ
Ġrever
Ġå°Ħçº¿
çĶ¨ä½ľ
gain
Ġvs
åĨħåľ¨
LO
Ġ'
èĤ¥
)}}=
ä½Ĩæ²¡æľī
æľīä¸Ģä¸ª
å¼ĵ
otic
={
ç»¿
åĲİæĿ¥åľ¨
æĹħ
ä¸Ģä¸ĭ
Ġnanotubes
ĠDis
uz
Ġspaces
Ġnecess
èīºæľ¯å®¶
Ġ={
Ġå¹¶ä¸Ķ
åħĭ
çĻ½èī²
çļĦæĹ¶éĹ´
æĸ¯å±±
Ms
Ġperturb
Ġåħ·
Boo
suming
Ġpow
Ġåħ¬éĩĮ
ä¸Ģç§į
æ¬§æĭī
ä½Ĩä¸į
>_{
itch
_{+
ĠSo
effect
ĠCC
8333
)<
åŁĥåıĬ
ever
èĤĸ
Ġ+(
ĠCooper
Ġsemiclassical
))}
çļĦéĹ®é¢ĺ
åľ¨éĩıåŃĲ
tangle
ucture
ĠSchroedinger
éº¦åħĭæĸ¯éŁ¦
å»
Ġcommon
æĪ
Ġorbi
åĵ¥å¾·å¼ı
æĭħ
æĿ¥è¡¨ç¤º
æīĢåľ¨åľ°
nA
éĢŁçİĩ
Ġand
åı¯ä»¥çĶ¨
ĠRG
é¾Ļ
æĸ°
æľįåĬ¡
å¼łåĬĽ
å»ºéĢłçļĦ
åĲĮçĽŁ
Ġenabling
Ġä¸īä¸ª
ĠæĿĥ
ä¾
Sq
å¯Ĩåº¦çŁ©éĺµ
Ġcompens
åį¢
äº«
triangleright
åİŁäº§
Ġlog
ellow
!}{(
åī§ä½ľ
Ġindicates
æĪĳä»¬æıĲåĩºäºĨ
è¥¿æł¼çİĽ
çĻ½
ç½ĳç»ľä¸Ń
åıĬåħ¶ä»ĸ
Ġcondensates
Mon
æ³¢
ynolds
u
å¹¿ä¸º
Ġä¼¦
Ġanten
Ġwidely
ound
éªĮè¯ģ
ç»Ŀ
Ġåºķ
è¶ħè¶Ĭ
åĵĪåĭĥ
æŃĮåī§
Ġcomplicated
MC
æ¨¡åŀĭçļĦ
çļĦåīį
æ¬
Ġsignificance
rell
Ġrepresenting
åŁºåĽł
è½½ä½ĵ
501
ä¿¡
ĠCa
Ġoccurrence
èĮĦ
åħīçļĦ
Ġinter
Ġcondensate
Ġcen
åĨĻæĪĲ
Ġprepared
laser
pressure
Ġquestion
é¡»
cn
tained
litz
Ġgates
Ġbias
æĮ¯å¹ħ
EO
Ġcompetitive
æµ®çĤ¹
Ġstructural
ensity
åģ¶æŀģ
Ġdemonstra
éĴł
bre
éĩĮè¾¾
Coulomb
pass
Ġprecession
åĬ±
çŁ¢éĩıçļĦ
åŃĻ
Ġquite
å®ľ
Ġcapable
ulation
äºĨå¯¹
Ja
éĹ®é¢ĺçļĦ
è¯Ńè¨Ģ
éĢļå¸¸ä¸º
finition
res
èĢĢ
Ġconsistent
aX
çļĦç
ĠApp
Ġem
å½±
Ġè¯´
Ġæ¸©
õ
Ġut
Ġ|_{
tone
åĪ¶åº¦
çłĶç©¶ä¸Ń
ĠåĬŁèĥ½
åĬ¨åĬĽåŃ¦
èµĭ
Ġvariance
èĥ½éĩıçļĦ
äºĨè¿Ļä¸Ģ
Ġåħ³
Ġtheoretically
äº¤åıīçĤ¹
ĠæĪĳä»¬çļĦç»ĵæŀľ
çº¿æĢ§ä»£æķ°
Ġrequires
è¶³å¤Ł
åĽłç´ł
Ġwords
tial
Ġheavyion
æĸĩèīºå¤įåħ´
Ġåıªæľī
éĥ½
)}^\
dust
Ġdy
Ġfive
å¢ŀåĬłèĢĮ
ç»ĦæĪĲéĥ¨åĪĨ
miniscent
Ġmay
éĺ»
å¥¥åı¤æĸ¯
èĸĦ
Ġcorona
çļĦä¸ĬéĻĲ
\},\\
ilu
Ġconductivity
è¥¿åį°åº¦
æ±¶
åıĳå¸ĥ
ĠSte
Ġçİ¯å¢ĥ
ute
Ġballistic
ĠMicrowave
jecture
è§Ĥå¯ŁåĪ°äºĨ
æĢ§
poch
sities
è¥¿æĸ¯
]}=\
æ³¢åħ°
æĭ¼ä½ľ
auchy
cate
å®ĥçļĦ
Ġsuggesting
æĸ¹éĿ¢çļĦ
Ġintegers
MOS
æĭĴ
ĠKe
BN
åŁĥå°Ķ
ĠLO
å£³
rtin
;\)
oy
æ¸¸æĪı
ç±»åŀĭçļĦ
è·ĥ
en
Ġnil
æķĪæŀľ
isted
ĠéĻĲ
Mc
çģµéŃĤ
Ġcontra
qui
æ³ķåĽ½äºº
Ġmetal
å«©
ç¥ŀç»ı
Ġwinds
Ġ=&\
è
çļĦä¸ĢäºĽ
here
ç®Ģå¹¶
lerian
ĠåŁº
æ£ĺ
Ġreasoning
Ġcollo
Ġstem
TV
Ġmoder
Ġç©º
æ¡Ī
æĦŁæŁĵ
law
éĻĪè¿°
let
mong
js
nities
èĶ
éĢļè¿ĩå¯¹
åĲĳä¸ľ
massive
329
Ġbook
Ġnotion
çļĦæ°§
)}-\
Ġæ»
pa
Ġbor
åħ¨åĲį
æľīçĶ¨
fere
tin
act
})\\
åħ¬åħ±
ront
cel
Fre
Ġmarket
bright
ĠéĻĲåĪ¶
lean
Ġdecays
Ġcomple
ologies
å¦Ĥä»Ĭ
stat
ä¸įçĽ¸å®¹
cian
Ġex
Poisson
Ġ>
åİĭåĬĽ
ĠèĩªçĦ¶
Ġner
ĠML
ä¾¯
ä¸įå¦¨
è¡ĮæĺŁçļĦ
Ġsequential
pub
ob
ç©ºéĹ´æĹ¶
ĠDou
éī´äºİ
è¾ĵåħ¥
å°ºåº¦
66
åįķä½į
ĠPro
çĭ®
Ġspirals
Ġneighborhood
Hol
interpre
å¼Ĥå¼Ĥ
Ġastronomical
Ġtriangle
}}_{
è¿Ļä¸Ģ
æī®
Ġunique
çłĶç©¶çļĦ
&\
ĠåĬ¨ä½ľ
æĭĽ
Ġtheir
Newtonian
å±ŀæĢ§
ãĢĤãĢĤ
æĸĩä»¶åĲį
aleph
äº¦æĭ¼ä½ľ
Green
pH
)\\&+
ç«ĭ
åĪ©çĽĬ
èĨ
hion
modal
å¯¿åĳ½
äºĨè¯¥
åĬłéĢŁåĻ¨
Ġinterpretation
vier
int
è¿Ļæĺ¯ä¸Ģä¸ª
åħ¶ä½Ļ
Ġconne
veral
Ġbetween
Ġattacks
Ġconf
ĠRes
ĠåĬ¨åĬĽ
Ġ\{(
ä¸įéļ¾
åıĺåĮĸçļĦ
åľ¨S
BM
-[
çĪµ
ĠçĽ¸åĲĮ
hannon
Ġshallow
Ġirrever
ground
Ġcomprehen
éĢĲæ¸Ĳ
71
Ġaverage
Ġä¸Ģèµ·
Ġäº¤
flat
Ġtopics
bracket
{(
BEC
Ġche
æħ¢
å¯Ĩè¥¿
ĠæĿŁ
Ġliquids
æĲ
å°¼å¾·åħ°
Nc
Ġsatu
Ġneutrons
äºĮè¿ĽåĪ¶
å¾Ļ
Ġmodeling
Ġrobustness
)}^{
tera
ase
èĥİ
æ£ĭ
å¸Į
æŀ¶
000
corresponding
æĿ¡ä»¶
Ġæĸ¹ç¨ĭå¼ı
åİ¥
})<\
å¾®è§Ĥ
æĸ¯åĴĮ
Ġfalls
Ġela
é«ĺæ¸©
Ġpersistent
åĬłå·¥
Ġexpan
çĤī
çļĦç¼
ä»ĬæĹ¥
æĪĳä»¬åıĳ
Ġapprox
Ġindex
}ãĢĤ
Ġåıĺéĩı
çļĦæĽ¿ä»£
åĸ»
Ġincomp
theory
æ¢¨
ĠæŁ¥
Ġpr
Ġcalculated
ä¼ĺäºİ
Ġrecognition
èĽ¾
irical
Ir
}],
)!\
æĿ¡æ¬¾
{}^{
Ġproduction
éĿĴå¹´
Ġbundle
å¼ĥ
Ġcorresponds
ĠçĲĨè®º
1234
æĲ¬
éĿ¢çļĦ
Ġyear
ĠBesides
åĵªäºĽ
_+
ird
éĥ¨åĴĮ
]=\
PV
Ġsimu
!\!
å±ħ
polarized
zimuth
éĤ
Ġlin
Ġbrane
ogenic
æĿ¥çľĭ
ines
æĻ®éģįçļĦ
orentz
æĽ¾ç»ı
ĠæľºåĪ¶
Ġ(|
Pf
}}{{\
Ġbring
åĻ
èµ·æºĲ
èĻļ
åĬłåĪ©ç¦ı
Ġwhen
åĸī
Ġgrowth
resp
Ġä»ĸ
Ġresource
ĠVir
Ġexplicit
Ġla
éĩĮéĿ¢
syst
Ġå®ļçĲĨ
éĢĤ
æ¨¡åĿĹ
è¯ķåĽ¾
çĶ·åŃĲ
Ġprecision
å¤Ħ
æĸ¹æ³ķ
åıĺå½¢
Ġshock
Ġpm
Ġdz
hl
ä¸ºç¾İåĽ½
Ġpartial
gative
ä¸īç»´
Ġdescribe
å¤§ä¼ļ
Ġæ¼Ķ
ĠBrownian
Ġtable
Sr
tized
Ġdoes
Ġ=&
Ġ)=
Ġæ²¿
clusions
ĠJpsi
æľīä¸ª
hline
Ġsuppressed
Ġlinearized
fa
åĮĹç¾İ
mulate
Ġmechanical
Weyl
æ³¢å°Ķ
Ġscalars
Hu
Ġcurrently
è¡ĮæĶ¿
ĠFer
Ġæĺ¯åĲ¦
Ġnearby
Ġquantization
mpo
åħĪçŁ¥
Ġtemperatures
ç¬¬äºĮ
oting
çĶ»åĽ¾
=\,\
å®£è¨Ģ
=|\
ä¹Įæĭī
second
èĥ¶
Ġdisappe
Ġexplain
}\}
Ġhorizons
Ġèģļ
ĠæıĲ
æĿ°åĩº
Ġcat
æĪĳä»¬æ¯Ķè¾ĥäºĨ
çļĦæľīæķĪ
å¦Ĥæŀľ
ffici
åīĸéĿ¢
spect
|}.\)
Jq
Ġmuons
500
Ġreconnection
åı¤èĢģ
æ£ĢæŁ¥
èħĵçī¹
Ġrecovered
Ġmorphology
Ġen
mor
ra
RR
selected
Ġchanged
Ġdetection
816
å¿Ĺ
_+^{-
çĽ¸ä¼¼çļĦ
eB
Ġradii
utonomous
æ¶¡æĹĭ
ä¼ł
Ġexer
æĸ¹å½¢
Ġproposal
Ġmanipu
NW
å¼ºåĮĸ
)}/
left
ĠGL
}{|\
ç§©
éĩ
çī¹çĤ¹æĺ¯
vex
æ¶ĪçģŃ
ĠåĨ²
270
Ġunder
å¤§æ¦Ĥ
Ġåħ±æĮ¯
ä¸ĢçĤ¹
èµĭåĢ¼
usion
çļĦè§£
)\;\
Ġprofiles
infin
Ġtight
åħ¬åı¸çļĦ
Ġdec
\}}\
Ġequival
åıĳçĥŃ
å¤ºåıĸ
è®©æĪĳä»¬
)^\
ä»¿
æ¬¾
æİ¥åıĹ
uparrow
Ġscan
meters
Ġcohomology
including
{.}
Ġstructure
æ³Ĭ
åºĩ
é»ĳæļĹ
æİ¢è®¨
äººåı£
tically
åĨľ
ĠSh
è¯¸å¦Ĥ
osh
Ġpoor
ti
Ġsp
ĠRiemann
æĽ´åĬł
Ġå®ļçļĦ
çļ®èĤ¤
Ġregions
å¾ªçİ¯
åľ°çĲĥ
æķĻä¼ļ
æĬķå½±
åĽĽ
Ġanalyze
åĲĲ
çĲĨæŁ¥
}/(
è¯¦
VD
hom
constant
jr
ĠLu
Ġsynch
çļĦæĬĢæľ¯
ct
Ġpatterns
Ġ}^
Ġthereby
Ġdynamically
Ġpump
Ġpreferential
çī©çĲĨåŃ¦
ter
Ġ(.),
Ġnanotu
tig
çļĦå·¥ä½ľ
çļĦæĪĸ
æ¶Īè´¹
æĺİæĺŁ
ment
Ġlands
8
è¡¨
Ġnotions
æĮĩå®ļçļĦ
é»İå·´
Ġgover
çļĦç¨³å®ļ
å¤±åİ»
\|_
$\
Ġstrategies
å®īåŁ¹
licit
luon
cribe
è´¹åŁİ
èĤĸåĥıçĶ»
Ġassess
licate
å°ıè¯´
Ġad
})\
æ¼ĶåĶ±
æķ°çĻ¾
Ġä¸Ģä¸ª
l
è¿Ĳæ²³
ä¸ŃæıĲåıĸ
åĥ§
micro
æĸ¹ç¨ĭä¸º
ä½¿
Ġim
qq
Ġanalog
Ġuncon
ä¼ĺéĽħ
å±ĢéĻĲ
æ³¨æĦıçļĦæĺ¯
åĲİæĿ¥è¢«
Ġä¸ŃçļĦ
dependence
Ġarising
Ġallowed
ç§¯
ä¸įå¾Ĺ
çļĦçĲĨè®º
ï¼Įï¼Įï¼Įï¼Į
Ġimprovement
çļĦèĮĥåĽ´
æĶ¾å°Ħ
peci
èŀį
}|.\)
è§Ĥæµĭç»ĵæŀľ
Ġdimensionless
)})=
)]\)
705
&=
dge
itons
Ġè¡¨
Ġcaptured
Ġmanifolds
éĻĲåĪ¶çļĦ
æľĿ
éª¨éª
-\,
Ġtopologically
çĶ±ä¸Ģä¸ª
ç¨ĭåº¦ä¸Ĭ
Ġc
ns
çļĦåħ¬å¼ı
æĹ¶ä»£
Ġsummarize
)}^{(
Ġformulae
Ġnat
è¿ĺåĮħæĭ¬
Ġitem
graphic
éĩıçº§
Ġseveral
Ġclass
Ġfails
lass
Ġneutral
)'
æ¼
Ġæ¯ıä¸ª
èĭ±å±ŀ
om
Ġtori
ă
Ġç¼º
è¯·
çĶ·
llig
Ġremove
Ġcontext
èĹı
Ġoverall
Ġdiagram
Ġelectroweak
ä¿¡å¾Ĵ
çĪ±å°Ķåħ°
æŃ¤å¤Ħ
çºł
Ġremoved
çļĦç¨³å®ļæĢ§
Ġgenerators
çļĦæĥħ
)})
Monte
Ġrelate
Os
PO
Ġå¾Ģ
éº»éĨī
Ġpropos
Ġcons
02
ä¹Łåı¯ä»¥
Ġprobing
çļĦçĽ¸äºĴä½ľçĶ¨
Ġendowed
these
=\{
^-_{
wi
èĥ½å¤Ł
Ġmis
çī©çĲĨéĩı
Ġinvestigating
éĺĲæĺİ
Ġplan
æĥħ
&:=
çļĦæµ·
å®ĩå®Ļä¸Ń
ĠHa
ä¸įæĸŃ
æķĻæĿĲ
Ġqubits
ç»Ĩäºļ
ä»İä¸Ń
)/(
çĶ°çº³è¥¿
çļĦæŀģéĻĲ
ith
_+}
Ġstre
Ġstates
Ġåįģ
çĤ¼
Ġinfluenced
ä¼¦æķ¦
Ġdeeply
ĠçĲĨ
åĽ¢ç»ĵ
Ġdifficulties
natural
Ġanalys
MeV
éĵľ
è¯¾ç¨ĭ
æľīæķĪ
Ġquas
medi
ĠAU
iZ
Ġevolve
åį°åº¦æķĻ
ĠHer
ertz
]:
Ha
Ġä¹ĭéĹ´çļĦ
sible
Ġphotosphere
itro
Xi
å¯¸
PS
mance
Ġcosm
kine
Ġdifferences
ches
Ġdiffraction
Ġtoric
å´©æºĥ
èį·åħ°
æĪĳä»¬æĿ¥
ceed
Ġenrich
åı¯ç§¯
åİŁçĶŁ
æ¯ıä¸Ģä¸ª
ogen
Ġadop
Ġobsta
Ġtuned
Ġholographic
Ġrun
OH
å¸ĥ
holtz
d
å½»åºķ
potential
II
è¡¥åħħ
è±
Ġtrends
Ġinte
åĬłæĭ¿å¤§
éĴ¥
èĽĭ
Ġfiltering
åħ¬åĪĨ
ç¡®
Ġheavy
èĤ¯å®ļ
Ġly
ces
opf
éķ¿åº¦çļĦ
çļĦä¸ī
æĮ¯åŃĲ
èĨ¨
ĠåŃĲ
Ġtype
çĽ¸æĴŀ
41
\\(
J
å¤įæĿĤ
sen
trace
ĠçļĦæ
Ġyiel
Ġ\(<
åľ¨è¿Ļä¸ª
}|_{
ġ
Ġstrict
æĮ¯
HS
å¾®ç§¯åĪĨ
éĿ¢ç§¯
Ġä½ľ
æķĻç¨ĭ
æĶ¯ä»ĺ
ournal
Ġgrown
ĠçļĦç»ĵæŀľ
æ¯Ķå¦Ĥ
ether
ferred
kx
éĵ¸
Ġright
è¿Ļç§įæĥħåĨµ
Ġrestrictions
æ³¢å½¢
ä½¿å¾Ĺ
æı´
har
ç§¯åĪĨ
pe
è·Ł
formations
ç©ºéĹ´ä¸Ń
Ġconfine
Ġdiscrete
åį°å°¼
Ġgra
ĠçĶ»
çļĦç¡
æ±Ĥè§£
ç»´å°Ķ
Ġquenched
ç±»ä¼¼
æĭ
å¤ıå¨ģå¤·
Ġthin
Ġtunable
ªĹ
Ġæ£®
éĢĢåĩº
84
ä¼°è®¡
appro
ç¼ĵæħ¢
Ġns
sky
arily
404
]^\
Ġcolliders
ĠLaplacian
åĳ³çĿĢ
Ġmodels
è®¨è®ºäºĨ
Ġ)\)
ology
ĠSO
))=(
å¸¸æķ°
åľ¨è¯¥
åİĺ
Ġuniquely
åłª
=~\
×
Ġpresence
inten
Ġnet
åħĥé¦ĸ
Ġisolated
èĿ¶
æĪªæĸŃ
è¿Ľè¡ĮäºĨåĪĨæŀĲ
ä¹Ļçĥ¯
Ġvector
las
Ġfields
tu
ye
Ġåı¯èĥ½
^-}
ork
Ġ{}
standing
Ġbio
¨
Ġuses
Ġmigration
æ·¡
æŃ£å¼¦
Ġlocalized
Ġconcentrations
è¶Ĭå¤§
åįģåŃĹ
çŁ¿
tened
çĺ
\|_\
evertheless
onents
constra
dD
å§ĭç»Ī
ä¸Ńåı¯ä»¥
å¤įæĿĤçļĦ
èĬ¬åħ°
iN
Ġturn
å®īå¾·
æİ§åĪ¶çļĦ
dB
éĿĻçĶµ
}\|^
åı¯èĥ½ä¸İ
ä»¿å°Ħ
results
Ġdata
å¼Ħ
Var
Ġcriticality
Ķæ¡Ī
è®°åı·
pically
å¼ķäºº
Ġpreserve
gne
Ġgenerically
Ġemerge
ph
Ġlimitations
pl
iants
å¤
åľ¨
ä¹¦åĨĻ
Ġ12
Ġus
}*\
ling
ĠSc
ĠåĲĳ
Ġundergoes
Ġphasespace
Ġcentre
è·¯æĺĵæĸ¯
åĪ¤æį®
med
ç»ĵæŀľä¸İ
å¨ģèĥģ
Ġheuristic
ending
Ġ\([-
æľŁæľĽ
ä¸įåı¯çº¦
Ġoccur
^{-|
}\,=\,
^{+}_{
ive
ä»ĸæīĢ
åı¦ä¸Ģæĸ¹éĿ¢
çĲ¼
ĠLow
rals
Ti
éĨĴ
Ġsemiconductor
èĬ
RV
æľīåħ³
ĠRela
Ġåĳ½
thinspace
ĠFo
å®ĹæķĻæĶ¹éĿ©
Ġæ¯Ķè¾ĥ
Ġinstru
ĠHz
éģµå®Ī
Ġcavities
Ġdiffu
Ġrigid
çļĦç»ĵåĲĪ
Ġstrip
ĠAnaly
stre
Ġsteady
Ġitera
ĠBack
å¯¹æĸ¹
Ġpulse
para
ä½ı
è¶ħæĸ°æĺŁ
éĥ½åħ·æľī
ä¼½é©¬å°Ħçº¿
jected
Ġgeneralizing
Ġinferred
éĢĴå½Ĵ
çļĦè¿ĩç¨ĭ
!}.
æĺ¯ä¸Ģ
ç»´çĶŁç´ł
))}{\
varLambda
åıĤèĢĥ
perp
widehat
ival
Ġmet
resses
Ġå¢ĥ
Ġpul
^*)=
key
hoton
æ¬²
Ġ^\
çº¦
ins
æĿŁç¼ļæĢģ
Ġinvestigate
åĳ¢
Ġfini
jet
Ġri
polynomi
Ġcondensed
)],
å°ģä¸º
Ġsitu
çļĦæľĢä½³
yond
æĸ¯é¡¿
)}}.
Ġä¹Ĳ
ĠTelescope
^-(\
Ġcoales
ä¸Ģä½į
Ġgeode
ĠæļĹ
_{+}\)
Ġè¡¨ç¤º
°
æī¹åĪ¤
ä½¿çĶ¨çļĦ
Ġscenari
çºª
Ġsym
Ġsaturated
çİĭå®¤
Ġpartition
ourse
Las
â
hol
å½Ĺ
Ġdise
Ġæĸ¹å¼ı
giant
ç«ĸ
))\)
Ġhistories
çģ«è½¦
èīºæľ¯
GRB
)^{(
Example
Ġnone
Ġfading
Ġchanging
Ġä¸ľ
mplex
Ġ\}\)
Ġcommu
\|(
ĠåĬ¨
é¢ģ
Ġsphere
é©¬åħ¶é¡¿
herence
éĢĲ
Ġshear
vis
Ġsimulate
Ġrobust
èĢ³æĽ¼
Ġformulation
Ġgoing
cou
Ġatmos
Ġmodelled
Ġsgn
)\|^
å¤§éĻĨ
lated
Ġwhenever
ç¥ŀçļĦ
Ġresolve
ĠéĢļå¸¸
ĠBR
å¤§å¾Ĺå¤ļ
Ġcoming
dri
provi
}\;,\)
)}{(
){
ç»ĵ
è¯ļ
å¤ĦåĨ³
ldots
)!}{
ĠSpe
Ġconjecture
te
å¤§éĩıçļĦ
æļĤæĹ¶
experi
æĬ½
ç»ĻäºĪ
ä¼ļ
è´¨éĩı
çľ¼
dominated
éĢī
random
Bmatrix
Ġunified
åħĪè¿Ľ
})}.\)
èĳ£
åı³ä¾§
çļĦåĽĽ
Ġçı
Ġcircuits
flux
ä¼Ĭæĸ¯åħ°æķĻ
ut
Ġfashion
Ġrepeated
åĽ°
jets
å¹³åĿĩ
¿Ģ
ä¸Ģåľº
èĢģ
ä¿ĿéĻ©
ä¸¤ç±»
å¹´èµ·
å°ĶçļĦ
Ġchoosing
ç§
å¤¸
zation
ision
ym
åĨħéĻĨ
ĠåĨħéĥ¨
æĶ¶èĹı
å¾Ĵ
ighting
çļĦè§Ĵèī²
Ġins
æĺ¯æĹł
Ġ}+
Ġdigital
ä½ıæ°ĳ
æ£ĢæµĭåĪ°çļĦ
éĩĩçĶ¨äºĨ
Ġbinding
)=\|
©çĮİ
ising
Ġsphero
ness
æĻºåĪ©
Ġnonde
ĠæĽ²
ĠPark
dex
æĸĩä»¶ä¸Ń
resolved
KM
ĠçļĦæĸ¹æ³ķ
Ġnematic
Bf
ä¸°åº¦
Ġinves
stic
^*_{\
è§£æķ£
xM
Ġpredicted
å¯¹æµģ
Ġcom
170
æ¯Ķå¦Ĥè¯´
çļĦçł
icity
æĸ¯å±±èĦī
èĬĤå¥ı
ibbs
was
ME
aD
å²ĽåĴĮ
Ġcontribute
çĶŁæĢģ
uristic
çĶµä»ĭè´¨
Ġarbitra
åħħ
area
Ġpropose
Ġoscil
rfloor
ĠAnalysis
Ġinterferometry
Ġ{-
suc
Ġ-{
Ġexamin
section
Ġmethodology
pical
Ġdegree
bet
ceil
#\{
)^{|\
åı¯ä»¥è¡¨ç¤ºä¸º
è´¯
ĠåĨ³æĸ¹æ¡Ī
å®ļæĢ§
æģĴæĺŁ
æĬ½è±¡
ĠTran
bg
çļĦæºĲ
edback
çªģåĩº
Hor
æĻ®éĢļ
ona
})}
éĿ¢
äº¤åıī
Ġclassical
Ġquenching
çļĦåĪĨæķ£
Ġthick
osz
Ġplasmon
Ġtransforms
åŃĺ
oped
Ġflares
Ġinver
Ġcondition
æł·
Ġstage
èĬ±åĽŃ
Ġsu
éĵ¾æİ¥
Ġ1
ond
è¯¥
}}\\
æ±¡
Til
è´
ducts
nian
Ġå¼º
æĹ¶æľŁçļĦ
rage
Ġnonequilibrium
Ġä½įäºİ
å·¥èīº
é¦ĸ
SED
character
æľ¯è¯Ń
ĠXMMNewton
Ġcorrectly
ĠåĨħ
å§Ĳ
rot
éĽ¶çĤ¹
å·¨
ä¿Ŀè¯ģ
éķ¿åħ¬éĩĮ
Ġseparated
Ġfixed
!},
kD
çĪ¶æ¯į
Ġextraction
åŃ¦å®¶
ism
çļĦèĩªçĦ¶
èĬĿåĬł
^{-{\
gene
Ġgalactic
Ġsubstitution
å®ĥä»¬åľ¨
ger
ature
æĺ¾çĦ¶
Ġrecta
å°ĳ
Ġchannels
çİ»
Ġindeed
drical
_-)
sional
æķıåº¦
Res
Ġ)\
pmb
Ġtu
èµĦæºĲ
ä½įç½®
åıĺä¸º
ä¹ĭä¸Ģæĺ¯
ĠMS
_{+,
çļĦæ¸¸
åŁŁä¸Ń
åĩ½æķ°åľ¨
Ġjunctions
å°Ħç¨ĭ
åħ°
win
çľĭèµ·æĿ¥
Ġdilu
æĹ¶éĹ´çļĦ
Bx
modes
Ġstatic
éħµ
Ò
Ġgraph
äºĭå®ŀä¸Ĭ
çļĦçŁŃ
åī§æľ¬
Ġfrom
Ġrings
å¤ĸ
Ġfield
radiation
å¼ĹéĩĮ
çĬ¶åĨµ
èĢĹ
}}|
Ġlift
Ġlongterm
Ġdecade
æ¡ĳ
Ġcontains
æ´ĭ
åħīåŃĲçļĦ
Ġ\\\
Ġachieving
æµĭéĩıçļĦ
ĠTheorem
lable
åıĪç§°
Ġfin
éĢļè¿ĩä½¿çĶ¨
'}\
äº®çļĦ
ellular
+}\
Ġnoise
ä¸İä¹ĭ
æŃ¤æĹ¶
Ġcollisional
ä¼ļåıĳçĶŁ
ç»ĵæŀľçļĦ
Ġå®ļ
åıĳæĺİäºĨ
éĩĮäºļ
,...,
dU
Ġpolym
è¦ģå¡ŀ
ç£¨
Ġow
Ġadapted
ĠAF
Ġ:=\
æ¾Ħæ¸ħ
Ġæķ°æį®
Ġmessage
)|}{|
if
clo
éŁ³
HF
ç»ª
olution
ured
é²ľæĺİ
onent
Ġcap
ç§»æ¤į
Ġearlytype
åħ±åĪĨ
æŁ¥è¯¢
bf
}^*\
ĠçĶµ
cd
osity
çĳļ
GP
éĵģç£ģ
Ġser
Ġpolynomials
ĠWhat
ä¸įå¯¹ç§°
Ġåįķ
)\;.
ptons
åľ°éľĩ
Ġpo
Ġrand
åºŃ
ä¸Ĭä¸İ
fy
*
è¯¥å¼ı
ste
åĭĭ
ä¸¤è¾¹
}_*
73
è®®åĳĺ
çĶ³
åįļ
åĪ©æ¡ĳ
ä¿ĥä½¿
è·¯æĺĵ
Mat
yleigh
duces
ä¸ĵå®¶
Ġrest
Ġphotonic
Ġinterse
Tho
åīįåĲİ
äº¤åĵįæĽ²
å¾·åįİ
}})\
è¿Ļä¸ªç³»ç»Ł
bound
éķ¿çļĦ
)]_
åĩ¡
å¾·åĨĽ
[[
xiliary
åħŃ
ations
åľºæĻ¯
çļĦçľŁ
Ġmethods
åĴĮä¸ĢäºĽ
ĠKo
å°ĳå¹´
kg
Ġcoincides
çļĦçŁ¢éĩı
åĵĪå¾Ĺ
Ġéĺ³
åĮĸç®Ģ
æĬĳ
ttp
è®°èĢħ
lein
dynamic
Ġoxy
ç²ĺåº¦
æ£®
ĠæŃ¢
ä»¥ä¸ĭ
ĠSpecial
su
)=|\
çļĦéķ¿
Ġbars
vanov
gr
è®®ä¼ļ
èĩªèº«
Ġrecon
Ġincorporate
¨¡
Ġè¿ĩæ¸¡
æĦıä¸º
Ġsuperfluid
ç»ĿçĥŃ
ä¸ĭ
ä¿ĥè¿Ľ
å·´å°Ķ
Ĥ¹
Ġdeformation
Ġeffe
åĨĽéĺŁ
Ġ(.)
åħīæĽ²çº¿
æĳĦå½±
Ġexpressed
ç§įæĹı
Ġfractional
Ġreson
itH
560
Ġä»¥
teness
ç²ĴåŃĲ
Ġnovel
}](
wood
_{*}\)
ç¡®å®ļ
tic
Â
,\\&
ominus
Ġè´Ł
æĺ¯åħ³äºİ
Ġep
è®¾å¤ĩ
Ġgraded
Ġenergymomentum
enha
è¯ºè´Ŀå°Ķ
½®
æī©å±ķèĩ³
Ġba
æĸĳ
ä¹ĭä¸Ń
æ··åĲĪ
æľĢå°ıåĢ¼
çļĦç«ŀäºī
æĶ¯
éķ¿çº¦åħ¬åĪĨ
å·¦è¾¹
åħ¨éķ¿åħ¬éĩĮ
çļĦå®ŀ
Ġsubgroups
çĽ¸çŃī
|},
}\;\
Pitaev
lined
Ġdescrib
}^{-}(
å¹¶äºİå¹´
çĤ¹åĴĮ
åľ¨ä¸Ģ
ĠOri
igma
iesz
zeta
it
Ġè¿ŀç»Ń
åľ¨ä½¿çĶ¨
å½ĵæĪĳä»¬
å¸ĥéĩĮ
å°Ĩåľ¨
single
ä»¥åıĬ
network
147
Ġgeneralizes
æĲŃ
Ġrd
å¤§èĢĮ
çļĦæ¶²
ef
forma
æ¼Ķ
çĽ¸åħ³æĢ§
é±
Ġvir
èĴĻçī¹åį¡æ´Ľ
ä¹Łå°±
é«ĺåİŁ
æĭįæĳĦ
ç®
mula
å¼§åº¦
195
Ġinterpretations
çļĦè½¨éģĵ
Ġwithin
hift
Op
Ġé¢ĳçİĩ
Ġsqrt
çļĦåĨĽéĺŁ
Ġspatial
Ġwri
åĴĮå¤ĸ
56
ĠLebesgue
æŃĮæīĭ
çªĦ
ä¸Ĭæĸ¹
çļĦåİŁåŃĲ
)=:
æĸ½åĬł
seu
Ġobtain
ir
mensional
æŃĮåī§éĻ¢
Ġbox
Ġgranular
Ġlatent
æİ¢æµĭåĻ¨
äºİä¸ĸçºª
Ġmultidimensional
ĠIm
inity
ĠFurthermore
æıĲåĩºçļĦ
Ġ{\
Ġbandwidth
çļĦæŀģ
Ġrepresents
39
Ġçĸ
è½¬èĢĮ
å§ĵ
Ġatmospheric
)\\&\
Ġmeta
biased
Ġoscillation
Ġemploying
å¼ĢåĲ¯
ä»ĩ
Ġuniverse
rons
æ¨ªåĲĳ
grang
par
ĠObserv
^*.
Ġfaith
æııç»ĺ
æĢ§åĴĮ
å§Ķæīĺ
çĿ
}((\
æĮ¯åĬ¨åĻ¨
ards
ille
åľ¨è¿Ļé¡¹
jo
Ġcollabora
Ġbo
jf
Ġanalyses
Î
åŀĤ
lcl
Ġot
vert
CFT
ä¸įè¿ĩ
Ġnumer
Ġpopulation
ove
)|=
Ġtheta
}})^{
¾İ
Ġclusters
Ġemitting
}_+
Ġnanow
Ġsomewhat
Ġcoronal
Ġrealization
éľĢæ±Ĥ
57
åĪĻçĶ±
åıĮæŀģ
è¢«çĶ¨æĿ¥
able
quark
ve
èī³
Ġonce
ĠæĬ¤
Ġcol
ossible
Ġpri
}=&
ç«ŀäºī
Ġeffectively
Ġabst
åĸ·å°Ħæľº
çļĦèĬ±
|)
Ġsheaves
Ġfeasibility
arse
å°¼ç½Ĺ
ionization
Ġbeing
æĹłéĻĲ
)}]
Ġcuprate
çļĦK
æ¬¡ä¸ĸçķĮ
åħ¬æ°ĳ
Ġtwos
çİ¯çĬ¶
Ġsectors
ĠæŁĲ
sive
ä¸ĢäºĽ
Ġå½¢
æĪĳä»¬ä»¥
ĠDu
æł¸æł¸
Ġpix
è¾Ł
Ġcode
Ġfol
}})(
ĠLee
Ġreaches
æ½ľåĬĽçļĦ
vered
ä¸ºäºĨæĸ¹ä¾¿
Ġoutw
è¡°åĩı
ĠåĪĹ
éķľ
å¹´ä»£
ĠMeasure
çŃīä»·çļĦ
æ³¢æĿŁ
Ġprocess
ĠFigure
Ġamb
Ġstand
vin
RF
Ġrenormal
Ġå®¶
äºļä¼¯
~,\)
å¼łéĩıç§¯
ĠBoth
vs
99
Ġcannot
\,,\)
é¢ļ
å¿«
Ġpacking
Ġæ±
Ġcharm
sphere
_{_{
bigcap
æ¤İ
æķĮäºº
yle
Ġlimi
chastic
ç³»ä¸Ń
ç»ĨèĬĤ
Ġimbal
Ġtens
Ġattached
odromy
æīĢä½ľ
hip
pite
èĴĤäºļ
åŃĲéĽĨ
æ²ĥ
çļĦéĩĳå±ŀ
æķ°åŃ¦å®¶
ø
lau
å°¿
éĻ¢éķ¿
æī°åĬ¨
Ġdeta
Ġmoreover
åĳ¼åĲ¸
éĩĳå±ŀæĢ§
ä¸»ä¹ī
Ġbare
å®ĺåĳĺ
çļĦæ¸ħ
å²
éĩĮ
åĪ©çļĦ
fying
æī¾åĩº
ining
ĠFock
åĴĮD
éģŃåĪ°
Ġomega
mb
407
è¿ľ
)\;,\)
Ġcase
erar
central
çļĦè¿ĩç¨ĭä¸Ń
Ġç½®
pd
Ġappro
nearest
Ġadmitting
çº¿æĢ§
å¯Ĩè¥¿è¥¿æ¯Ķ
GRET
polar
å¦¹
çī©è´¨çļĦ
ĠæıĲåĩº
åħį
è·Ŀ
RHIC
åıĸåĢ¼
Ġpronounced
Ġr
Ġnearly
å¢ŀéķ¿
èµ°
å¼Ĥç«¯
Witt
çļĦçĤ
cks
',
Ġset
Ġfamily
çļĦç´§åĩĳ
Ġiron
ç¡¬çĽĺ
éļı
çļĦæĻ®éģį
åİļåº¦
Ġmodular
Ġè¿Ļæĺ¯
çĽĲ
lish
]_{\
Ġmathematical
çİĩ
ä½¿çĶ¨äºĨ
},-
æį¢
æĺ¯ä»¥
éĽ·
length
Ġcorru
æŃ§
åĢĻéĢī
åį°åº¦çļĦ
é¢Ħå¤ĩ
æ»ĳåĬ¨
åĴĮç£ģ
æľīåĬĽçļĦ
post
307
ori
Ġmagnetism
Ġlanguages
çļĦæ³ķå¾ĭ
è¡¥åģ¿
åİĨåı²ä¸Ĭ
Ġrece
nds
æİ¢è®¨äºĨ
dium
éªĮ
Ġ,\\\
Ġprominent
é¡¶å±Ĥ
éĻĦåĬł
Ġfaint
using
ĠçĽ¸åıį
bur
ç±»åĴĮ
\})\
tern
Ġstriking
ä¿Ħç½Ĺæĸ¯
ĠDe
Ġ<
vaila
Ġsy
hu
mentally
sitivity
ated
é©¬åħĭæĢĿ
åıįåºĶ
_
çĶµåŃĲåĴĮ
Ġmas
)_{\
åıį
geq
åįķçº¯
çĲĨè®ºä¸Ń
éĶ¥
nt
."
Ġacts
åį°ç¬¬å®īäºº
æīŃæĽ²
stra
éļĻ
Ġsocial
Ġseven
çļĦéĻĲåĪ¶
å¸¦çĶµ
Ġfunctionals
é¢ĩ
è¡ĮåĬ¨
nk
è®¾æĺ¯
ä¸įåı¯èĥ½
core
ĠApplying
åľŁèĢ³åħ¶äºº
ĠMAG
å®ļåĲĳ
13
))
åįĪ
)-\
^-\
æľįè£ħ
Ġdefin
TT
Ġç¥ŀ
ĠPAMELA
Ġty
ele
Ġextensively
¥¿
Ġimpro
æĻ¶æł¼
ĠRa
lov
Ġpermits
çļĦæĳ©
ĠSha
Ġadjoint
é±¼ç±»
Ġalgorithms
gue
çģ°å°ĺ
yu
çļĦæ½ľ
Ġanisotropies
åĽ½çļĦ
}([
}ï¼Į
Ø
tible
ila
é©¬
æ³¨æĦıåĪ°
ware
Bs
çİ°æľīçļĦ
ĠdV
((\
å½Ĵçº³
ä½ľåĩº
ĠNa
path
534
çļĦå½¢å¼ı
Ġfluctuations
Ġtraffic
ç§ĺä¹¦
ä¸ľåĮĹ
Ġsig
Ġåħ¶ä»ĸ
ĠBay
Ġçī©ä½ĵ
ä¹īå¤§
enskip
Boltzmann
)\)
ar
åį³ä½į
èĩ³
olmogorov
ä¸ĭä¸Ģ
æĮ
)^*
Ġredshifts
Ġçģ«
ĠæĪĳä»¬çļĦ
convex
/\
ĠJacobian
¿Ĵ
åħįè´¹
Ġanaly
æ²¡æľī
Ġuntil
AV
Ġfilm
disk
è°į
}-(\
éĩĩéĽĨ
pre
èĩªçĶ±èĥ½
ä¸¤çĻ¾
åı¯ä»¥å¾ĹåĪ°
Ġinvarian
å¨ģæĸ¯
åĩłæ¬¡
è¯ºæĸ¯
Ġpolytope
bular
]}_{
mains
çļĦå¤įæĿĤ
çĵľ
å¹½
manent
é²Ī
CF
Ġflexibility
dg
VS
æıĲäº¤
æı¡
ropy
Ġaspect
Ġ,
]=(
cv
Ġé¡¿
æĤ²
åİŁçĲĨ
ledge
Ġproducing
Ġmapped
æ¨ª
Ġåĳ¨æľŁ
çº§èģĶ
É
åĪ°
å¥½åľ°
Ġcamera
Ds
ĠOb
}}}{\
763
å¤§åİ¦
Ġç¤ºäºĨ
æľīä¸¤
Ġperhaps
éĩįè§Ĩ
ĠQCD
Ġsigma
ç»ĩ
å¤§æķĻåłĤ
Ġpointed
ä¿¡éģĵ
æł¼åħ°
model
¬
ĠFourier
å®ļä¹īçļĦ
åıĤè®®åĳĺ
ably
}=|
)*
)}{|\
psing
ission
YangMills
èĩªä¼ł
è¿Ĳè¾ĵ
Ġdestro
çļĦéĤ£æł·
Ġactual
Ġtriple
è¢«ç§°ä¸º
ĠGalois
è°ĥ
ĠAdSCFT
VA
ç¬¼
ressed
Ġæ¶
Ġwhole
ws
igi
æĶ¾å¼ĥ
æĬĬå®ĥ
]=-\
è¿½
æµ·åĨĽ
Ġpassive
1667
åıĳæķ£
Ġæł·
éĥ¨æĹı
æĬ±
éĢŁåº¦çļĦ
åİŁ
gl
states
Ġrefor
.\\\
Ġchemistry
Ġinequality
Ġincluding
}|}
é£İæĻ¯
åı¤ä»£
'}(
ĠRS
Ġhypothe
MB
äººåįłé¢Ĩ
çļĦæ¦Ĥ
yr
Ġ)
æħķ
åı¯èĥ½æĢ§
å¼¯æĽ²
nary
çļĦæ°´å¹³
æ³¨å°Ħ
å®ĿçŁ³
å¯¹æ¯Ķ
åīĬ
ç¼©çķ¥
660
éĨī
æĮ«
Ġtraps
Ġbubble
ä½ľ
+\,\
Ġè¡Į
235
ĠPen
åĩºä¸Ģä¸ª
çļĦçĪ
mathcal
è§Ĥå¿µ
æĺĨèĻ«
Ġpredictions
Ġclosure
éĽĨä¸Ńåľ¨
}.
çĽ®çļĦæĺ¯
Ġoutflows
Ġadmits
TG
NU
Ġhuge
è¯¦è§ģ
ĠAlthough
gramma
Ġutili
çĬ¯ç½ª
è®¾
åıĻ
)\\&=\
Ġvarious
éĩį
Ġ-(\
Ġgalaxy
åĩ½æķ°
åľ¨é«ĺ
å¤§å°ı
æĸ½
çº¿æĢ§æĸ¹ç¨ĭç»Ħ
Ġåº¦åĴĮ
incar
çļĦæĦıä¹ī
Ġmesoscopic
ny
åħīçĲĥ
å°Ķåħ°
Ġsuccessive
mory
Ġproviding
cusing
çĽ¸ä¼¼æĢ§
éĴ»
ĠLett
Ġç¿
åĪĨå¸ĥåĴĮ
cript
çļĦæĽ²çº¿
}}+\
Ġweighted
Ġqui
æĶ»
as
ids
PW
ang
çļĦæ¨¡å¼ı
éŁ
ighted
Ġretrie
Ġmotion
å¤ļçļĦ
ä¸¢
Ġbri
NV
play
Ġnonthermal
Ġ)_{
ĠæĹı
éķ¿çº¦
å»ºéĢł
èįĲ
ten
åľ¨å¤§
èµĦåĬ©
åħ·æľī
till
Ġgravitation
tification
Na
çĹĩ
algebra
æŀģåľ°
Ġanalogue
ç§»å±ħ
Ġwire
CuO
existence
å¹²çĩ¥
åįľ
çŁ¢éĩı
å®ļéĩı
Ts
å¼¹åĩº
Ġbehave
ĠDo
Ġmat
åıĳå±ķåĩº
æĢ»ç»Ł
Ġperforms
ç½Ĺæĸ¯
èµł
ora
Ġembedded
æĹ¨
iring
clear
Ġgeometry
car
åĪĨéļĶ
Ġaccounts
ogoli
tios
éĺ³
yi
Ġåħ¬
Ġmappings
ç±»æĺŁ
bili
èĴĻçī¹åį¡æ´Ľæ¨¡æĭŁ
Ġinitio
acu
}=(
Ġplausible
ä¸ĢæĶ¯
mpling
ĠN
Ġvarie
çĻ»éĻĨ
Ġrelies
åĩĨå¤ĩ
å¼ºåº¦
Ġcentral
Ġnetworks
Ġæİ¢
Ġrespectively
ven
æĶ¿åºľçļĦ
é¾Ł
ĠLMC
lbrace
SU
ĠåĲ¸æĶ¶
ĠåħĪ
çŃ¾
èĤ¡ç¥¨
stically
wer
509
tten
æ½ľåľ¨
åįĬçĲĥ
rowave
Å
fication
çļĦæ´Ľ
å¯Įæľī
21
Ġneutron
ent
å°¼äºļ
ĠéĩıçļĦ
ĠNb
stable
al
135
&&
Ġçī©çĲĨ
Ġdecomp
itor
æ²¼
æ°¨åŁº
}})\)
æĺ¾ç¤ºçļĦ
çĽĳ
é²ľ
ĠData
æĪĲåĬŁ
å¹¶æĪĲä¸º
Ġ).\)
oxy
æĿ¡ä»¶æĺ¯
ä¸įåıĺçļĦ
çº³åħ¥
éĢĲæŃ¥
åĨħæĪĺ
çº¿æĢ§æĺłå°Ħ
ĠåĲĦ
chron
Ġdefined
æĪĳä»¬å¼ķåħ¥äºĨ
åŃ¤
åĬ¨ä½ľ
124
æĸĩæľ¬
ymmetries
})=(
erg
Ġubiqu
\,
æļĹèĥ½éĩı
Ġæ³¢
Sto
çĻ»
çİĩçļĦ
Ġsinglet
ĠHowever
ĠåŁĥ
Ġchiral
ç§įç±»
Ġel
Ġmodifications
èµ·
posi
velocity
Ġdouble
^*[
è®¿éĹ®
Ġstill
ä¸įåı¯åĪĨ
ene
č
Ġplat
æĺ¯ä¸Ģä½į
å°Ĩè¿ĻäºĽ
Ġplau
Ġgre
ollary
AGN
Ġåıª
Ġsegrega
Ġspontaneously
å·¥äºº
}^-
çĭŃ
Ġspindependent
Ġima
å½ĵ
come
é«ĺæķĪ
éĢĬ
è¥¿åħĥåīįè¥¿åħĥåīįå¹´
åľ°å½¢
xa
åĤ¨åŃĺ
ĠGUT
çĥŃ
LU
åŁºç¡Ģ
^{-}\)
åĲĪåĶ±
Ġadopted
Ġmorphological
Ġrisk
|.\)
ļĹ
Ġdefine
åħĭéĽ·
Ġbit
Ġè¾ĥ
èģĮåĬ¡
ä¸ī
tan
300
crete
differe
ductivity
æĽ´æĸ°
stone
ä¼Ĺå¤ļ
éĩıåŃĲæĢģ
)}=-
Ġcloak
éĵ
åĽŀè·¯
å°ģéĹŃ
Ġdynamo
ĠPDF
æ°¯
Ġcandidate
åĲĦåĽ½
è¯´æľį
Ġbar
ä»»æĢ»ç»Ł
b
æĴĴåħĭéĢĬ
Ġæ¨¡åŀĭä¸Ń
Ġç»Ĩ
Ġ\,\,\
312
fini
çĻ¾èĢģæ±ĩ
meter
Ġtes
åĪĨçº§
82
Ġalways
-\|
Ġunknown
æ¯ĶåĪ©
limin
O
åħĭéĩĮ
Ġ\;=\;
),
åį±éĻ©
é¦ĸå¸Ń
æĤ£èĢħ
IC
CC
Ġdegrees
mapsto
æ³ĬæĿ¾
Ġcharges
Ġdisru
!\
forgani
Ġequally
)_*
Ġperspective
åı¯èĥ½å¯¼èĩ´
çĳŀ
Ġ}}
åħ¶ä¸ŃåĮħæĭ¬
åį¡è·¯éĩĮ
Ġå¹²
æĹ¢
enspace
vestiga
Ġhomomorphism
ĠIce
fast
Ġkinetic
èĥĢ
ĠEd
Ġsynchron
å½ĵéĢī
ĠVa
Ġlength
å¤ªéĺ³
ĠZ
ĠAnal
XMM
Ġfusion
Ġabs
çľŁèıĮ
Ġcollider
herent
576
æĺ¯ä½¿çĶ¨
Ġsaturation
hd
æī¬
Ç
Ġsteps
ç¦ı
rin
æĹĭå¾ĭ
ä¸ĸçºªä¸Ń
äºķ
Lu
is
è¿ĻæĿ¡
tering
Wa
åŃ¦æ´¾
Ġfru
æ¸Ĺ
,\{
é¥®æĸĻ
Ġneglected
ç¬¬äºĮæ¬¡ä¸ĸçķĮå¤§æĪĺ
æĽ¼
ä¼ļè®®
åį°ç¬¬
struction
Ġmathbb
Ġcoherent
}'(
Ġrepresented
é«ĺéĺ¶
Ġlifetimes
xH
}|^{
åĲ¸å¼ķåĬĽ
Ġ\#
Ġlocalization
çļĦæ¶²ä½ĵ
ä¼Ł
ç¬¬ä¸Ģæ¬¡ä¸ĸçķĮå¤§æĪĺ
DS
ĠSDSS
tA
Ġgeometries
Ġminimum
Ġproceed
Ġplanar
Ġposterior
Ġnonparametric
åīĬå¼±
åĽ½ä¼ļ
æĺ¯çĶ¨
æĺ¾ç¤ºäºĨ
|=\
çļĦæľĢå¤§
Ġcrosscorrelation
Ġstead
ĠæĢ§çļĦ
width
-{\
æ»¡
Ġä»£è¡¨
Ġcrossover
Ġå¼ı
Ġ|^
Ġfraction
phen
ow
åĺī
intess
æĪĳä»¬ä»ĭç»įäºĨ
çļĦéĺ¶æ®µ
orthogonal
åı²ä¸Ĭ
fX
Ġcomment
å¿ĺ
ĠInt
Ġsignals
Ġbic
Ġsumma
çĭĹ
çı
Ġfro
çļĦçī¹å¾ģ
åıĤä¸İ
mely
&(
ĠæĪĳä»¬æııè¿°
121
ä¹īå¤§åĪ©
LIR
})_{\
Ġtrapping
Ġoutflow
|(
Ġstack
)|\,
Ġæ¶ī
æĭīä¸ģ
çŃīå¼ıçļĦ
ä¸¤
varrho
ä¸Ń
}\,,\)
Ġstatem
ĠSince
Ġprobably
è±¡
é¬
å¿½
Ġcollected
Ġful
é£İæł¼
Ġduality
Me
Ġå¹´
ĠéĻ¢
ç§©åºı
entation
æ¼Ķè¿Ľ
ä»»
Ġplates
Ġpresenting
measu
osable
neq
}^{*
consider
å°ĸ
çļĦåı¯èĥ½
Ġsequence
Ġpoint
ä½ľçĶ¨åľ¨
åħ±äº«
çĨŁ
åŃ¦ä¹ł
lecu
æĪĲç«ĭçļĦ
æ°ĳ
åĪł
ĠBan
çļĦèĩª
æĸ
çĽİ
current
Ġminimize
Ġdetector
çļĦè·Ŀç¦»
Ġåħĥ
Ġmathema
Theta
Ġopening
ques
åīįç¼Ģ
zt
ä»ĸè¿ĺ
ĠRo
RA
plus
Ke
åĩ½æķ°ä¸Ń
}}+
dX
è¶ħçº§
è®¡éĩı
Ġcounter
è¡Įä¸ºçļĦ
çļĦé«ĺåº¦
Upsilon
è´Ŀæł¼
Ġelectrons
valu
åĪ·
è§ģ
ä¸ĬéĻĲ
Ġian
ĠShow
px
æĺ¯åĲ¦
Ġionizing
Ġdevo
ä¸İä¸Ģä¸ª
mo
eb
Ġabelian
ĠSa
Ġphen
įçī©
Ġpopulations
Ġlowmass
cles
Ġfine
Vo
ĠStarting
})-(
è·¯çĶ±
mY
å¦¨
angle
ä¾¦
âĢĿ
å¹´äººåı£çº¦
åĮĸçī©
çĶµè¯Ŀ
ĠæĪĺ
Ġflavor
Ġich
Ġif
åĴĮæľī
Ġsplit
Ġsuperconductor
è°·
Ġintermit
åįı
ç©¿éĢı
face
Ġgen
skip
Ġshowed
Ġvelocity
Ġmelting
éŃģåĮĹåħĭ
Ġclean
å¿Ļ
Ġinterac
åħīåħī
NY
é¡º
åĽ½å®¶
tfrac
Ġlies
æĢª
ä»ĸå°Ĩ
çĩ¥
çļĦé¢ľèī²
Ġ\}}
ala
ĠarXiv
Ġgiant
mentum
ä¸īè§Ĵ
char
yw
Ġcm
éĹ´éļĻ
Ġå¤ª
åĴĮä¸Ń
Ġreproduced
ĠMsun
ç»Īäºİ
æľĢåĲİä¸Ģ
é©±éĢĲ
Ġsub
Ġ\;,
Í
Ġpolynomial
Ġdisper
ymptotic
è´¨éĩıä¸º
Ġ\{
çļĦçĪ¶äº²
sq
)](
Ġbest
.:
Ġnonlinearity
å¾Ģ
å¾Īå®¹æĺĵ
ä¼¤
ĠRHIC
osed
istically
æİ¥è¿ĳäºİ
qu
Ġbodies
Ġvalida
Earth
Ġdiv
ria
æ£ķ
ĠCs
Ġee
Ġ\}.
åŁº
ä¹İ
Ġarc
æĭīæĻ®
Ġorbifold
è£Ķ
ĠCyg
)[
Ġsensors
iver
Ġclumps
ĠAle
}}.
finite
Ġmig
åĨķ
lhd
Ġsimple
ero
mbox
Ġ{
Ġç³»ç»Ł
Ġconjectures
æĺı
å¸ĥæľĹ
è¢«è¯ģæĺİ
raction
æŁı
Ġbased
ä¸įåľ¨
Ġderiving
Ġitinerant
åĬĽåŃ¦
çĪ
éĥ½æľī
irasor
éĺ´
é¢Ĺ
è½¨éģĵä¸Ĭ
Ġdisks
åŃ
Ġwide
mbin
æĸ¹éĺµ
Ġexpres
Ġperfectly
gligible
Ġimplying
æķ°æį®åºĵ
é©±åĬ¨
Ġversion
Ġcommonly
æľīçĲĨ
string
ä»ĭäºİ
Ġbreaking
Ġlack
Ġthis
sf
Ġusual
Ġshowing
ĠRic
å¹¿åľº
å¹¶æľī
}^{}
ĠéĩĮ
cision
æ»ŀ
çģĮæľ¨
sharp
å·´æĸ¯
roup
ser
blue
çºłæŃ£
Ġrise
æł¼åŃĲ
mathit
åºľ
èĢĮä¸İ
çĸĹæ³ķ
æĪĳä»¬è¯ģæĺİ
Ġproblems
Ġhydrogen
Ġattenuation
ĠBro
)|^
æ³¨
èĦļæľ¬
äºīè®®
Ġ\(\{|
:\,
ç»ĻåĩºäºĨ
è¿½æ±Ĥ
è¿ªäºļ
Ķ
æ¼Ķè¯´
ç¾İæ´²
åĮĹ
}]=
çĬ¬
è¾¹çļĦ
è¿ŀç»ŃçļĦ
Ġscattered
ä¸İå®ŀéªĮ
ä»ĸ
æīĭæĢ§
defined
Ġcount
åįĴäºİ
Ġejected
ductor
çī§
éĩĮçļĦ
Ġprocedures
uka
ĠThat
any
Ġemitted
æ³¢æµª
Ġiterated
Ġgauge
å®ļä¹īä¸Ģä¸ª
field
åĿ
part
gory
})}=
rep
Ġbraid
}^{*})\)
æłĳ
Ġæĸ¹æ³ķ
Ġrational
Ġhierar
equilibrium
å½ĵå±Ģ
([\
èĩªçĶ±
Ġforcing
etary
äºĶçĻ¾
Ġas
éĦĤåĽ¾æĽ¼
ĠPrevious
è¿Ľè¡ĮäºĨæ¯Ķè¾ĥ
åı¯å¾®
Ġindivi
Ġpair
orel
æĶ»åĩ»
ckets
ç¡«
Ġcolle
Ġfluorescence
ĠMC
ï¼ĮãĢĤ
Rev
å®¶
Ġimplementations
æĸ¹æ¡Ī
æİĴæĸ¥
ä¸Ģæ®µ
group
å¸
èĩ³ä»Ĭä»į
molecu
disper
æĪĺåĲİ
ĠçĽ¸åħ³
ä»ħ
éĽķåĥı
vor
æĦŁåħ´è¶£
Ġpop
æ³ķåħ¸
ĠAL
}[\
NGC
ing
ç¡®è®¤
Ġhosts
)}_\
æľīçĿĢ
velop
å¥ĳ
Ġproje
Ġqu
be
ĠåĬ¡
:=(
åĩĨç¡®çļĦ
Ġ...,
Ġåŀĭ
red
nif
Ġgroup
æ±Ĳ
ç»Łç§°
ä¸īä¸ª
çļĦå¤§
varphi
æ®ĸ
æī¿è®¤
çļĦä¸ª
è¿Ļä¸Ģç»ĵæŀľ
Ġ)+\
ĠBr
è¿½æº¯
Ġexample
Ġradial
ĠBen
insic
æľºåĻ¨
Ġ_{-
tb
æ³ķå¾ĭ
Ġ>\
ç»ĦçļĦ
å¹¼èĻ«
mooth
éĻ·
æł¼æĭīæĸ¯
Ġç»´
tran
gluon
ä¸įä¸Ģèĩ´
Ġcost
iled
Ġgases
æī¹åĩĨ
è½¬åŀĭ
Ġeg
rotron
tably
Ġä¸ī
çĶŁ
reds
åħ¥åı£
159
Ġä¸Ĭ
ĠDoppler
Ġavoiding
éº»èĲ¨è¯¸å¡ŀ
åħ¥ä¾µ
BV
éĩįåĲĪ
Ġperpendicular
æ®Ĭ
Ġsampled
Ġterrestrial
Ġband
warzs
ghout
åıįè½¬
çĶµåİĭ
çļĦæŁĲ
Ġforeground
Ġmass
çļĦåı¯èĥ½æĢ§
æĹħæ¸¸
Ġnucleation
İ
åĽĽç§į
ç¡¬
é¢ľ
Ġshall
pending
Ġå¿ĥ
meq
long
çļĦæ¯ıä¸ª
ä¸ĢåĲį
åĲİè£Ķ
ctors
romatic
å·´æ¯Ķä¼¦
Ġpartially
Ġcolours
è¿ĳäºİ
èĥĮ
Ġnonuniform
æľĢä¸º
this
æĺŁç³»çļĦ
çĤ®
ç®Ģåįķ
ctures
çº¢å¤ĸçº¿
lvert
)\,,
éħ·
elastic
æ¹¾
126
å®¶åħ·
gar
éĢļèĪª
ī
Ġintrin
ĠåĲ«
mn
Ġgrand
æĭ¼
ä¼ļå¯¼èĩ´
_-\
ä¸ĭæ¸¸
èĤ¢
èĬŃèķ¾
çī¹å¾ģçļĦ
Ġoperators
chromatic
Ġæ¿Ģ
ä¹ĭåīį
Ġcr
)}\)
cket
roun
Ġundergo
Ġdynamical
åŃĶå¾Ħ
Ġfer
Ġç´
æ³¢ç½Ĺ
Ġä»£æķ°
ĠMW
Ġcoding
Ġspin
stationary
Ġpackets
æ¨¡æĭŁä¸Ń
CN
tence
Sun
bra
æīĵè´¥
èĮĥåĽ´åĨħ
process
ä¸Ģå®ļçļĦ
å¹¼
120
lepton
Ġæĺ¯
æķ°åŃĹæ¨¡æĭŁ
fs
\},\{
ĠHermitian
oh
Ġestimator
åı¯è§Ĥæµĭ
nges
Ġdeca
çĽ¸å¯¹äºİ
^*)^{-
æŀľ
Ġdimensional
FU
Ġfairly
åįĹæĸ¹
Ġquasi
ons
¾çĹħ
ahler
Ġalge
èĨĢ
[\
dxdt
èĭıä¸¹
Ġpeaks
å½ĵä»£
å¾ĹåĪ°çļĦ
æĹ¶æ®µ
è¯±å¯¼
EC
Pro
Ġune
ç±³
})^\
ĠAd
Ġconfiguration
}|.
çļĦç¥ŀç»ı
Ġfunctions
Ġtransition
Ġeje
åŃ¦æł¡
ĠMorse
ĠMagellanic
})(
Ġæĸ°çļĦ
Ġparts
Ġestimate
ä¸ŃåĽ½
æŃ¢
Ġoccurred
åĲĪå¹¶
Ġder
åĪ¤æĸŃ
Ġargu
Ġcampaign
mogene
ĠæĬ¥åĳĬ
è´¨çļĦ
åŃĹç¬¦
ä¸Ĭæ¸¸
è®¡ç®Ĺåĩº
Ġfollows
è´¹å°Ķ
ä¸Ńè½¬
ci
Ġ=\{
Ġsolve
åĲī
ĠNbody
ital
zars
è¡¡éĩı
æ·±åĪ»
ogra
EP
Ġnt
Ġlocally
åĨħéĥ¨
ä¼½é©¬
ire
Ġè¥¿
éº»èĲ¨
gonal
ĠMic
Ġaperture
richlet
çļĦæ·±åº¦
çĽĽ
å°
åĲ´
Ġbx
=(-
exponential
Ġdk
èŃ
èĬĤçĤ¹
mig
Ġpy
the
æ°Ķä½ĵ
åħµ
ĠCal
:
ĠC
å¹³åĩ¡
æĽ²éĿ¢
Ġprocessing
èĦĨ
ĠAll
related
cluster
\&
åĢ¼ä¸º
Ġinhomogeneous
è¯ķ
åºĶçĶ¨
')\
Ġenti
sel
Ġåĩ½æķ°çļĦ
ĠCon
èĩ£
æĭ±
mily
æī©å±ķçļĦ
Ġcorrespondence
Ġpackage
æ³ķåĽ½çļĦ
Ġsuspen
æĻ®åĭĴ
ĠFermilab
è¡£ç´¢
mile
åĿ¡
..,
æ¯«
è½¦
çļĦæ¡Īä¾ĭ
itous
gm
å½¢çĬ¶
ĠCosmic
éĹ´æİ¥
^-,
Ġsubspace
Ġtheoretic
Ġdivis
Ġcomposite
Ġsource
Ġ.,
ĠéĩĬ
ä¸ŃéĹ´
åıĤåĬł
ense
'}\)
Ġbound
\}\;
ç¼Ĩ
boxplus
åĮĹéĥ¨
æįŁ
å¸¸ç»¿
Ġtimelike
çļĦæ¯į
TE
}\}.
æłĩè®°
bran
thern
>
åľ¨æ²¡æľī
æĳĦ
ä¸Ńè¿Ľè¡Į
Ġimplied
åįķç»´
ĠIIB
mation
Ġ\(-\
Myr
å±±
hedral
å¯¹è§Ĵ
ĠéĢŁ
renormal
ä»»èģĮ
ĠåĩºäºĨ
Ġthreebody
åĽºéĨĩ
åĪĨæķ£
<
ä¸ģåł¡
}\|=
tail
Ġleq
çļĦè¿ĽåĮĸ
çĲĥä½ĵ
çĽ¸å½ĵ
Ġanisotropy
Ġatmospheres
åį¡å°Ķ
ĠOther
Ġencoun
çļĦæ·±
Ġbreakdown
Ġpc
R
æµĭåľ°
05
bited
ĠåĨĻ
It
Ġrich
ĠThere
çļĦä¸Ģç§į
}~~~
æŀĦå»ºä¸Ģä¸ª
Ġbuilt
ç¬¦
Ġå¤±
ople
ä¸½
èİ·å¾ĹçļĦ
_+\
Ġrays
åħ±åĲĮ
å½¢å¼ıä¸º
)
è¾ĵéĢģ
Ġconnecting
baryon
ä¸Ģ
æ³ķåĪĻ
è¿Ŀ
Ġdevelops
åľ°å¹³çº¿
ĠCalcu
å¾ª
èİ«æĸ¯ç§ĳ
ferences
ĠWZ
ç»ı
Ġpromis
ĠISM
Ġtransi
Sf
çļĦè¡¨éĿ¢
æĺ¯çļĦ
Ġman
å¹¶ä½¿çĶ¨
åľ¨ç½Ĺé©¬
cts
Ġunderstand
32
Ġattempt
Ġharmon
äº¦ç§°
Ġoccurring
åĲĮè´¨
Ġpresents
ä¼¦åħ¹
HZ
çļĦæ¡
Hi
ind
ä¸»
sociation
ä½įç½®çļĦ
éĵ¶æ²³ç³»
ä»¥èī²
Ġcomposition
çļĦæķĪæŀľ
å¿«éĢŁ
Ġturbulence
Ġdisplacement
Ġpotentially
Ġspins
^+}\
Ġverified
éĢīæīĭ
åħĨ
åľ¨å¹´ä»£
Ġgenerated
approxi
().
åĲĪçĲĨ
AX
Ġcenter
Ġlooking
Ġregu
hips
ĠåĻ¨
éĩįçļĦ
æµģç»ı
ĠNumerical
IT
Ġbeams
pse
thanded
Ġalso
ian
ssi
mark
å·¥åħļ
ĠReg
Ġlineofsight
exp
^{*}_
åģļåĬŁ
bution
sol
è¾©è®º
Ġsolu
:|
ĠCO
åĴĮæ³ķåĽ½
å¾®å¼±
ĠDi
multiple
æĿ¥
Ġadditive
^*}(
Ġè°±
scattering
Ġbits
Ġmodify
Ġlines
NX
åĦ
ceq
Ġconnection
çļĦæŃ£
^{*}
äºļ
æ¡Ĩæŀ¶åĨħ
æ³Ľåĩ½
çŁ©éĺµ
Ġglu
å¸Įå°Ķä¼¯çī¹
ĠåĪĨåĪ«
Ġèį·
ilo
Ġworks
ources
scriptsize
çº³ç±³
Ġconcep
Ġton
BC
Ġexceptional
ĠSC
åĨħèĨľ
éĻµ
çłĶ
Ġsea
Ġart
ä¹ĭéĹ´çļĦ
')(
çļĩå¸Ŀ
ĠæŃ¤å¤ĸ
bullet
textbf
å¨¶
_{\
èĬĿ
çļĦæ¨ª
Ġä¸įæĺ¯
ĠHO
èĽĭçĻ½
ew
ĠP
å¤ļå¾·
Ġcharacterizing
Ġfif
)})^{
vective
Ġintroduce
é¦Ĩ
tonian
Ġconvolution
çļĦæĥħåĨµ
çī©è´¨
}})
ä»Ķç»Ĩ
éĽķå¡ĳ
Ġmodern
)}^
^{(-
nF
Ġacoustic
Ġdipole
Ġnewly
Ġvisual
|).
å¹´B
]+[
å°±åĥı
ç»ĺæĻ¯
Ġtechnologies
å¾®æ³¢èĥĮæĻ¯
æ·
æĮ¤åİĭ
}).\
}{}_{
ç½Ĺé©¬å¸ĿåĽ½
static
\;=\;
å¾·æĭī
hadron
å®¡æŁ¥
about
Ġclassify
æİ¢ç´¢
\\&=
Ġswitching
Ġsolutions
Ġanalytical
éĽĮ
å¯Į
åľ°çĤ¹
'\
Ġæ³¨æĦı
Ġanisot
$
kc
ç¬¦åı·
æĵ
æĺ¯ä¸ª
Ġexploring
åıĳ
Ġdra
Ġanalyzed
ĠæĹĭè½¬
äº®åº¦
Ġæ¸¡
æ³¥
~{\
éĺ»æŃ¢
çĬ¹
ortu
ĠAn
åī©ä½Ļ
sensitive
cau
ä¸ĢåĪĩ
Ġdiag
dp
approx
æĮĩä»¤
åĪĻåľ¨
Ġå¸Ī
mes
è§Ħå¾ĭ
Ġalgorith
Ġæ··åĲĪ
Ġdistinguish
éĺ±
Ġorthogonal
æĽ´å¤§
moto
^{\,
Ġfocused
22
ĠDelta
Ġsuitable
Ġfeedback
Ġbeam
åĪ°è¾¾
Ġsa
]=[\
ĠProblem
èĻ«
}((
Ġlargely
ĠCCD
æ»ĳ
precedented
ĠHi
éĢļè§£
ĠZeeman
62
Ġconject
Ġfacts
Ġlattice
classical
Ġextended
Ġèĭ¥
åĬ¨æĢģçļĦ
Sy
skii
Ġcalibration
æ¨ªè·¨
Ġinput
Ġattractive
Ġformu
,\|
}},\
åı¤èĢģçļĦ
è¡¨è±¡
äººç±»
çŃīç¦»åŃĲ
baru
Ġè§£åĨ³æĸ¹æ¡Ī
Ġget
ç©¿è¿ĩ
Ġrefine
Ġdiffe
Ġauto
Ġreversal
Ġcoefficient
Ġviewed
dT
æµ®
struct
bmod
Ġrotating
kX
Ġmessages
Ġtr
æ¼Ķåıĺ
è£Ķç¾İ
çļĦæ··
Ġå¹³éĿ¢
¬¡
Ġåı¸
å½ĵæĹ¶
Ġag
æ£µ
thick
Ġnuclei
è°ĥè§£
Ġdelta
è¶ħåĩº
Ġies
å½±åĵįçļĦ
è¿ĳ
ĠæķĪ
æ¸©åº¦åĴĮ
Ġcolum
ĠBi
é²ģæĸ¯
çļĦç»ĵ
ngu
Ġé»ĳæ´ŀ
èĩ³äºİ
\|+\|
Ġharmonics
vities
çļĦè¾Ĳå°Ħ
ä¹Łä¼ļ
Ġroughness
Ġmaximally
608
ma
mg
çº¦æľī
Ġidentifying
åĻ¨åĴĮ
ç½ĳç»ľçļĦ
ä¿ĿæĮģ
Ġå®ļæĢ§
Ġboson
Ġgain
roben
Ġgenerally
Ġparametrization
æ¡Ĥ
Ġ~
changes
ä¸Ģé¡¹
Ġintended
Ġarcsec
çĮĽ
Ġdissociation
å°¼äºº
op
)\}\)
Ġæ¡Ī
¼çĹĽ
display
inty
åĽºæĢģ
Ġwithout
)}}{
Ġç»Ħ
æĿĲæĸĻçļĦ
rid
éĽĦ
éľĩ
ĠWe
Da
éļľ
XZ
ĠåĬł
Ġæº¶
esian
çĶµéĺ»
Ġprotons
ä¸Ģæł¹
Ġsharp
romo
Ġpriori
Ġäºº
æĪĳä»¬æīĢ
ĠFin
planetary
,+\
ge
Ġtrace
ĠSED
ĠPoincare
æµģåĴĮ
igne
è¿Ļä¸ª
nP
äººåĳĺ
Ġrunning
}}}=\
)\}.\)
è§Ĩé¢ĳ
ban
th
æł¼å°Ķ
lusters
Ġ=-\
inter
hang
âĢľ
print
rown
Ġcri
MH
èĻ
Uh
dynamical
Ġastero
mum
ç§°
ightarrow
Ġforward
ctive
å¨
ĠPN
fining
çº¦å®ļ
pots
Ġä¹ĭ
çĬ¶çļĦ
å¥ł
circu
å¦Ļ
Ġlarg
})}=\
oring
trices
Ġç»ľ
Ġå¾·
ounced
é¡¹çĽ®
çļĦæ¢¯åº¦
ºĲ
Ġpairing
Ġconduction
Ġè¿Ļä¸ª
electric
èĴ¸æ±½
è´§
èĽ
Ġstrongest
ä½ĵä¸Ń
er
Ġreal
éĻĲåº¦
Ġpractice
ä¸įè®¡
æĥĳ
µ
éĹ´è·Ŀ
æĢģåº¦
è®¾ç«ĭ
èĩªçĶ±åº¦
)-
è¿ĽæŃ¥
formal
å¿ĥåĬĽ
pation
Ġenergetic
Ġmight
taev
Ġorth
æķĻå£«
)}&=\
ot
7
å¯¹åºĶäºİ
éº¦è¿ª
}$
Ġquasis
mega
coth
è¾¾æĪĲ
åħļçļĦ
åĩłä¹İ
çļĦçģ°
igg
æĭ¨
èĤº
orphisms
çļĦçķĮ
è§Ĩ
éĢ¾
}).
æ¤įçī©
çļĦåŁº
çº¢èī²
ç¾
Rh
Ġquickly
Ġprospe
æį®
æĸ¯åį¡
æľĽè¿ľ
æĺ¯åı¯ä»¥
Ġformula
å®ŀåľ°
å²Ľ
bye
partic
çŁ¥åĲį
ĠSchur
éĴĪå¯¹
Ġallow
çļĦåİĨåı²
Ġmoderately
Ġrepla
Ġhel
Ġoutput
Ġorigins
tons
Ġcoopera
mogeneity
Ġsecular
Ġquadru
fer
åĵ²ä¼¦
iI
æĿ¾æķ£
å³Ń
åľ¨æľ¬
çĪ¶äº²
Ġcooling
Klein
æ³ķä»¤
è¡°éĢĢ
Ġmade
Ġsatis
éĻĲäºİ
ä¸ĵ
å¾®çĶŁçī©
å¼±
Ġturned
Ġè¡ĮæĺŁ
&-\
nat
ç»Ĩéķ¿
ä¹ĭä¸Ĭ
æİ¨å¹¿åĪ°
æºª
Ġshifted
Ġfaci
æŁĶè½¯
),(
çĶ±äºİ
Ġreach
,..
lation
Ġinvolving
æīĢæľīè¿ĻäºĽ
åĩºçīĪ
Ġorbits
æ
æķıæĦŁåº¦
Ġshed
éĴ±
ĠW
muth
çļĦäºĮ
grees
eq
Ġyr
hyper
Ġunlikely
|+|
åīĬåĩı
NI
(.)
Ġlaboratory
ç©ºéĹ´ä¸ŃçļĦ
axial
éĻĨ
Ġyears
_{*}
Ġmidinfrared
Ġdistri
entangle
Ġearth
lund
hys
Ġdim
tially
åĢ¾æĸľ
LE
Ġ\(=\
Ġinci
æŃ¤
15
Ġnucle
}&=
åĳĪ
Ġexten
æįŁå®³
Ġmassless
ç½ĳæł¼
)}}{\
ä¹Ķæľ¨
Ġerror
ĠCar
gine
Ġsuperconformal
Ġyield
æĺŁç³»ä¸Ń
ç©ºæł¼
ä¸ªæķ°
å¯Ĩåº¦çļĦ
ĠéĩıåĴĮ
é¼ł
éĺ¶æ®µ
Ġåĩł
Ġgroundstate
')=
è¾ĵ
}-{
Ber
å®Ī
åľ¨æĹ¶éĹ´
æĮ¯èį¡
change
Ġoscillating
103
éĩıéĩı
Ġscatter
coloneqq
å¯¹è±¡
æ£Ģæµĭ
éĥģ
çĨŁæĤī
çļĦåŁºç¡Ģ
çļĦç»ıæµİ
Ġu
GS
Ġscalar
Ġæııè¿°
åĬĽéĩı
æĮĩå¯¼
Ġreserv
}^{*}\
åĨĻå®ŀ
èŀįåĲĪ
çļĦç¬¬äºĮä¸ª
(
Es
çļĦå½¢çĬ¶
ä¹Łèĥ½
Ġenume
ĠWith
ä¸įä¼ļ
)^{|
mbination
æĹ¶éĹ´å°ºåº¦
åĪĿ
AR
Ġinclin
ä»
Hz
Ġans
ä¾ĿçĦ¶
Ġpersis
æŀĹèĤ¯
large
noise
è¡¨éĿ¢çļĦ
ä»ĸå¯¹
çģ¯
åĬ¡
æĪĺå½¹ä¸Ń
å®½
ĠéĶ®
Ġfree
åı¯ä»¥ä¸İ
åħ·
Ġcovariant
ĠPSR
æ°´å¹³
Ġproportional
})}\
Ġable
61
çİ©åħ·
122
(),
tus
åıĤæķ°åĮĸ
çī§å¸Ī
æĪĸå¤ļ
çļĦæĻ
çĶŁçī©
oral
GN
ock
åĪĨæ³Į
gauge
Ġstrings
Ġlogistic
ä¸¹éº¦
ä»ĸè®¤ä¸º
è¿Ļç±»
Ġdominate
Ġalpha
Ġachiev
tioned
Ġambient
Mil
è¢«è®¤ä¸ºæĺ¯
cated
ĠåĪĩ
éĥ¨éķ¿
Ġspots
Ġalone
Ġ...
ĠNash
Ġpossibly
ä¸Ńäº§çĶŁ
å¤©æĸĩåı°
è´¹
ired
Ġhe
)<\
Ġapplicable
çĶ»å®¶åĴĮ
åĪĢ
è¡£ç´¢æ¯Ķäºļ
Ġapparently
æııåĨĻ
åıĹ
äºĭåĬ¡
°æĴŀ
å¹´ä¸º
}(\
å·¥ä½ľä¸Ń
valent
åĪĨæĪĲ
RE
Ġarea
æŃ£è§Ħ
mon
è¡ĮæĺŁ
set
Ġatom
hat
onov
ics
Ġnonabelian
Ġä¾ĭ
Ġreflect
intertext
Ġrestframe
çļĦæı
cular
åŃ¦åĴĮ
,\
}}.\)
éĩıä¸º
äºĶ
Ġnegative
interaction
æł¸å¿ĥ
},\\&
åıªéľĢè¦ģ
Ġmateri
ä½ľäºĨ
Ġåĩ»
ĠAT
åĩıå°ı
çļĦæĿ¥æºĲ
ĠLaO
çĭ¬ç«ĭ
shell
èģĶç»ľ
åĬ³
éĢļè´§
succ
Ġ=
è¡Ģç®¡
è¶ĬæĿ¥è¶Ĭ
Ġyields
çļĦæľĢæĸ°
é£İéĻ©
tesian
Ġpun
å¥ĭ
ĠèĢĥèĻĳ
Maxwell
ç¯ĩå°ıè¯´
ddots
åºıåĪĹçļĦ
Ġsecu
oscil
Ġnonperturbative
Ġheterogene
ç²¾ç¡®åº¦
valued
Ġlinks
æįĨç»ĳ
ilbert
mogen
çļĦæķ°åŃĹ
]}.
Ġod
èįīåİŁ
æĢĴ
ĠçıŃ
åįļçī©é¦Ĩ
Ġmany
çĽ¸çĽ¸
ç«
æĢģ
Ġunlike
è¿ĻéĩĮçļĦ
å°Ķ
Ġçī©è´¨
Ġç±³
Ġsignific
uge
Ġpreviously
æĪĺäºīæľŁéĹ´
ä¸Ģå°ı
çļĦçī¹
åľ¨æľīéĻĲ
Tb
çº¦æĹ¦
åįĬå¾Ħä¸º
Ġmagnetic
'}+
Ġlatest
Ġçº¦
çº³ç²¹
ä¼łç»Ł
systems
Ġæ¸
è¾¹
æŃ¥éª¤
æľīè®¸å¤ļ
bigl
ĠåĪ©çĶ¨
lock
ĠBoo
Ġfamilies
ĠCom
Ġzone
Ġpositive
çĽ¸ä½į
èİİå£«æ¯Ķäºļ
Ġway
Ġè¿ĩ
&\\
çİ¯ç»ķ
ĠTrans
ĠéĺŁ
äºĮçº§
ching
Ġnetwork
çĶ¨çļĦ
Ġviewpoint
Ġperturbations
Ġh
Ġev
æī©
å¯¡
olume
æ´Ľä¼Ĭ
cep
åĲĳåįĹ
æ¶Ĥ
æĪĳä»¬æıĲåĩºäºĨä¸Ģä¸ª
ä½ĨåĽł
ç®ĢåįķçļĦ
curvature
çļĦæ¡Ĩæŀ¶åĨħ
&-
structions
çĶŁäº§çļĦ
Ġmodu
kij
Ġantenna
Ć
Ġintroducing
è´ŀ
éļ§
fficients
Ġæį¢
Ġpostu
Ġstated
æĽ´å¥½
48
æĭĵæīĳç©ºéĹ´
Ġcali
åĽ°éļ¾
èĬ¯
åľ¨å¯¹
ĠStr
ç¬Ķ
åĮºéĹ´
^{{\
æŃ£ç»Ł
ç¥·
Ġcompactifications
tj
ĠKeple
å¸ķ
Ġattention
usted
åĪĨè§£æĪĲ
ĠæĿ¥è¯´
Ġdeter
å¨ģå°ĶéĢĬ
ĠCS
Ġupon
ĠType
Ġæľ¬åľ°
Ġtrapped
Ws
åĴĮå¤§
å¼ķæĵİ
Ġreversible
å£ģ
^*}{
pace
æµģçļĦ
ĠTc
ç±»åŀĭ
19
voltage
èº«ä½ĵ
ĠVLBI
å¹´æĿ¥
åľ¨åĨħ
è§ģäºİ
çļĦçĨ
åĩĳ
çŃīäºİ
åĶ±
paga
Ġcharacterized
Schr
è¿ĳçº¢å¤ĸ
è¦ģä¹Ī
bigg
Ġincorporated
Ġfirm
çļĦè§Ĥæµĭ
Ġquantities
Ġç¤º
æĸŃå±Ĥ
rab
Ġsto
åŃĹ
\!+\!
Ġä¹¦
å°Ķåħĭ
çĬ¶
intercal
rig
Ġä¹ĭéĹ´
Ġcooperative
Ġanalogous
æİ¨ç¿»
}_{\{
coding
Compton
=}
Chi
Ġobtaining
}}{{
Ġç£ģ
ä¸ĥä¸ª
ĠQPO
å¾ĹåĩºçļĦ
).\
çł´è£Ĥ
çĢĳ
ideal
èĭ
ĠGroup
æ´Ľ
éĢĤåĲĪ
ĠåıĪ
ä¸Īå¤«
éŁ³ä¹Ĳ
ļ´
ĠGauss
é¥±
Ġoutper
}/
Ġtheore
Ġproced
æķĻå»·
ĠRemark
çī¹åĪ«
è¿Ľè¡ĮçļĦ
æĿ¿
è¯´æĺİ
\},
ide
Ġforce
è©¹
itzer
--
å®ĩ
äºİæĺ¯
Ġmo
Ġintegrated
Ġnoisy
è°Ķ
The
OP
éĥ¨éĹ¨
ĠNewton
åįİçĽĽ
ĠSol
ĠCDM
age
arante
Ġmicrowave
ä¸Ģèĩ´æĢ§
Ġinteg
Ġessentially
Ġinstead
Ġçº¿æĢ§
gf
çĽĳæµĭ
è¶
åĿİ
Ġconsi
ston
optimal
åĲ¯åıĳ
{}\
Ġstrictly
asure
_{|
ä¾Ľ
åĪĨæŀĲåĴĮ
IN
Ġä¾¿
olog
çļĦéĩıåŃĲ
]}\)
55
onon
æ·¡æ°´
Ġnucleus
æĪĴ
Mn
Ġspan
ä½¿ä¹ĭ
Ġabsor
Ġmodulated
åĴĮåħ¶ä»ĸ
diamond
åľº
ĠBa
vacu
åĸľæ¬¢
æľ¬å¾ģæĢģ
ordon
ffer
Ġinvestigations
winger
].\)
ods
driven
Ġvalues
ij
è¶ħ
æĿ¨
Ġexpon
Ġantiferromagne
Ġenter
y
Ġä¸ĬçļĦ
çĭ¼
ä¸Ńè¥¿éĥ¨
å¯¹æīĭ
orn
èĥ¡
Ġä½ľçĶ¨
æł¼éĽ·
æŃĮ
Ġejecta
åĸĩ
åħĭäºº
Ġç²¾
å±ĤçļĦ
io
Ġmanifest
vey
æ·Ģ
Ġinfinitesimal
Ġdamped
å¢ŀåĬł
ason
Ġdark
èħ
mers
åľ¨è¿Ļ
ĠçľŁ
hbar
Ġ},
!}
å¾®åŃĲ
irth
operatorname
åĲİåıĪ
ç£ģ
]}^{
ymme
}+\|
åħ¶ä»ĸ
åĪĨæŀĲçļĦ
^{-(
tention
they
Ġ*\
ĠTher
Ġ}(\
çĹ
åŃĹç¬¦ä¸²
Ġremnant
Ġapproxi
xx
Ġhighmass
forming
turb
æģĴæĺŁçļĦ
å¼ķåĬĽåľº
è£ķ
åŃĹæ¯į
ä¸įçĶ¨
çļĦè¯Ĺ
mm
Ġpion
å±ķç¤º
|\)
åĳ½ä»¤
^{[\
æİĮæı¡
ming
Ġcurved
çļĦåıĺå¼Ĥ
ĠæīĢ
Ġverify
bor
ä¼ģä¸ļ
))-\
],\
Ġquarks
è´Ŀåħĭ
è¡Ķ
mizing
pose
bbons
ä¸įä¹ħ
èĲ¥åħ»
=&\
{-}
Ġmer
holes
Ġthe
ç´«
å¦»
FI
domain
ä¸İè¯¥
çĽ¸ä¸Ģèĩ´
odge
æ°´
ource
æĳ©å°Ķ
ĠéļıçĿĢ
incare
èĭıéĩĮ
Ġ\(\{\
Ġè£ħ
Ġthi
åħĪåīį
ĠåĽ´
midt
ç»Ļå®ļ
ĠKa
Ġsquared
ĠIRS
ttle
metric
åľ°ä½į
å°ĨåĨĽ
Ġpreser
æĹ¶éĹ´åĨħ
ys
bridged
è§Ħæ¨¡
çĮ®
åłĤ
Ġallocation
å¤º
Ġmon
ol
}'\
Ġgrowing
)}|\
Ġdistance
Ġantiferromagnetic
#\
224
çļĦåħ¸åŀĭ
cop
çļĦæĲľç´¢
Ġexcitation
Ġachieved
Ġgalaxies
720
ç§°ä¹ĭä¸º
ants
åľ°
ctor
Ġbeyond
è¯´æĺİäºĨ
Ġam
Ġfre
Ġèİ·å¾Ĺ
Ġmore
åıĳçİ°çļĦ
less
è¡¨è¾¾
æµĭéĩıç»ĵæŀľ
åĽłåŃĲ
Ġindicating
å°Ĭ
Ġ?
Ġdistortion
ç§»åĬ¨åĪ°
æĪĲéķ¿
çļĦæ±ī
implies
arc
Ġ&<
æ®µ
Ġneighb
|_\
eloop
æ³¢çļĦ
Ġever
hedron
]^{-
Ġdirect
è°ĥæŁ¥
\}}(
bin
ĠEnergy
Ġthrough
Ġdetermined
Ġè¿ĲåĬ¨
å¤§çīĩ
éħ¸
éĿĴ
è¿ģç§»
ĠYoung
pon
æ±ĩç¼ĸ
Ġconst
Ġmust
CR
ĠYang
sy
å¯¹åºĶçļĦ
ç¡®å®ļçļĦ
çŁŃ
çº¤
å¤§åį«
Ġfail
chin
idth
æ¸
Ą
Ġincorporates
Ġresp
Ġuncertainties
é«ĺåº¦
;\;
Ġquestions
Ġspe
Ġè·¯
)].
åı¯èĥ½ä¼ļ
æĹłæ³ķ
Ġtend
éĩİ
Ġgenera
è¿Ľä¸ĢæŃ¥
Ġachieve
JM
æķĻä¹ī
çº½çº¦
å¼Ĺ
!}\)
æĻ®é²ģå£«
å°Ķå¤«
itonic
Ġrequi
Ġw
')-
é²į
mplitude
:\:
è´Ńä¹°
éĺĪåĢ¼
mitted
Ġts
Ġcir
äº¥ä¿Ħ
éĽĨä¸Ń
Ġcomoving
éĢļå¸¸æĺ¯
åİĭ
Ġsecret
Ġremarkable
æĸ¹æ³ķæĺ¯
çİ°ä»£çļĦ
å½Ĵä¸ĢåĮĸ
çī¹æĢ§
Ġdeterminant
Ġreflecting
ú
bp
'''(
Ġæĸ¹
çĽ®
åŁĭ
ä¸įåı¯
éĶ¥å½¢
Ġ\(\
æ£
}^{\,
neutrino
Ġdif
æĹłè®º
æĮĸ
éĺ¶æ®µè¿ĩæ¸¡
Ġasymmetries
åĵĪæĭī
åģļåĩº
å³¡è°·
æ±ī
çĮ´
Ġfunctor
Ė
åŃĺåĤ¨
cape
çĲĨ
åŃ¦
ä¸Ĭä¸Ģä¸ª
ÿ
extre
mous
riction
å¿łè¯ļ
ĠJordan
ľŁ
Ġ\;.\)
{\
ä¼ĺç¾İ
Ġpermit
èĬĤ
çī©åĵģ
form
mission
hg
å·®å¼Ĥ
evy
sim
ĠPhi
éĢĴåĩı
å»·
çļĦæĪĲåĳĺ
Ġrepulsion
ĠNew
æĸ¹ç¨ĭçļĦè§£
å¤ļç»´
æľĢå°ıåĮĸ
æŃ¤åĲİ
homogeneous
çļĦç²
ä¼łéĢģ
Ġcalculation
Li
ĠHo
Ġwidth
Ġ6
gered
glow
å®ŀæķ°
éķģ
Ġpro
æµıè§Ī
æĪĳä»¬æıĲä¾ĽäºĨ
æ¸Ķ
lack
Ġexplosion
ä»¥
ĠBPS
å¤©ä½ĵçī©çĲĨ
æŀ
Ġmedi
çľģ
Ġregarding
ä»İèĢĮ
ä»»åıĸ
äºĴåĬ¨çļĦ
Ġè¡¨æĺİ
é¦ĸçĽ¸
Ġunambigu
nB
Ġ\]
TEGRAL
Ġéĺ¶
éĹ´éļĶ
ndida
åĪ¶åĵģ
kq
tw
åĲĮæĢģ
tB
Ġfibers
ĠéĻ¤
|_
ting
rough
Ġ\(|
è°Ĳ
ä¹ĭéĹ´çļĦåħ³ç³»
nicti
ç½®æį¢
ç¥ŀç»ıåħĥ
Ġselfconsistent
æİĴæ³Ħ
èµĦ
Ġsteadystate
Ġkn
ĠSigma
ç¼ºéĻ·
æŁĵèī²
ĠHD
æĹ¥æľ¬
ä½Ĩä¸İ
]-\
Ġconsequences
éĽħåĲĦ
ä¹Łè¢«
Ġbene
åįĴ
)}
å±Ĥ
Ko
å°ıæıĲçĲ´
è´¹çĶ¨
ä»Ļ
$,
éĺ»åĬĽ
çĥ·
ç¢
Ġèĩª
ordan
Ch
çļĦåħ¬
Ġimproving
ä¹ĭéĹ´æľī
Ġmid
çļĦåıį
è®¡
QP
ç»Łä¸ĢçļĦ
nik
nj
æ»¡è¶³
Ġé£İ
ä¸ĭä»¤
ĠBF
cccc
Ġåħĥç´ł
å¾®å¾®
^*_{
ý
Ġfinitesize
QM
^*=\
'')
ä¿¡ä»°
preced
ĠSuzaku
æŀ¢
åģıå·®
Ai
Ġcontradic
MO
å¯Įè£ķ
alt
Ġregard
å¿ħè¦ģçļĦ
è¯Ńåı¥
ĠOH
impli
Ġpreserves
æµĭéĩıåĴĮ
å¹½é»ĺ
nz
ç²¾ç¥ŀ
æµ®éĽķ
fficient
ç¨Ģ
Ġeither
matics
åĴĮä½İ
widetilde
oulo
Ġdeduced
æİ¥è§¦
Ġassembly
rary
se
320
976
éĺ¿å°Ķåįĳ
ccent
Ġprogenitor
pere
Ġdeploy
çī©ä»¶
ĠMach
ref
éĢłæĪĲ
Ġ~~\
Ġæ¬§æ´²
Ġlocated
Ġä¸į
æĮªå¨ģ
çļĦç¥ĸ
Ġha
))|
atom
åľ¨ä»ĸçļĦ
Ġorders
tator
rounded
Ġaddition
æµ¦
åĨ¥
æĸĻ
éħĭéķ¿
Ġfamous
tg
595
ĠHere
è¯¥çĲĨè®º
igins
ä¸Ńéĥ½
Ġionized
ĠModels
å¼¦
éķĩ
æľīéĻĲç»´
\{-\
éľ²
inz
Ġleads
è¿Ĳç®Ĺ
Ġé¦ĸåħĪ
Ġ("
æīĭ
çĻ½çŁ®æĺŁ
een
Ġgeneral
lceil
urs
Ġå¯¼
matically
é¡¶çĤ¹
éĿ©
Ġonly
å¡ĳèĥ¶
velope
ĠCn
Ġbifur
ç®Ńå¤´
çľŁå®ŀ
cal
Ġthird
Ġwhy
çĶŁæĪĲçļĦ
'_\
èĮĤ
Bel
éģ®
tend
drons
Ġsome
¯åº¦
960
ä¸Ŀ
å¹´éĹ´
np
Our
Ġstored
ĠX
ä¸ºéĽ¶
sele
Ġtor
çī¹å®ļçļĦ
Ġuniqueness
brac
Ġgeodesic
63
éĿ©åĳ½
ä½
Ġcaused
ĠTime
Ġdamping
äºĴçĽ¸
åĲİæĿ¥åıĪ
Ġ.\
ĠLiouville
ç»į
çļĦåĪĨå¸ĥ
äº¬
'}_{
Ġwaveguide
Ġay
Ġmicrolensing
çļĦç»ĵæŀĦ
å¯¹äºİä¸Ģä¸ª
Ġmiddle
æĸŃè£Ĥ
)\,,\
ety
nular
punov
\},\)
æĹłçº¿çĶµ
Ġbase
}\,\,
Ġæ²»
çļĦæ¤įçī©
ç¬¬ä¸ī
Ġdefinite
Ġshocks
çļĦæİĴæĶ¾
Ġcoup
éĿĻèĦī
æ¶Īå¤±
ç»³
è°¬
ç¡Ģ
iven
å½¼
Ġcolla
Ġvery
å¯Įæ±Ĺ
ener
èĨ¨èĥĢ
Ġes
éĽħ
fficul
Ġcondensation
å£°æĺİ
Ġvariant
SL
åħīåº¦æµĭéĩı
}]=\
,,
Ġgeometrically
}_{-}\)
å»ºçŃĳçī©
}''
æµģåĩº
?
Ġconside
ģĴ
è¡¨æ¼Ķ
Ġtreated
ĠæľīæķĪ
tivation
å¿ĥ
Ġobser
ography
Ġmodeled
çº¿æĢ§æĹłåħ³
ĠæŀĹ
ä¸Ĭ
rene
çİ°æľī
Ġcor
ä»ªåĻ¨
definite
éĶ
æĢ»
Ġsimilarity
æĽ²çº¿
ĠGaussian
ch
Ġunit
cities
Ġå®ŀ
è´¨å¿ĥ
}}}=
ĠNo
Ġcalculations
Ġdiscontinuous
longa
256
,\;\
Ġincorpo
quence
ĠåİŁ
è¦ģ
æ³¨æĦı
Ġroot
Ġconverge
E
ç®Ĺæľ¯
ç»Ħè£ħ
çĬ¹å¤ªäºº
åıįæĬĹ
ĠçĦ¶åĲİ
å®ļæľŁ
Ġcombine
Ġpartic
åģ¶
æľĢå°ıçļĦ
æĿĤå¿Ĺ
neg
å®ŀéªĮæĢ§
ĠVer
Ġemerges
~.\)
dered
çŁŃçļĦ
æĸĹäºī
æĪ¿å±ĭ
å¯¼æķ°
pend
Ġye
è®¤è¯Ĩ
gnetic
diffusion
Ġanalyzing
Ġåľ°
çº¦åħĭ
]+\
Ġ&+\
Ġ''
èľľ
}&
å®ĥä»¬ä¸İ
ĠæĬĹ
Ġaug
é¢Ŀå¤ĸ
Ġå¯¹åºĶ
åĦ¿ç«¥
Ġeight
component
Ġfind
å¹¶ä¸º
Ġmemb
ĠDuring
éĻ
å½¢å¼ıä¸»ä¹ī
],\)
åľ°æĸ¹
Av
åĨ»
equations
LAST
CO
æĻ®æŀĹ
Tg
å¸Ŀ
åıªæľīåľ¨
è¿°äºĨ
æĶ¯æĮģ
æĻ®é¡¿
Ġpredict
,{\
hc
åı¯ä»¥
éªĹ
å¹³æĸ¹
Ġint
çļĦç£ģ
eta
EX
Ġæ¨¡æĭŁ
éĢļè¿ĩ
ç¦ıéŁ³
bit
gies
Ġvanish
æĿĥçļĦ
Ġcolli
çĽŁ
å¥Ĺ
Ġè®°
)~\
çļĦåĪĨè§£
\;\
çļĦçĪ±
è¯¥ç³»ç»Ł
Ġcurve
é©
}.\
)}_
Ġ9
'}.
ĠæŀĲ
å»¶
noli
ķ
å¹¿ä¹ī
arge
Ġrepe
æŃ¦å£«
Ġ[-
ae
Ġlatetype
con
å¯¹çŃī
éĢĤçĶ¨
run
Ġkpc
ndamental
æĭħä»»
Ġgu
å°ģéĹŃçļĦ
nX
Ġbu
çŁ¢éĩıåľº
èĢĥå¯Ł
Ġproblem
Ġenerge
studied
Ġdisplace
ç©
Ġç«¯
).\)
=\,
)})\
Ġstanding
åĬ³åĬ¨
ĠStu
Ġå±ķ
Ġgive
ä¾ĿéĻĦ
Ġde
éĩĳæĸ¯
Ġinherent
Ġnega
effective
Ġtransparent
Ġa
Ġfluctuation
æļ
Ġinflation
uses
ĠFunction
Ce
NMR
çļĦä¸ĭ
å¤ļåħĥ
ĠéĿŀå¸¸
Ġlogarithm
åŃ¦ä¼ļ
tima
åħĭåĬ³
brane
ĠMethods
å®ĥåı¯ä»¥
Ġä¸ĢäºĽ
Ġåı£
ä¸Ĭå±Ĥ
LIRGs
ĠæĹ¥
ĠWeyl
æľĪçĲĥ
Ġknots
äººéĢł
æīİ
Ġeasily
vely
Ġequivalent
ĠKilling
æł¼åĭĴ
Ġmassive
mented
Ġdecreases
ig
å·¨æĺŁ
est
ĠColla
cies
ĠLaplace
Ġscintil
}):=\
Ġfolding
manif
Ġsites
æºĲ
æīĢè°ĵ
79
Ġrecur
èĮĥåĽ´åĨħçļĦ
gs
Ġconsistently
é«ĺéĢŁ
wor
Ġprincip
Ġtriplet
Ġstu
æ½ľèĥ½
èĦĬæŁ±
Ġtrigger
æ»¥
''_
ract
Ġconstra
æŃ£æĺ¯
lier
é¡¿
æ½ĺ
åİĦ
Ġchain
Ġcrossing
TB
stin
yd
çŃīå¼ı
ä¸Ńæ¯Ĵ
åľ¨åīį
super
ater
sl
Ġå¤ĸ
inger
Ġgraphite
Ġno
æĬĬä»ĸ
æ³ķæĺ¯
Ġbal
Ġrecover
å¦Ĥæŀľè¦ģ
theore
Ġachie
Ġ7
RG
éª
åĮºåĪ«
Ġchallenging
bursts
æŃ¤å¤ĸ
Ġdevices
ç»ĵæŀĦä¸Ń
Ġelectrodes
KL
Ġä»¬åıĳçİ°
Ġevolution
Ġpredi
ĠEven
æłĩåĩĨçļĦ
ĠæĬĬ
Ġillustration
å¿ħè¦ģæĿ¡ä»¶
FeAsO
Ġcut
åĽ½çİĭ
Ġæĸ¹æ¡Ī
Ray
Ġavoid
Ġéĥ¨
Ġinf
åĨ¬
Lag
))^{
)})=\
Ġobtained
Ġsubstructure
çļĦä¸Ģé¡¹
Ġrequire
äºĭä»¶çļĦ
çİĩé¢Ĩ
åĪĺ
Ġå¾®
å¼Ģå¤´
å¤ļä¸º
ĠåİŁåŃĲ
Ġjumps
èĮĥ
Ġprice
é¢Ħè®¡
åľ°ä¸Ńæµ·
åĬŀæ³ķ
unctions
Ġastrophysical
æ¸ħéĻ¤
æ¶Ī
ility
infty
Ġindependence
Ġoption
fm
ctu
æĹ©æľŁçļĦ
çļĦåħ±
å½ĹæĺŁ
Ġshortrange
pendicular
rou
Ġæķ°çļĦ
æĳ§æ¯ģ
æĹ¶åĪ»
Ġholomorphic
ç»Ħä»¶
åįģäºĮ
ĠFlo
å¼ķåĬĽæ³¢
åĲĳå¤ĸ
çĶµè§Ĩ
æ²«
Ly
ors
Ġboth
words
Ġstar
Biggl
Ġplus
AG
å¯Ł
í
å®ĩå®Ļå°Ħçº¿
Ġemploy
Ġ&=
Ġprime
Ġcalcu
Ġç¡¬
é¼ĵ
èĻ¹
äººæīĢ
ctable
Ġfir
å¹´æľĪ
èĢĥæŁ¥
åĲĮä¸Ģä¸ª
ĠLarge
ES
æııè¿°çļĦ
åĴĮçĲĨè®º
ç»ĵåĲĪçļĦ
ĠEddington
Ġsched
æĬķèµĦ
ä¾ıåĦĴ
decay
wt
\,=\,\
Ġsatisfies
Ġcavity
urus
Ġnontrivial
)&
{{\
Dia
å·´æĭ¿
Ġéĺħ
kf
Ġaccelerating
å¹¶è®¨è®º
Ġrepul
Ġç»į
amplitude
çļĦåıĮ
xf
åıĳçĶŁäºĨ
30
æµ®çĤ¹æķ°
çĭŃä¹ī
ç¿
åĪĨéĩı
Ġunita
Ġpha
æĸ¤
Gal
ĠæĻ
èĮĥåĽ´
ä¼¯çĪµ
åħ¨çĲĥ
åĵĪå°Ķ
ĠKs
Ġcorrelators
Ġcalibrated
]^{
infrared
Ġpin
å®ļåºı
twork
}:=
omorphisms
å°¼
rl
ç¯·
Ġdenoted
Ġéĺ¶æ®µ
jkl
æ¡£æ¡Ī
lrcorner
å¾ĹåĩºäºĨ
Ġmic
åĿı
çľŁæŃ£
æĺ¯éĿŀ
è¥¿æ´ĭ
Ġguarante
Ġçĳ
ĠPi
Ġstabili
ä»£è¡¨
321
çļĦåħīè°±
hbox
not
Ġmixture
after
Ġstudying
ida
Riemannian
èĦļ
ä¸Ģå®ļ
åĩłå¹´
Ġå¸Ĥ
æĹ¶ç©º
æŁĲ
ĠRicci
éĻįè§£
æ³Ľ
é¢ĨåľŁ
}}},
çĽ¸
ļ
peri
åĲ¦åĪĻ
ä½ĵ
é²¨
Ġfg
çļĦçķĮéĻĲ
pp
Ġtriggered
Ġepis
åĪĨåŃĲ
åı¦ä¸Ģç§į
,\;
çłĶç©¶
È
ĠCl
Ġæ¨¡
ä¸º
èĩªè¡Į
Ġä»ĸä»¬
æķ£
Ġpropaga
Ġlost
out
åĨħèĥ½
åıįæ¯Ķ
'},\)
Ġinsta
ĠGCs
ĠæĪĳä»¬å¯¹
^+,
energy
Ġcircuit
phasing
Ġunresolved
Ġdilute
67
Ġlongrange
=[\
ç§¯æŀģ
tivated
ä¸įéľĢè¦ģ
åľ¨åĲĮä¸Ģ
åıįå¸¸
ĠIMF
æĭŁè®®
è¿Ļç§į
ved
Ġconstraints
è¡įçĶŁ
indic
Ġjet
éļıæľºåıĺéĩı
ĠFR
Ġbut
åı¯ä»¥åľ¨
'}(\
Ġobserv
tY
æķ°æį®ç»ĵæŀĦ
Ġgeneralized
o
åºĶè¯¥
æ²¼æ³½
ç£·
Ġæį
å®ł
æĿ¥è¯´
èĢĥèĻĳäºĨ
çĲī
arepsilon
Ġdi
å°±
å¹´åĲİ
çļĦæģ
mination
ĠGC
åĩıè½»
SC
èĬ¯çīĩ
_{-}
]).
Ġgaseous
Ġlonglived
Ġemph
ati
Leftrightarrow
æ¦Ħ
nabla
çļĦæī©å±ķ
Ġbrightness
(|\
çļĦåľ°å½¢
ĠObservatory
çĶŁæ´»
\|.
æ³³
çĶ·æĢ§
Ġæ´Ľ
ally
65
Ġç»ĦæĪĲ
åº
ä¸Ģçº§
å¤§çº¦
^+}
Ġthresh
sigma
Ġhighly
æ¼Ķåĳĺ
çĽ¸å¯¹
Ġdistributions
æµ·æĭĶ
tiv
è¯¸è¯Ńè¨Ģ
Ġèī²
é¥®
Ġwarped
ple
çļĦæİ§åĪ¶
ä¸įè®º
Ġrevealed
ĠåĪ¶
é«ĺæĸ¯
åħ¨ä¹¦
æĽ´
ĠPol
Ġdema
ĠçłĶç©¶
èĳ¬
Ġanomalous
æŃ£ç¡®
atively
èĶ½
è½¬åĬ¨æĥ¯
å¹³éĿ¢æ³¢
ä¸ŃæľŁ
æľµ
iS
³å®ļ
åģļçļĦ
èĩªæĿĢ
},{\
Ġhydrodynamic
besgue
')^
sport
ĠLong
é©¬åĪ©
äº¤ç»ĩ
è§£åīĸ
Ġvariety
Ġ25
æª
ĠBayes
ç¥ŀåŃ¦
å¹¶ä»¥
Ġè®®
ç²Ĺç³Ļ
åĬ¨
åĴĮ
Ġdp
å®ļä¹īä¸º
36
Ġselfadjoint
)/
))}\
åĪĨå¸ĥåľ¨
Ġta
Ġholes
è¿ģ
åŁİ
deg
|}
éĢļè®¯
è°±çº¿
çļĦçĶµå½±
åĴĮG
è¾Ľ
Ġneur
Ġç½Ĺ
rs
Ġradius
Ġinterpreted
re
ĠHilbert
~~\
åĽļ
åĩıå°ĳçļĦ
ä»ĸä»¬çļĦ
zations
Ġä½¿
æī£
æĻ®ç½Ĺ
\},\
é¥°
Ġrealize
sun
<\
RNA
åįļçī©
series
=|
})={\
äºĮåįģäºĶ
Ġquotient
å°½åı¯èĥ½
arg
Ġtransport
bary
ä¼łè¾ĵ
æŃ£çļĦ
})},
era
èµ¤
Ġthroughput
åĪĻ
æĪĲåĥı
^{-
]\,
round
)\,=\,
qc
Ġforbidden
Ġ5
ĠåºıåĪĹ
é½Ĳæ¬¡
\,\
Ġturns
Ġé¢Ħæµĭ
çº§æķ°
åħ¶ä¸Ńæĺ¯
Ġspecifically
æĽ
ĠRand
Ġisospin
Ġleast
*\
·
èĩ³åħ³
æķ´æķ°
ĠMathe
åīĳæ¡¥å¤§åŃ¦
Ind
ĠçļĦç
Ġæĵįä½ľåĳĺ
æĸ¹æ³ķçļĦ
stru
ä¼ĺåĬ¿
vu
}_{[
ĠCollider
æĪĺå½¹
Ġinterference
Ġunusu
çĶ±äºİåľ¨
ged
Ġremaining
çļĦæ½ľåĬĽ
ĠéĿ¢
ç§ģ
è¿½éļı
she
)\\
åĴĮS
graph
é¬¼
çļĦç¬¬ä¸ī
åĬłå¼º
gges
éĦĤ
mordial
æī§è¡Į
ç»Ĩ
ç»ıåİĨ
ogoliubov
Ġhypotheses
Ġinvertible
ĠSta
åľŁèĢ³åħ¶
Ġfailu
éģĵæķĻ
åĴĮæĹĭè½¬
Ġdissi
ï¼ļ
æĽ´å¥½åľ°
Ġ}.\)
çļĦæ¬¡
å®ŀéªĮæķ°æį®
rehen
cF
}^{[
ance
åı¯è¾¾
çĽĸ
ä¹Łè®¸
Ġquar
æµģåĬ¨
Ġhole
Car
+
çļĦå¾®
çİ°å®ŀ
Ġperturbative
nged
å¯ĨéĽĨ
ä¼łè¯´
Ġreveal
å¤§å°ıä¸º
Ġro
^{[
è¾ĥå°ıçļĦ
}/{
Ġentropy
fert
Ġseg
å¯¹åħ¶
Ġsymme
hy
ss
çļĦæķ°
è¾¹éĻħ
ç»´ç»´
Ġè¯º
èģĮä¸ļ
lice
Ġtransitions
dZ
å½±åĵįäºĨ
Ġpseudo
resting
æİ¥çĿĢ
tivities
æĪı
Ġionic
mension
èĥ½çº§
Ġatmosphere
lou
Ġformalism
Ġac
dox
Ġhaloes
åı£
Ġrestriction
isha
Ġæ´
Ġsecondary
34
Ġpadic
è®½
Ġåĩłä¹İ
é¢ĨåŁŁ
Ġcrystal
abelian
Ġtransverse
ĴåŃĲ
princi
MELA
åį·ç§¯
Ġnearestneighbor
dS
Ġprograms
Ġèĩ´
nyr
Ġä»»æĦı
count
ä¼ģ
Ġtools
æĤ¬æµ®
dL
ĠLandau
;
_{-}\
Ġclose
ä¸¤ç»Ħ
å¾ĦåĲĳ
Ġsemigroups
oted
å¤§æ°Ķ
ç²¾ç¡®
æĪĲæ¯Ķä¾ĭ
ble
isy
è¯ĨåĪ«
Ġlargescale
restima
Ġenvironmental
æĪĳä»¬è®¡ç®Ĺ
Ġgenerates
Ġå¤©
æĪ¿
éĤ£äºĽ
çĤ¹å¤Ħ
å¼ķèµ·
ĠIR
ver
ĠSome
bold
ML
éĺ¶
ä¸¾
Ġuncertainty
ç±³çī¹
Ġdeviation
å·²æľī
ä¸¢å¤±
æķ°éĩı
éĩįçĤ¹
)\\\
Ġeq
il
_{*}\
Ġäº§çĶŁçļĦ
Tc
Ġbiases
Ġexperi
ĠnonGaussian
0000
æ¬§åĩłéĩĮ
èµĦæĸĻ
Ġrotation
Ġcause
Ba
Ġpicture
Ġcompression
Ġoperating
å°Ŀè¯ķ
kv
lling
åħĪåīįçļĦ
çºµ
çķ¥
ĠWhen
Ġphoto
æĸ¹åĲĳçļĦ
Ġdefini
Ġgraphical
optical
parametric
éĽ·æĸ¯
ĠèĢħ
èĤ¥æ²ĥ
}\;.\)
åĨĻåĩº
å¼Ģå§ĭ
èĩªçĦ¶çļĦ
ç§ĺé²ģ
|^{-
æĪĳä»¬æııè¿°
Ġju
åĨĽäºĭ
çļĦå¤§è§Ħæ¨¡
Ġfragment
hb
Ġåº¦
å±Ī
reson
ä¼ĺåħĪ
æĶ¯éħį
æ°¸
ç¤ģ
Ġ}\;
åįĩ
å·´ä¼ĲåĪ©äºļ
ç¼ºå°ĳ
ders
Ġ\,
è¾Ĳ
ĠPrinci
è¡¥
ç©ºä¸Ń
Pu
ĠIN
å¸Ī
åıªè¦ģ
è¯ĹæŃĮ
_-^
}),\
rel
}({
Ġpropagator
Ġdefining
å°¤åħ¶
ĠGala
Ġhierarchi
çļ
ä½Ľç½Ĺä¼¦æĸ¯
gh
Ġordering
kT
è¿¦
ç´¯ç§¯
Ġl
Ġinfall
bora
]}{
Ġka
_+^
æīĢç¤º
åľĨåĳ¨
èĥ½åĬĽ
_*}
Kr
Ġsubject
ç½ĳè·¯
Ġsh
çĬ
CI
)+\
gravity
Ġå¼Ģ
Ġdivergent
Ġfilms
å¤§å¸Ŀ
ev
ä¹ĭéĹ´çļĦèģĶç³»
Ġglobally
^*=
çº³ç±³ç®¡
DM
no
åįģ
Dy
æĸ¯çī¹æĭī
éĢ®æįķ
çĲĨè®ºä¸Ĭ
ĠæľīéĻĲ
Ġlibra
½
åħ½
ĵįä½ľ
æīįèĥ½
ĠLya
çĮ
ĠæĻ®
Ġga
Ġcapacity
orph
çļĦçłĶç©¶
çīĪæľ¬
èĦ±
ä¸§
)})^{-
perator
illiam
çļĦåıĺåĮĸ
æīĢåıĹ
UT
éĩĩ
çĽ¸åĬł
lor
Ġandor
çļĦçĶŁæ´»
æķ°éĩıçº§
Ġæ¡
dington
ĠéĩıåŃĲ
Ġmetrics
\,(
éŃħ
åħ±åŃĺ
pi
Ġdg
Ġbeen
çļĦç©º
orough
çļĦç¢³
)ãĢģ
§
çŃīåı·
æĪĪ
dagger
Ġsetup
ç¾İåĪ©åĿļ
å¼ķçĲĨ
æĬ¥
tree
'),
è¾Ĩ
lit
ä¸ŃåįĹéĥ¨
è¯ŃçļĦ
åīįèĢħ
åĬłéĢŁåº¦
èĸ¯
å¯»
isely
åĵįåºĶ
)|
ç¥ŀè¯Ŀä¸Ń
åħ³
py
æĺŁäºĳ
æļĤ
çĽ¸åĲ»åĲĪ
çĹħ
æĸĩä¸Ń
detected
ĠPu
oster
ç«¯
fu
288
Ġimages
Ġauxiliary
predic
èĸĽå®ļè°Ķ
jects
çĽ´è§Ĥ
}_{
æµİ
åİ»ä¸ĸåĲİ
æıĲåĪ°
Ġultrahigh
å°¾
ĠAe
Sta
Ġdiscs
pschitz
Ġenab
æľĢå¤§åĢ¼
åŃ¦èĢħ
Ġconclu
Ġsubalgebra
)\,.\)
FW
łç»ķ
åĴĸ
Ġphotometry
äº¡
varian
æµģç¨ĭ
Ġeigenstates
Ġapplicability
Ġiteration
å¼Ł
275
Ġwell
nd
æĥ¯æĢ§
ç»ĵçĤ¹
Ġdephasing
åĩĿç»ĵ
æ¿Ģè¿Ľ
Ġtheories
æ¸¯
åľ°åĮºçļĦ
Ġfuzzy
è©¹å§Ĩæĸ¯
Le
Ġè¾¾
ition
215
Ġcou
ä¸ŃåŃĺåľ¨
å·®
Ġsecurity
è¿ªæĸ¯
æľįåĬ¡åĻ¨
Ġproduced
potent
racting
äº¨åĪ©
230
æŀĲ
å¹´åıĹå°ģä¸º
ä»į
Ġferromagne
Ġanne
çļĦçº¿æĢ§
}\|_{\
ç¿ģ
åİŁå§ĭ
æľīä¸ĢäºĽ
åŁºæķ°
isations
éŃħåĬĽ
Ġgravitational
sfer
æīĭæ®µ
Ġletter
ä¸ĸçºªæľ«
å¤ªå¹³æ´ĭ
folds
åħ±æĮ¯
æĪĺäºīä¸Ń
ä¸įè¶³
rack
Ġ\,{\
ĠDD
Ġtil
Ġfore
Ġother
è´Łåı·
Ġpowerlaw
Ġstochastic
æĸĩç«łä¸Ń
åı¯çĶ±
åĲĮæŃ¥åĻ¨
æ³ķå®ĺ
æİ¥ä¸ĭæĿ¥
ĠSuppose
xi
è®¾ç½®
åªĴ
Ġcusp
è¿ĻäºĽç»ĵæŀľ
èĦīåĨ²
ĠKi
å®ļå¾ĭ
åĪĨå±Ĥ
Ġcalori
ß
Ġæ»¡
éģĹè¿¹
æ¢¦
Ġbranching
ctrum
Ġå½±åĵį
åĲŀ
uttinger
ç®¡è¾ĸ
æĿ¯
çļĦçľŁç©º
æ³¢æ®µ
çłĶç©¶äºĨ
ä¸Ńæŀ¢
èħĲè´¥
ä¸ª
åıĺ
)}},
åĴĮçĶµåŃĲ
åĴĮåĬ¨æĢģ
Ġyi
åĮºåĿĹ
çĥ¹
èĬĴ
æĻķ
Ġraised
æĮ¯åĬ¨
è¿Ľç¨ĭ
Ġsimply
Ġcompute
ä¸ĸçºªä¸Ńåı¶
Ġeffort
Į
å¸®åĬ©ä¸ĭ
çļĦæĢ»
Ġdefect
¢å¤į
åĮł
take
Ġoptimization
Ġinertia
jection
éĤ£ä¹Īåľ¨
Ġillustra
quarks
çĶ»åĩº
æĭ³
Ġwaves
point
èģĮä½į
ç»¿èī²
Ġæģ¯
å¥
}}\;
éķ¶
Ġtwophoton
é¢Ĥ
|^
cial
Ġåĳĺ
Ġæ¸©åº¦
ACS
åħ¸åŀĭçļĦ
è§£éĩĬ
}|=
éĥ
çī¹èī²
will
Ġtaken
Ġtions
ali
imensional
å®īåľ°
çļĦçŁ¿
éĩİå¤ĸ
å®¡
ĠGorenstein
Ġ}{
ther
^{
ĠBar
dist
ç¼ĸè¯ĳåĻ¨
æ½ľ
çļĦåľ°åĽ¾
irr
sonic
éªļ
Ġos
ĠçĥĪ
{)}\)
ĠåĪĻ
st
ugh
Ġvorticity
æµª
}=(-
Ġdrive
918
æĺ¯åĲ¦åŃĺåľ¨
å¦®
éĢĢåĮĸ
Ġpure
éĻ¤å¤ĸ
Ġvortex
Ġentries
auli
æ¡¥
åŃ¦çĶŁ
spectrum
}}\,\
ä¸ªåĪ«
éĢĤåºĶæĢ§
Ġintrinsic
æĹ¶çļĦ
å½ĵåīį
æ´»
æĮĩæĮ¥
Ġintrinsically
å¤§éĿ©åĳ½
ä¸ĬçļĦ
è·ĳ
Du
Ġorien
}\!
åĨ·åĨ»
Ġthesis
åĩºæĿ¥çļĦ
åĤ
Ġgood
Bon
æľīåĲĳ
ĠHeisenberg
}_\
Ġdriven
ĸæ°ĳ
Ġmoments
Ġassociative
study
mr
æ¢Ń
Ġprobes
ä¸įç¨³å®ļ
Ġanal
escence
ç®¡éģĵ
Ġcertain
Ġçİ¯
deriv
èĩ´åĬĽäºİ
Ġproject
Ġlens
Ġexchange
Ġpixel
ä¸īåįģ
èĤ¡
{\|\
ä½ľçĶ¨çļĦ
éĢīåħ¥
ĠåĪĨè§£
Ġnine
çļĦæ´ŀ
what
Ġo
èİ«
æĹħè¡Į
èĥŀ
è°ĥåĴĮ
Ġç§¯
è¿ĩåº¦
ĠæĤ
åł¤
Ã
ĠLagrangian
å°Ĩä¼ļ
Ġlocal
512
è¿Ńä»£
energies
Ġprescribed
-\
Ġresemb
Witten
é¥®é£Ł
ium
Swift
è§£
å¿ħæľī
æĢ»åĴĮ
ĠST
Ġtargets
\}^{
+[
sto
çĽ¸æľº
å¯Ĩ
Ġaverages
ä¸ŃçŃī
æĹ¥
åĬ¨çī©
&=-
RI
Ġçºª
\}^
BaCuO
Ġå¡ŀ
ç»´äºļ
ĠNon
åģ·
Ġdescriptions
çĶŁçļĦ
Ġaround
;\\
çŀ¬æĹ¶
ä¸ĬéĿ¢
ĠThomas
hot
ney
Ġ0
}:\
^\
Ġconstitu
ability
port
èĻ½
}^{{\
Ġknow
æĽ¿æį¢ä¸º
vial
æīĢéľĢ
Ġèĥ½
Ġshape
Ġavoided
äº¤æĺĵ
Ġ.)
ned
ç»ĵè®º
ç»ĦæĪĲ
ä¹Łå°±æĺ¯
Ġact
arch
åŁĥ
ä¾ĭé¢ĺ
Ġwhere
soci
åĿĽ
æº¶åīĤ
rea
çļĦç®Ĺæ³ķ
Ġexte
ä¹¡
)}-
Ġxray
åĬª
ĠGrass
Ia
è§Ħ
nS
çļĦæ³ķ
å®ĮåĸĦ
åħĥä»¶
è¿ħéĢŁ
çļĦæĶ
ues
ç½ķ
èħ¿
Ġcontent
æľºä¼ļ
èħĵåĬĽ
çĽĨ
å¸½
rable
Ġbroader
éĢļéĩı
lesssim
çļĦä¸įåĲĮ
Di
ĠCDF
çĽĺ
éĹ»åĲį
ĠId
ĠçĦ¶
Ġrelating
åĸĻ
Ġtracking
å·
kl
ĠLF
è´¹ç±³åŃĲ
RO
åģıåĲĳ
Af
åħ¶ä¸Ń
bot
lays
«å¤ĸ
Ġreas
Ġtech
åľ¨å¤ĸ
çļĦç´§
äºĴèģĶ
çļĦåĩ½æķ°
Ġhigh
circle
ĠBloch
ç§ĳæĻ®
è¿ŀéĢļ
split
mathfrak
åĪ°ä¸ĸçºª
ä»»åĳ½
bulk
Ġligh
Ġåıĳçİ°
Ġcombination
æĿľ
åİŁäº§äºİ
licities
bb
äººæĺ¯
è¥¿åĮĹ
æĿ°åĩºçļĦ
Ġçĭ
Ġtesting
èĪ°éĺŁ
of
spin
å±ŀçļĦ
mean
direct
Ġconstructing
èīº
determined
åıĳéĢģ
ja
oulomb
psilon
è¶ĭäºİ
Ġstatistical
è§Ĵ
dsor
åĲįç§°
æĵįä½ľèĢħ
}^+
çļĦè¿ĩæ¸¡
éĨĩ
Ġsurface
ä»ĸæĬĬ
é¢ģå¸ĥ
æķĮ
how
}^{-
çļĦæĹ¶åĢĻ
æĮª
è§£éĩĬä¸º
æµĭ
å¼ºåº¦çļĦ
æĪĳä»¬åıĳçİ°
strom
Ġtransp
ç»ĵæĻ¶
æ³¢å£«é¡¿
315
Ġ}=\
å¢
Ġç¤¾ä¼ļ
vee
anti
Ġqualitatively
åĴĮå°ı
åİĮ
çķľ
å¹¶è¯ģæĺİ
Ġexpansion
inte
Ġpowerful
Ġdesigns
åįłä¸»å¯¼åľ°ä½į
half
Ġconclude
)}:=
}>
Ġinterplay
}:=\{
Ġinjection
å®ĪæģĴ
æ±¡æŁĵ
Ġlabora
é¹¿
_*(
ĠMin
çļĦåĪĨåŃĲ
ä»ĸåĴĮ
Ġrel
,\;\;
Ġ})
çļĦåıĳå±ķ
\|_{
ried
inv
MAP
{|\
ĠçĪĨ
å½ĵåľ°
çļĦæĮ
Ġprojection
æĭįæĪĲ
bits
åħīçº¿
_-(
çİ°ä»£
çļĦæĬķå½±
ç»´æĮģ
ody
uling
ĠRayleigh
è¡ĢçĲĥ
ç¼©çŁŃ
å·¥ä¸ļä¸Ńå¿ĥ
çĶµå½±
å®Ĺ
ched
æĺĵ
UD
çŃīå¾ħ
Ġtalk
Ġ\,,\)
Ġide
rp
Ġresistivity
Hen
Bi
bert
uss
841
çĥ¯
n
ä¸¤äºº
ĠMajorana
é¡¶å³°
Ġç®Ĺæ³ķ
HI
è¶ħæĸ°
merate
è§£åĩº
)|\)
Ġunitarity
çº¢å¤ĸ
è¡¨ä¸Ń
Ġsurvive
¶
ä¾Ŀèµĸäºİ
^{(\
æĥĬ
ç¨¿
rame
èĦĬ
\!-\!
éĵ¶æ²³
Ġreducing
Ġmargin
impro
Ġè¾Ĳå°Ħ
å°ıç»Ħ
orphous
ĩ
éŁ§
UB
çº
cen
å®ĺæĸ¹è¯Ń
Ġä¸ļ
è§Ĥå¯ŁåĪ°
æĺ¾
ĠModel
Ġball
Ġexa
Si
ctic
ese
frared
æģĴ
effe
æµģæµģ
Ġelliptic
éĿŀçº¿æĢ§
å¯¹ç§°çļĦ
Ġol
Ġlowenergy
èĤ¿çĺ¤
Ġcanonical
Ġabsent
investiga
å¤ļæ¬¡
Ġtoo
cke
å®ļæĢģ
Ġbuil
æĶ¹ç¼ĸ
éĵĿ
åŁİå¸Ĥ
TK
çĪªåĵĩ
Ġ\(\{
Ġve
çİĭä½į
Ġviscous
é¼ĵåĬ±
generation
çº¤ç»´
Ġä¿¡
è¿ĲåĬ¨åĳĺ
æ³¨åĨĮ
che
çī©çĲĨ
ä¹ĭæ¯Ķ
å¼ºåĬĽ
nity
ĠM
Ġåģĩ
æĥ³è±¡
åĲ¹
Ġpotential
æĢ¥
ĠLB
apo
Ġfriction
åı¯èĥ½æĺ¯
prisingly
å¼ķçĶ¨
GHz
æĢķ
çļĦç¦»
çļĦè®¡ç®Ĺ
å½Ń
consistent
é¡¾
æĶ¾åľ¨
={\
atives
æĪĳä»¬çłĶ
lone
'd
éĤ®ä»¶
})\,
Ġaccurate
condition
|)^
å½ĵä¸Ķä»ħå½ĵ
nnel
è®°
ç»µ
Ġatomic
åħ¬å¸ĥ
Ġdefines
tenna
Ġcan
Ġtwisted
Ġtoday
åŁºåºķ
Ġhybri
|&\
ĠMHD
æıŃç¤º
^{*})
ndom
Ġapp
g
æĦıä¹īä¸Ĭ
ä¼łæķĻå£«
æĥł
çļĦçĽ¸å¯¹
ä¸ĩæľīå¼ķåĬĽ
Ġdensities
ä¸ŃçļĦ
å½ĵçĦ¶
Ġultra
zers
}))\
Ġopportunity
æķ´é¡¿
å¾Īå¤§çļĦ
ĠDs
è¯Ĺäºº
åıįè¿ĩæĿ¥
å¸ģ
\;\;
Ġseman
Ġlemma
Ġtub
Ġtwice
ä¸ŃåŃĲæĺŁ
ĠEach
Ma
Ġabstract
ollar
IMO
matrix
çļĦåĪĨç¦»
ĠçĮ®
é²ģå£«
åĳ¨æľŁæĢ§
Ġstopping
now
è®ºè¯ģ
Ġfluid
æ°Ķ
mM
é¢Ĩ
Ġspectroscopy
ä¹ĭä¸ĭ
Ġresearch
Ġ\|
Ġln
718
åģıå¥½
Ġassociated
Sh
æıĴ
å°ıæĹ¶çĻ¾ç§ĳ
temp
Ġ18
ĠæŁ
delay
å¾®
çĻ¾
åı¸
Ġdirectly
Ġunification
Ġchrom
,|\
æ¸©åº¦
Ġtrend
Ġcritically
Ġadj
ç³»ç»Łä¸Ń
xFx
ĠCalabiYau
äºİæŃ¤
Ġsearching
ç»´åº¦
Ġtrajectory
Ġweight
ä¸İ
ordered
çİĽ
Ġloss
atop
reev
Ġindicated
å·Ŀ
Ġvirtual
ä¸Ńåĩºçİ°
å¹³åĿ¦
Ġinstant
metallicity
Ġor
ĠCA
caling
Ġpropagation
åĨ°
shown
Ġaccurately
çļĦä½įç½®
Ġpho
),\,
Ġassu
æİī
Ġflag
Ġalmost
Ġlowest
æľª
ä¸įåĲ«
Ġabsorbers
ä¸Ģåħĥ
çļĦæľĢåĲİ
çĬ¹å¤ª
äºĮæ¬¡
Ġconse
},\,\
åĪĽç«ĭ
Ġblazars
LF
Mark
ĠRb
nuclear
Ġembed
åıĺå¼ĤæĢ§
^{*}\
Ġcriterion
)},\)
Ġäº¤åıī
]}
Ġless
}\,\
å®«å»·
èĴ
é©¬æĸ¯
ystem
Jx
Ġann
bt
Ġlon
ĠMF
Ġcoe
Ġoptics
Ġ\>
ä¸Ĭè¿°
åĬ¿åĬĽ
Ġfived
è¢Ńåĩ»
çº¿æĢ§åĩ½æķ°
äºĮæ°§åĮĸ
å¼ķåħ¥äºĨ
Ġexpressions
Ġmeanfield
Ġåģĩè®¾
æĺŁç³»
å¢ŀå¼º
MV
æīĩ
çļĦéĩį
LD
To
observ
çĪĨ
ren
èĭ±è¯Ń
Ġstra
Fu
çļĦçİ°è±¡
genesis
fi
Ġisothermal
nm
Ġideals
è°¨
ĠkeV
lassi
Ł
Ġç§ĳ
ands
mogeneous
fv
ram
ducting
Ġdomains
oS
Ġagent
è§Ĵåº¦
UP
Ġç½Ĺé©¬
Ġextrac
çļĦæĬĢ
front
ovich
äººä»¬
Ġå¤įæĿĤ
Ġtop
Vert
momentum
åı«åģļ
éĩıåĴĮ
ĠUV
_{{\
Ġform
è¢
Ġpermutation
äº§
ä½ľçĶ¨
Ġfollowing
Ġconcentration
lot
expan
å²©
Ġmatching
Ġtransformed
Ġperturbed
Ġå¾Ĺ
exis
jm
Ġconformal
),\
Span
Ġcreated
Ġå¯¼èĩ´
Ġstudents
è´µ
Ġbehaviors
umerical
è¢«çĶ¨äºİ
ç»Ļåĩº
Ġsettings
Ġ~,
çĽ
519
éļıåĲİ
]{\
Ġreached
sqrt
)(
æķĻåłĤ
çİ»å°Ķåħ¹æĽ¼
Ġneither
ĠBRST
}^+\
CP
Ġasymptotics
æµ·æ¹¾
ddot
Ġåħīåº¦
}^-(
Ġspectrum
TL
Ġsingle
Ġè¶³
Ġintersection
been
Ă
Ġdt
ĠSchro
mps
TR
Ġmagnitude
æİĴ
ç®¡é£İçĲ´
Ġlow
æĮģä¹ħ
da
berts
Ġ\((\
éĢĿ
çŃ¾è®¢
Ġsta
ä¸¤ç«¯
ç¬¬ä¸Ģæ¬¡
mically
ĠAu
lore
Ġcomparable
~~~~~~~~
å®īè£ħ
çļĦçĮ
å½±åĵį
Ġæ³ķåĽ½
tunately
åºĶåĬĽ
664
;\;\;\;\;\;
))(\
jector
Ġè¿Ļé¡¹
ç½ĳç«Ļ
åĨ³
Ġsolvable
æĹłç©·
ç´ł
å§
ends
,\\\
]})
Ġåħ°
Ġfold
.)
}~~
})+(
éŀŃ
è¢«åıĳçİ°
Ġe
den
å¯¹çļĦ
éģĹäº§
ĠTwo
fle
Ġä¸Ģèĩ´
Ġadsorption
Ġmodulo
¢æµĭ
Ġcharacterize
Ġdenotes
Ġlobes
Ġcharge
Ġqua
å¤¹è§Ĵ
çĮİ
åı²å¯Ĩ
ç¦»åŃĲä½ĵ
æĺ¯æľĢ
Ġsui
stellar
èģĶ
ä»ĸåľ¨å¹´
Ġthous
åĲĮæł·
Ġintegrating
æĮĩéĴĪ
Ġgraphene
æ±½
å¹´åīį
terior
åı¸æ³ķ
differential
Ġne
éĺ²
Lya
ä¸ĢèĪ¬æĿ¥è¯´
åīĳ
_{\|
ĠçĮ
Ġmain
æĪĲæľ¬
èĭıç»´åŁĥ
atz
cq
åł¡
Ġcommunication
èĮ¨
åħīåŃĲ
æŀĦéĢł
Ġru
éĶĮ
ps
Spitzer
ĠCalgebra
Ġåħ³éĶ®
onical
Ġstable
ductive
Ġinner
åľ¨å¤ļ
AA
{)}
back
éĤ®
æ´ŀ
ä»¥åīį
åĸ·æ°Ķ
MI
Ġproving
é¡¶éĥ¨
çļĦç¬¦åı·
iss
Ġassociation
ĠBL
ĠæĶ¾
å¹´åİŁåĲįç¾İåĽ½
ĠJupiter
iding
}].\)
mpaign
Ġcolors
çº½
Ġè®¨è®ºäºĨ
ometric
ĠéĽĨ
Ġdic
è¡ĮçļĦ
çĻ¾ä¸ĩ
è¾ĥå°ı
æĪĳä»¬è®¨è®ºäºĨ
çĭĲ
æĪĲåĬŁåľ°
Ġantennas
140
Ġselection
Ġturbulent
Ġdays
Ġmagnetohydro
Ġspar
è¿¹
ĠMarkovian
Ġbrigh
rangle
ç³»çļĦ
coup
èº«åĪĨ
Ġblow
ered
åľ¨æĹł
HD
Ġquen
Ġinser
|}\)
åľ¨ä½İ
Ġepochs
Ĥ
Ġanalogy
æĸĹ
Gaussian
Ġcommuting
These
radius
45
Ġfinitedimensional
Ġ~\
fits
éĢĥ
Ġsatisf
lu
324
Ġrm
urther
ked
92
çļĦéĺ¿
æĢ»éĥ¨
åĩºäºĨ
æķħ
interacting
Ġfiber
ĠåĽĽ
ould
ĠæĪĳä»¬å»ºè®®
Ġå¯Ĩ
HG
rangement
Ġbetter
<|
åĽłæŃ¤
éĢĢä¼ĳ
229
å»ºç«ĭäºĨ
umann
Ġanisotropic
æĭ¿çł´
æĬ¥çº¸
è®¾ä¸º
åħ¸åŀĭ
éĺ¿å°Ķæ³ķ
hdots
scu
Ġinterior
Ġbecomes
Pe
Ġmacroscopic
notin
ents
pair
ĠçĨ
åįĬ
½ľ
é¼
Ġple
å¥¹åľ¨
Ġparadox
åĲĪçī©
åľºçĲĨè®º
è§Ĵå½¢
Ġæī¾åĪ°
mas
çĶµèĦĳ
Ġdq
Ġminima
Ġpossibility
äº§çī©
}}\\&\
æ³
ĠQuantum
ö
}}\\&
ĠDR
ĠAx
ĠDue
Ġshadow
sumption
Ġexactly
çļĦé£İæł¼
745
ç³»æķ°çļĦ
mac
uld
Ġconnect
Ġsilicate
æľīäºº
çļĦæ¤ŃåľĨ
èĩªæĪĳ
Ġmergers
Ġclump
åıĳçİ°
Ġtriangu
ä»įæĺ¯
nate
pecially
ĠæĴ
ĠScho
}<\
Ġsubsets
Pol
éĹ
å¤ªå¹³
æĸ¯åĿ¦
pole
fall
uv
textstyle
def
)&:=\
;\
Ġsymplectic
Ġwater
åľ¨è¿Ļç§įæĥħåĨµä¸ĭ
åħ¶ä¸ŃçļĦ
Ġé¢ĺ
cas
bund
Ġsurvey
demon
ç©ºåĨĽ
ĠIRA
QC
ER
ä¸¥æł¼
ĠH
ĠmK
Ġorbiting
Ġreverse
NP
Ġä¸Ķ
Ġbestfit
ĠåıĮ
ĠdA
uniform
æĹ¨åľ¨
Ġæİ¥è¿ĳ
çľ
è®¾è®¡
trie
è´¾
Ġthreshold
}}{|
minal
Ġrelationship
}}|\
æľīä¸¤ç§į
å¯¹æŃ¤
åĤħéĩĮåı¶
ä¸įåıĹ
Ġ^
ç¬Ľ
ä¼ĺ
DW
60
Ġalgorithm
|,\
çŁ®
åĴĮçº¦
çĶ·å¥³
å©
é«ĺçº¦
Ġrefractive
èĢĮä¸įæĺ¯
Ġåħļ
Ġanswer
}~,\)
å·´åŁº
æİ¢æµĭåĻ¨çļĦ
BL
æ£ĢæµĭåĪ°
åľ°è´¨
å»ºäºİ
Ġissu
Ġaccessible
Ġ$
å®¾
Ġimpurities
Ġequivariant
Ġmetastable
X
çļĦæĸ¹
grade
Ġallo
Ġconsidered
962
å±łæĿĢ
cend
äº§çĶŁçļĦ
Ġsupple
Ġremoval
entations
nihi
ĠdM
è§Ĥæµĭ
éĺŁåĪĹ
Ġsets
èįī
leftarrow
æĻ¯
Bo
MD
[{
åľĨå¿ĥ
L
æĽ´å¤§çļĦ
Ġtachy
Ġmonop
åĪĨè£Ĥ
éķ¿è¾¾
ĠæĥħåĨµä¸ĭ
))-
Ġå¸¸æķ°
å®¶åºŃ
Ġè¿ĻéĩĮ
æĮģ
ists
Ġgoverned
tually
ç¢İ
SX
Ġ-{\
åĲĮæŃ¥
ä¸»å¯¼
ĠComp
reaction
èħĲèļĢ
Ġç»ĵ
ĠèĬĤ
range
æĳ©æ´Ľåĵ¥
ä¹ĺä»¥
ç»ĦæĪĲçļĦ
ĸ
ĠæĪĳä»¬æĬ¥åĳĬ
ä¸ĩ
Ġmodulus
Ë
Ġ\!\!
odic
å¹´åľ¨
ND
geqslant
Ġincidence
æł¼é²ģ
Ġoscillations
åĽº
è¾ĥä½İ
è®¤ä¸º
Ġstandard
å¥³æĢ§
ç´§å¼ł
ľ
çľĭä½ľæĺ¯
Ġoriginates
ªæĸ½
Ġclassi
è§£åĨ³
odd
åıĤè®®éĻ¢
å°ıéº¦
GA
Ġslowly
è¯ģ
éĶĻ
åħĭå°Ķ
å»ºçŃĳ
å¤ļéĿ¢ä½ĵ
Ġhaving
èµĦäº§
result
çļĦç¨
mathop
åĪļ
lay
é¡¶
è½
ĠSeyfert
Ġtraced
Ġneurons
Ġmeasured
å·´è¾¾
xq
ç¼©ç¼©
éĶĭ
Ġsubsystem
Ġangular
å¾
çĬ¶æĢģ
å¹´æ³ķåĽ½
xv
ĠåĪĿ
è°
é¾Ħ
ĠStrong
åıĤæķ°
å¤įæĿĤæĢ§
å¹¶æĬĬ
behavi
_{_
æł·çļĦ
},~
Ġargued
å·ŀéķ¿
Ġfactorization
åľŃ
ĠSuch
unction
ilibrium
Ġgala
Ġåºı
drop
Ġparabolic
Ġasymptotic
\\&+\
å°±èĥ½
è®Ń
çĳĻ
sqcup
èĥľåľ°
)}\\&\
Ġhopping
æĴ°
çĦ¶åĲİåĨį
const
çļĦæ°
çļĦå±Ģéĥ¨
},\\\
Ġz
Ġderivation
Ġå·²ç»ı
ē
es
ç¤ºæĦıåĽ¾
åŃĺåľ¨çļĦ
titu
Ġclos
meta
Ġp
Ġsum
çŃīäºº
detection
Mor
èĢĮæĿ¥
æ°§åĮĸ
æ¶¡
74
Ġdiffeomorphisms
Ġscalefree
kw
Ġovercome
çİ°è±¡
ç¨ĭåºı
bv
)|_
æİ·
è´Ŀ
his
äºĭä¸ļ
ressive
åĳ¨åĽ´çļĦ
zy
Ġworlds
æłĸ
å³°åĢ¼
æĪĳä»¬å¼ķåħ¥
185
ç°ĩ
ä¸»è¦ģ
æŀģä¸º
Ġslower
688
Ġms
Let
}]\)
Ġ:\,
)((
Ġvor
Ġç³»åĪĹ
RD
Ġspeci
éĩįæķ´
}]+
å©Ĩ
^{+}(
ô
PM
BT
ä¸¥éĩį
äººå£«
Ġver
å°ĳéĩı
Ġinspi
ç§ĳå°Ķ
varkappa
èµ·ä¹ī
æĪĸæĺ¯
è¿ĲåĬ¨
ĠEP
å¹´å¾·åĽ½
éķĢ
calar
Cy
Ġcontinuously
ĠMini
å¾®æī°
sistent
ourho
çĥŁ
æ³ķåºŃ
acteri
æĶ¯æĴĳ
\,|\,\
æ½ľåĬĽ
commo
Ġæł¼
èĥ½éĩıåĪĨå¸ĥ
èĳĹåĲįçļĦ
èĲĦ
):=\
Ġtechnical
una
Ġalgebra
Ġåħ¶ä¸Ń
æŀĹ
çļĦçĭ
ĠSp
Ġtextit
elle
comple
nh
å»ĵ
å¹ħåº¦
å»¶ä¼¸
Longrightarrow
Ġenhancement
æ°
periodic
ax
14
)^*(
ord
åĪ°çļĦ
ning
Ġpoles
èĳĹ
æī¹
factor
éĩĬæĶ¾
ĠMyr
Ġcoupled
ç®ĢçŁŃ
æľīè¶£çļĦ
åĮħæĭ¬
ç¹ģæ®ĸ
Ĭ¹å¤ª
cat
Ġspherically
Co
ä¿ĿæĬ¤
Jo
Ġinequalities
ç®Ģ
size
Ġvar
çºµåĲĳ
Ġwill
çİ°åŃĺ
é«ĺä¸Ń
Ġsoftware
åĸľ
ĠæľĢåĲİ
iling
nstein
Ġmaximum
]=-
Ġpiece
Ġsetting
Ġrelaxed
Ġwit
ç©¿
Ġformation
Ġvie
Ġtreat
è¯ºè´Ŀå°Ķå¥ĸ
vour
iness
åħĥ
å¦Ĥä¸ĭ
è¯º
determin
åı¯ä»¥å¯¹
sibility
132
}\;\;
å¯¹åŃĲ
Ġåħ³äºİ
quids
æ³¢åĩ½æķ°
Ġtransmitted
Ġrecently
Ġrelated
Ġinterfa
éģĹ
çĥĥ
Ġinplane
éĩįå¤į
},[
Ġmonotone
èĦĬæ¤İåĬ¨çī©
åıłåĬł
éĩįè¦ģæĢ§
Ġconsistency
ç½ª
ç¼ºä¹ı
Ġ(-
ccording
Ġages
orm
æľīæľº
Ġä¸¤
Ġ().
ĠHigh
dom
*}\
ĠNi
yy
,\\
au
Ġmaster
éŁ©
Ġactu
Ġmultiband
åºŁéĻ¤
Ġplanet
ĠDepending
éī´
Ġ\;,\)
ç®Ģè°Ĳ
tri
telli
æĸ¯çļĦ
èµ´
Ġdestroy
Rf
æĮĩå®ļ
çĪ¶
Ġè¿Ľ
åĭĴæĸ¯
Ġcomputationally
tep
ä¼Łå¤§çļĦ
ĠJan
abridged
doped
SB
Ġannealing
ç½®
å¯º
ĠTi
ĠSection
å¡ŀå°Ķç»´äºļ
ellu
({\
Cal
å²ģæĹ¶
æĿĨ
è·¯æĺĵåįģ
mura
els
ters
Ġreaching
Ġpassage
å¼Ģè¾Ł
Ġconserved
't
ĠCoulomb
ä½Ľ
æĬ¥åĳĬ
åŁŁçļĦ
Ġencoded
Ġæ²
Ġtele
log
çļĦçĭ¬
éĿŀç©º
ç¨³
integral
Ġcha
Ġ16
Ġwalks
ç»ĵå©ļ
åħ¨æģ¯
ä¸Ģç³»åĪĹ
ĠChandra
ĠåħīåŃ¦
çĵ¦
èĶĵ
ties
Id
Ġintegrable
äº¨
Ġnonstandard
00
Ġproportion
ianchi
values
æ¡Ĩæŀ¶
ĠæĢ»
Ġreadout
llip
ancy
MU
æĿĢ
ç¿°
ĠBo
ä¹Łåı¯ä»¥çĶ¨
Ġwa
ä¸ŃçļĦåħĥç´ł
Ġconditions
è¾ħ
Ġè¯Ń
ĠJ
Ġmilli
}}{(\
Ġazimuth
çī©ä½ĵçļĦ
Ġæ¶²
è§£åĨ³åĬŀæ³ķ
Ġtwo
å¤§å°ıçļĦ
Ġtensors
çīĽé¡¿
æĪĲå½¢
Ġinterpre
ĠBoltzmann
Ġgenerating
Ġpressures
ĠPA
Ġxy
Ġä½ĵ
Gamma
Ġæµĭ
é©±åĬ¨çļĦ
æ¯Ķçī¹
å¿µ
æ½®æ±Ĳ
ĠIRAS
empty
Ġhidden
ç§Ģ
ited
æŁ¥
æĪĳä»¬å°±
ĠMer
ç¡ħ
åĩłä¸ª
æ³ķéĻ¢
ç§°åı·
Ġanother
im
Ġunion
\{(
}^*_
æµħ
Ġfeasi
åĲĮæł·çļĦ
åįıä¼ļ
Ġpropagating
Ġ,\)
Ad
è®¾è®¡å¸Ī
å½Ĵ
Ġscenario
è¿Ŀåıį
PDF
Ġè§Ħ
çļĦçĿĢ
æĽ¾ä»»
ening
Ġcharacter
Ġmulti
SE
168
Ġåı²
ande
pillar
](
ç¨³åģ¥
èİ
Cd
Ġneutralino
Ġcoordinate
robenius
å·¡åĽŀ
Ġic
ĠSNR
èĢĥèĻĳ
çļĦåĴĮ
Ġæķ£
ĠâĢĿ
omial
ç¼ł
rmi
Ġregular
Ġè®¤ä¸º
medium
Ġè¯ķ
å¿ħçĦ¶
åĭĺæµĭ
ä»£æĽ¿
Ġå¼ł
Ġreasonable
èķ¾
Ġ}-\
Ġpb
åĭĺ
èĩªçĦ¶çķĮ
Ġ)^{-
Ġwhe
èĲ½åħ¥
ĠIf
çļĦéĩı
Ġvapor
åįłé¢Ĩ
ĠSwift
Ġ&=(
çļĦéĩįè¦ģæĢ§
Ġprovi
çļĦè®¸å¤ļ
ĠåŁŁ
abilities
Ġsky
Ġshared
Ri
ŃåľĨ
Ġble
Ġchoices
quen
TY
ĠMe
graded
å¼¹ç°§
Ġbrightest
çļĦä¼łæĴŃ
)\:
iH
åĴĮé«ĺ
parts
Ġbrief
Ġvoltage
å¼ºåº¦åĴĮ
leading
Ġalternative
ĠSun
Ġbf
Ġreadily
Ġquiet
aren
åĩıå°ĳ
ä¸ĳ
ä»ĭ
Ġinference
æĢ»ç»ĵ
æĪĳä»¬æĺ¾ç¤º
Ġèİ·
}\,,
Ġä¸»
Ġcharacteristic
æ¯ĶåĪ©æĹ¶
alk
å¤§çķ¥
æ¥¼
è¿ĺè¦ģ
æ¡Į
Ġnce
å¼Ĥå½¢
å®Ŀ
ĠåĮº
veraged
Ġeffect
onom
Ġpolarized
æĽ¿ä»£
Ġunits
ä¹°
Ġcluster
Ġope
Ġnote
å¹¶å¯¹
éĴĵ
rely
qua
Ph
}^*
Ġè®¡ç®Ĺ
Mr
çļĦæĦŁ
èĮ¶
åı¯ä»¥è§£éĩĬ
_+(
Ġallows
Ġnoncommu
do
_{\{
Ġæ¯
fractive
æİĴåĪĹ
åı¦ä¸Ģä¸ª
tensor
ĠATLAS
åħ±åĴĮ
{|
çİ©
SOs
æĭĵæīĳ
ä»»æĦıçļĦ
ency
Ġcal
ĠHF
cut
è¤Ĳèī²
tively
åħħåĪĨ
exists
YM
æĦ
¦
è§Ĥå¯ŁåĪ°çļĦ
itude
appa
çľŁ
Ġactivity
nmid
ä½¿çĶ¨
è¾Ĳå°ĦçļĦ
Ġprog
heet
è¡Įèµ°
Ġsubstantially
Ġplasmas
èĢķ
å³¡
ijk
Ħı
Ġcomputational
TeV
çļĦæģĴæĺŁ
stars
gorithm
AO
å°ıè¯´å®¶
çİĭæľĿ
å¼ı
ĠBell
äºĳ
Ġquadratic
Ġextending
èº«ä¸Ĭ
ĠEW
çŃ
bz
xS
Ġtubes
è°ľ
åįļå£«åŃ¦ä½į
Char
JK
nge
Lambda
ĠKondo
åĩłç§į
ĠKlein
lue
tics
çīµ
Ġbench
et
æ®ĸæ°ĳ
Ġintracluster
Ġå¼ķ
ä¸įåĬ¨
Ġvertices
Ġconta
Ġarrival
Ġpapers
éŃı
Ġdeformed
Ġconfigu
å¯
)]=
ĠBrow
çļĦç²¾
éĺ²å¾¡
ç¡®å®ļäºĨ
menta
cis
å¦ĩ
ers
ä¹ĭå¤ĸ
duct
çŁ¿çī©
Ġpron
CB
Rie
æĺ
Ġtransparency
æ³°
éģĵ
Ġground
ç¦Ħ
æĤ£
Ġcorresponding
ç£ģåĬĽ
ii
çħ§çīĩ
Ġval
Ġmarting
ydberg
CT
Ġmaintain
ral
Pb
Æ
@
Ġsystematically
Ġexclu
bic
çªĿ
åħ¬é¡·
ella
Ġecli
lash
Ġdissipation
Ġeigenfunctions
lity
æĿ¥çº³
åħ¶åĲİ
è§£åĨ³äºĨ
ppe
Ġmicroscopy
16
èĸĽ
photo
Ġdig
åħ¨ä¸ĸçķĮ
ç¼ĺ
Ġrigorous
fies
æĬµ
electronic
åĳ
ussian
...
ranged
Ġbrac
Ġtan
èµİ
ĠåıĬ
Ġrou
))}{
ess
}^*(
oney
Ġbifurcation
è·¯å¾Ħ
®
cong
}})^{-
ives
åĩ
è°¢
éĺ´è°ĭ
88
éĴ
Ġunexpected
Ġregarded
CG
cot
monic
Ġanswers
Ġapproaches
art
å·´æĭī
æ¨¡æĿ¿
ä¸Ģä¹¦
æ¸łéģĵ
æĮģç»Ń
Ġhelium
é¡·
åıĤæķ°ç©ºéĹ´
è§£çļĦ
Ġare
their
ĠHII
Ġexpectations
åŃĲåĴĮ
Ġonsite
Dw
å¯ĨåĪĩ
ä¼ĬæľĹ
çļĦç¬¬ä¸Ģéĥ¨
åĨĻåħ¥
åĪ¶ä½ľ
äº§åĵģ
Ġselfsimilar
via
¸
Ġassumed
Ġsubse
æĪĲçļĦ
Ġtraditional
ç®ĢåĮĸ
ä¸Ĭè¿Ľè¡Į
æłĩçŃ¾
åĲĦ
Ġhomo
æĽ´ä¸ĢèĪ¬
åģľ
è´Ŀå°Ķ
ä»¥åıĬåħ¶ä»ĸ
éĹª
)})^
Ġcrystals
éĶĲ
coun
åĨ³çŃĸ
bigr
ã
åĵ¥ä¼¦å¸ĥ
åĬŁèĥ½
Ġé¡ºåºı
æ´»åĬ¨æĹ¶æľŁ
Ġcompared
æľŁéĹ´
(.
Ġå®ī
Ġax
çļĦåľŁåľ°
çĲ´
see
Ġfragmentation
ĠçĽĺ
ä¹¦
ĠJu
æĪĲåĬŁçļĦ
Ġlarger
Ġä¸ŃåŃĲ
çļĦ
scal
))+\
aton
å¤§éĥ¨åĪĨ
Ġcovariance
Ġlogic
åŃĹåħ¸
Ġæĸ½
de
å¤§åŃ¦
Ġchromos
\}=
ounts
ĠSn
Ġagrees
edom
Ġ}-
æŃ£åĪĻ
DB
æ²¸
å¾Ĺè¯ģ
èıľ
ak
planar
Ġpromising
133
Ġphysically
rosco
ç»ıéªĮ
Ġtri
ä½ĵéĩį
ght
ãĢ
èįĴ
ĠSMC
Ġassign
Ġva
iner
èª
Ġ-(
çĩĥ
Ġsampling
Ġparamagnetic
ä¸¤ä¸ª
Ġbra
é«ĺäºİ
ĠçĽ®åīį
bed
conf
')=\
æľĢåĲİä¸Ģä¸ª
Ġstr
jorana
åĨħéĺģ
Bonnet
åįķå±Ĥ
LBI
æĶ¶ç¼©
æŃĩ
Ġdv
åĩºçĶŁ
br
ç
Ġinterested
thesis
çļĦç¼ĸç¨ĭ
ĠMag
Ġcarried
lari
æ±½è½¦
èĥľåĪ©
æĢĿèĢĥ
å¯¼èĩ´äºĨ
Ġlying
ç»ĵæĿŁäºĨ
within
pth
ä¸įåĪ°
ç½²
è¢«æ¯Ľ
igen
ç»ıåħ¸åĬĽåŃ¦
ç§ĳåħĭ
è°ĵ
nn
})|
åģĩè®¾
Ġconnectivity
Ġslightly
Ġintriguing
dotsb
çĵ¶
MR
æĮ¡
ize
çļĦæ®
Ġfr
nection
xw
variable
)}\,.
è¾ĥå¤§
ĠTh
äºĮè¿Ľ
(\{
ĠSP
ĠæĿ¥
'\)
surface
cker
Ġframework
æĹ¥åĨķ
uer
;\,
,\,\
éľĢ
ĠSkyrme
çļĦçĸ
FA
ä¸ĭè½½
çļĦå®ĹæķĻ
ä¿¡æģ¯
)~,\)
jz
åĴĸåķ¡
æĬĹè®®
Ġpoints
ck
Ġexhibits
err
æ½
licon
81
}]_{
åĲ
fted
æĪĲçĨŁ
æĹ©
Ġbol
Ġä»»
å¹´å»º
vection
å¤įåĪ¶
Ġdire
åıĹåĪ°
Ġreported
ĠFor
Ġposts
æħ
çº½çº¦å·ŀ
åİŁæľ¬
Ġconfidence
åħ¶æ¬¡
ĠEu
580
ä¸ĩæľī
Ġst
Ġbreak
åı²è¾¾
çļĦäºļ
è§Īä¼ļ
ress
éĿ¢ä¸´
åŃĺåľ¨ä¸Ģä¸ª
ros
)^{*
Ġæŀ¶
tl
ĠSu
åĽĽä¸ĸ
åĪ©çĶ¨
Ġsubtle
æľĢæĹ©
æĿ°ä½ľ
Ġth
Ġsouthern
Ġcoo
Ġéĩį
å¨ģå°Ķæĸ¯
xrightarrow
å¸ĥæ´Ľ
Ġguide
h
ä¸Ģèµ·
SDW
Ġè®º
èĬ³é¦Ļ
Ġbroad
pan
viewed
})^{
Ġinfe
aehler
å®¤åĨħ
åĽ¾æĽ¼
Ġbounds
sson
Ġir
æĭįæĪĲçĶµå½±
æĪĳ
åıĺæĪĲ
Ġrules
å¢ŀ
rent
ä¾ĭ
into
æµ·çĽĹ
å®ªæ³ķ
Ġ,\,
Ġdistortions
Ġassume
Ġamplitudes
frame
)=\{\
Ġresonant
dou
çģ°
Ġ~~
GO
ĠçļĦå½±åĵį
ä¼ı
Ġperiodically
Ġ{(
Ġ/
adjoint
è¿ŀæİ¥çļĦ
ĠEs
Ġsusceptibility
æłı
Ġsurprisingly
over
dW
)=\
soft
Ġmeasurable
Ġrouting
Ġ\,=\,
tit
çĶµåĬ¨
Con
è¿Ļæł·çļĦ
Ġè¨Ģ
ĠdF
å®«æ®¿
ĠL
_{[-
å´©
abc
bo
dots
å°Ķå¹´
è¥¿
åħįçĸ«
Ġäº§çĶŁ
Ġultraviolet
æ³½
ĠDiffere
ç»ıæµİåŃ¦
under
é¢ĨåħĪ
è´©
éĢıæĺİ
æł·æľ¬ä¸Ń
'_{
èĤ¤
Ġsuggested
åĤ¬åĮĸ
cause
åĲİæĪĲä¸º
asymp
Ġä¹ī
å¹¶åľ¨å¹´
ĠTu
ĠDirichlet
paration
åĪĳ
èĥ½éĩı
Ġgaps
è®¾æĥ³
åĮĪçīĻåĪ©
åģı
çĶŁåĳ½
Ġnitrogen
mecha
Ġå¯¹
å¾·å°Ķ
Ġrecursion
çļĦçĬ¹å¤ª
ok
æıĲåĩº
å®ĥä¸İ
Ġrefinement
Ġbehavi
ç»§æī¿
683
èĩªæĹĭ
å¾ħ
Ġcontacts
Ku
æ¤
ä¸»å¼ł
æħİ
é©±
çķĶ
Ġredu
odrom
æľĢä¼ĺ
chi
Ġfidelity
é¸¦
ĠCurrent
åĨ³å®ļåĽłç´ł
Ġbulge
ç¤
Ġ}^{\
fin
Ġstrengths
æ±ģ
äººæķ°
Ġè¡°åıĺ
ĠMA
Ġ~~~
Õ
ĠPic
è¶ĬæĿ¥
Ġmagneto
world
ĠéĿŀ
å±ħæ°ĳ
Ġsound
75
å¾·å¹´
Ġtested
Ġfeatures
Ġè¿Ļä¸Ģ
Ġdd
çļĦåįķ
}=\{\
FC
teen
åĿĩåĮĢ
Ġiniti
åĬ¨æĢģ
complex
åĪĿçŃī
åıĮéĩį
EW
çłĶç©¶æīĢ
ica
hv
''_{
Ġfocusing
Ġess
çĽ´åĪ°å¹´
rance
Jacobi
Ġori
Ġseries
äºļè¿°
dim
ding
ç»ıæµİä»¥
Ġæĳ
Ġdiffuse
Ġ||\
æĸ¹è¨Ģ
Ġtopic
poses
çļĦç»Łæ²»
epsilon
^*)\
Ġslope
åº¦åĴĮ
Ġstudies
éĺŁ
]\
case
Ġuniform
¬§
åģļæ³ķ
cale
Ġdusty
Ġplanes
å®ļå±ħ
Ġè®¾
æ³¢æĸ¯
Ġnanoscale
Ġchoose
Ġreionization
çļĦéĿŀ
çĲĨæĥ³
ounded
ĉ
Ġnonminimal
}))=
æĿĥ
Ġrapidly
æīĢæľī
=\;\
rated
è®
éĶ¡
ä¹ĭç¥ŀ
åľ¨æĪĳä»¬
mp
XT
Ġsubclass
Ġlarges
ĠéĢł
197
iden
æľĢä¼Łå¤§çļĦ
Ġnano
}\\&\
])\
æł·åĵģ
ĠRed
longrightarrow
æļĸ
EM
Ġdoublet
Ġhydrodyna
èĢĮä¸Ķ
ä»¥åıĬåľ¨
æľį
å±ıéļľ
æŃ£å¸¸çļĦ
éĴŁ
æ¡¶
Ġæİ¥
ä¸ºåħ¶ä¸Ń
Ġhi
How
ç±³å°Ķ
method
æĦı
ilibria
Ġchallenges
tero
è§ĦåĪĻ
tational
Ġfrequen
åħ¨
çļĦæĬĹ
è¾¹çķĮ
å¹´åľ¨ä½į
ĠåĩĨ
Ġinhomogeneities
Ġvertex
ĠB
Ju
åıĽä¹±
ĠINTEGRAL
èĩªæ²»
ale
EG
zar
Ġdisjoint
æĦ¿
Yang
cture
=\;
æľīåĪ©
åľ¨ä¸Ģèµ·
Ġimple
QD
æ²¡æľīä»»ä½ķ
ĠAnother
Ġoptimal
åĻ¨æĹ¶ä»£
eh
åī§
\}|
isotropic
Ġparity
çĲĥéĿ¢
æ¹ĸ
è¦ĨçĽĸ
Ġconfigurations
çĥ
çļĦåĽ¾
bow
compact
æĿ¥è§£éĩĬ
åĪĨå½¢
æ¸¸
é¢ĦæµĭäºĨ
mathsf
èĤ¿
Ġå¦Ĥ
link
||\
orner
Ġade
184
consis
ides
Ġafterglow
çļĦåĢ¼
Ġ\(\|\
833
æľīåħ³çļĦ
Ġlumino
gcd
Ġä½¿çĶ¨
å£¤
ities
åĪĨå¸ĥ
Ġdatasets
è°ĭæĿĢ
Ġdiffeomorphism
Ê
Ġsections
çļĦç£ģçĽĺ
ĠæĽ²çº¿
Ġå¼Ĥ
çĸı
BH
Ġcrossed
éĺ
è¯Ńè¨ĢçļĦ
ĠCherenkov
org
gas
è¾¹å¢ĥ
Ġopp
Ġord
})|_{
Ġåı·
Ġlimited
åıªæľī
ĠåĲĮ
è¿ª
abiYau
Ġè§Ĥæµĭ
jv
ading
ophistic
Ġsupercon
Ġä»¬çļĦ
Ġemphasize
roups
Ġcurvature
å¹³æ»ĳ
<e>
ĠĠĠ
Ġtelescope
Ġincreasingly
Ġdesign
ä¼¯åĪ©äºļ
id
å¾·éĩĮ
cales
ĠBoolean
æĹ¶æľŁ
Ġå®ĥ
ä¸Ī
åİĺç±³
Ġnonlocal
Ġlightest
dependent
è¯ł
yley
ä»ĸæĪĲä¸º
Ġdoped
},{
Ġity
åĴĮèĭ±åĽ½
pf
æľīæīĢ
ĠNIR
è½¨è¿¹
HC
Ġformally
Ġæĺİ
é¹ħ
åıĮæĺŁ
Ġhyperbolic
æĿ¥ç¡®å®ļ
æķ
Ġbending
Ġcalculus
Ġclaims
(-\
pton
æ¸¡
hn
èĭ±åĨĽ
æĻ®æľĹåħĭ
ç»ĥ
è§¦
ĠmidIR
oid
åĲĽå£«åĿ¦ä¸ģåł¡
Ġnm
æīĢéľĢçļĦ
åĪ¶çº¦
,\;\;\;
haped
ages
åĬ¨èĥ½
è®¾åľ¨
æĬµæĬĹ
åĮºåŁŁ
rightarrow
çļĦæĻ®éĢļ
ä½Ļ
çĽ¸äºĴä½ľçĶ¨
æ´Ľå¤«
Ġ]\
114
})=-
dense
å·¥ä½ľ
è¾¾å°Ķ
|\\
ç»Łæ²»ä¸ĭ
higher
æķ°
)_+
known
solar
è¶¾
^{\{
83
ä¸İåħ¶
çļĦéĩĳ
Ġcubic
å¨±ä¹Ĳ
Ġfron
æĺ¯æľī
Ġclear
Ġachi
Ġminimal
...\
Ġqueries
Ġvariables
Ġnext
NM
åĻ¨
ä¸ĭéĿ¢
ä½ĵç³»
sets
Ġse
ptic
ferential
blished
ç±³äºļ
tomic
152
çģŃ
å¦Ĥä½ķ
æĭ¿çł´ä»ĳ
Ġå¤§å°ı
Ġsuppression
Ġgoal
Ġæ°´
Ġä»¥åıĬ
Ġapproaching
Ġoc
like
Ġarbit
Ġdomin
rv
¨ª
Ġouts
èļģ
nb
åĩºä»»
çĶµæŀģ
high
æĵįä½ľåĳĺçļĦ
211
negative
Ġrelatively
|\,\
categor
ç³»ç»Ł
çļĦæĿĥåĬĽ
Ġexpanding
orth
Ġpi
Ġapparent
Ġphase
ç²¾ç¡®åľ°
åĲ¦
Ġdiscrimination
ç¤º
Ġviolating
ĠF
On
çİ»åĪ©
çĸ¾çĹħ
ĠKtheory
Ġdepend
è§£åĨ³æĸ¹æ¡Ī
Ġgiants
{.
Ġgammaray
nc
}{-
mistic
ç§»æ°ĳ
ä¼Ĳ
varpi
åĪ©äºļ
éļ¾ä»¥
Ġnon
nothing
Ġæ··
Ġvibrations
å¹¿
ĠHamil
Ġnonzero
Ġrapid
Ġpa
æĺ¯ä¸į
Ġcoincidence
}+|
Pt
sue
Ġè½´
Ï
ä¸ĬçļĦä¸Ģä¸ª
Ġwhether
ĠéĹŃ
Ġhierarchy
åĬłåĨķ
ler
æ°¢åİŁåŃĲ
æľīæķĪåľ°
è¡£
Ġæ½ľ
Bose
insu
æľ¨æĺŁ
æº¯
Ġhas
Ġä»¬è¿ĺ
åı¤æĸ¯
Ġaspects
Ġè¯¥
éĹ®é¢ĺä¸Ń
Ġgravit
çĶŁæ¶¯
Ġå°½ç®¡
èİ±
åĳĺ
analysis
Ġtomography
Ġnonlinear
ĠHodge
oidal
Ġexploiting
çł
äºİ
^{''
é¥²
ä¼Ĭæĸ¯åħ°
é¢Ŀ
çļĦçİ¯
ouse
FO
æµ¸
xies
obert
å¯»æī¾
Ġlanguage
æĹ¶éĹ´åĴĮ
çļĦæĬ½è±¡
Ġ\(\#
matrices
å®Į
éģ£
axi
åĸ·æ°Ķå¼ı
å¼ºçĥĪçļĦ
ä»ĺ
è¿Ļä¸ªéĹ®é¢ĺ
eshb
Ġste
Ġouter
å¿ĥèĦı
æĺ¯åľ¨
Ġpt
å®ŀéªĮ
å°½
ç³
SY
æ°Ķæ³¡
Ġperco
åı¯å¾Ĺ
Ġstraightforward
)_
Ġresembles
Ġmodule
Ġnumber
æĪĳä»¬åģĩè®¾
è¡¨è¿°
xB
çŃĸ
Ġdeco
æ¿Ģç´ł
çļĦæĽ²
HV
¼
æĿİç¾¤
Ġbran
Ġbilinear
Ġadvances
çĽ´å¾Ħ
Ġcontributions
Wal
gebra
åľ¨äºİ
çº¿åľĪ
orphism
Ñ
æį®è¯´
Ġthroughout
Pn
ä¸ĸ
Ġab
åī§éĻ¢
Ġé«ĺ
Ġ2
é¢Ħè¨Ģ
Ġequations
ç¦»å¼Ģ
ĠConsequently
åıĺæĢ§
è´¡çĮ®
çļĦæİĴ
å°¤åħ¶æĺ¯
åŁŁä¸ĬçļĦ
èĦ¸
check
BG
å¥¥å°Ķ
ç§ĺ
æĶ¶åħ¥
ww
Phys
compu
ä¸°
ĠSub
åİŁåŃĲæł¸
Ġleptons
å®ĥæĺ¯
ĠEM
è®°è½½
ĠChern
biggl
Ġoutof
ç§įåŃĲ
xT
Ġgenuine
Ġmodules
åıªæľīä¸Ģä¸ª
èĢ¶
observed
ç³»ç»Łä¸ŃçļĦ
xU
åĵĪéĩĮ
èĩĤ
conver
)~~~
sidered
Ġsubspaces
Bbb
ĠIII
DNA
èĪ
æ©¡èĥ¶
æ¼Ĥ
çıł
IP
ets
Ġnonrelativistic
SA
çĽ¸æ¯Ķ
æ³ķåħ°åħĭ
èµ·æĿ¥
åĮħåĽ´
Ġseed
ĠCox
irst
xy
Ġul
æŁĵ
ĠIts
æ°§
è£Ĥåıĺ
çŁĽ
Ġlimits
~
Ġdegra
çªĹ
çļĦäºº
ĠTevatron
èĸĽå®ļè°Ķæĸ¹ç¨ĭ
Ġoffset
çļĦæł¹
Ġrestri
Ġtrig
å¹´åıĹ
Ġpost
åľ¨åħ¶
Ġknowledge
æĽ¾
çļĦæĶ¯æĮģ
éĤ£éĩĮ
ç¾¤çļĦ
ä¼ļåĳĺ
ĠVI
commensurate
Ġconden
æĪĳä»¬ä¹Ł
å°ĺ
Ġaccu
Ġhome
Ġsupers
wed
c
Ġhypersurface
è¢«è®¤ä¸º
intro
)=\{
Ġsupersymmetry
Ġå¥ĩ
|=|\
Ġaddress
'|^
æĿ¡ä»¶çļĦ
åĨĴ
¬¬
tent
Ġd
Ġdiscovered
Ġè¢«
240
Ġfavo
44
Ġimply
æĹ¥çĽĬ
çļĦæ¯Ķè¾ĥ
Ġcurrents
Ġdecaying
è§Ĥå¯Ł
ĠåıįåºĶ
æľĢè¿ĳçļĦ
èµ«
ĠMatter
Ġstatus
iR
Ġdro
ò
Ġlosses
Ġimplicit
ä¼łæķĻ
é
vol
fficiency
ĠçŃ
)).\)
ç»´ä¹Łçº³
ç¼ĸåı·
Ġrelations
Ġblackhole
Ġprocedure
æľīåĬ©äºİ
ĠFu
}):=
Ġæ°ĳ
æķĪåºĶ
å±ħæ°ĳçĤ¹
,ãĢĤ
Ġsli
åĪĿæŃ¥
Ġcomparisons
çıį
Ġseem
Ġferro
Ġundergoing
éĶĻè¯¯çļĦ
)}}\)
ignificant
èĪĴ
Ġrequirement
Ġheight
cra
åįĬå¾Ħ
ä¼Ļ
ĠçĽ´æİ¥
å§Ķåĳĺä¼ļ
Ġrequ
Ġheterogeneous
è½¬åĬ¨
rule
Ġclassic
å¾·å·ŀ
viron
Ġpredictive
æ¨¡åŀĭåĴĮ
Ġglobal
rapid
æĺ¾èĳĹ
Ġnor
è°ĥçĶ¨
çļĦæĽ¿
Ġexists
èµ¢å¾Ĺ
Ġcontrast
å¦ĤåĽ¾
Ġprofile
æĶ¾å°ĦæĢ§
WF
Ġencountered
çļĦçĽ¸
ä¼°ç®Ĺ
Ġinterferometer
æ°¢
æŁĶ
]{
Ġ4
åĵ²
sequently
Ġuns
Ġä¸º
ä»£åħ¥å¾Ĺ
Ġcorrect
¨Ģ
Ġquality
æ²³æµģ
rier
å·¢
othing
åŃĺåľ¨
éĥ¨åĪĨçļĦ
Ġè®¸
çĶ±
lest
å±ķå¼Ģ
Ġou
ç¦ıåħĭ
lds
Ġè§Ĵ
ç¼ħ
date
Ġstabilized
Ġmanu
èĩªåıĺéĩı
çĽ´åĴĮ
çī¹åĪ«æĺ¯
ĠLS
jy
Ġbon
ĠEle
Ġincreased
})/
å¹²
MG
Ġwritten
tifications
mun
æļĹæĿĢ
æĵħ
_{}
ganic
å·¨åŀĭ
Ġexplo
Ġextent
æł½
Ġmn
terna
åīªåĪĩ
åıĮæĸ¹
Ġant
KB
mplitu
æĸĩæĺİ
Mer
çļĦH
252
ĠPDE
213
Ġerrors
ä»Ķ
åĽ¾è¡¨
dimensional
Ġexplore
é»ĳä½ĵ
ĠLyman
Ps
Ġquantitatively
å®£åĳĬ
ĠéĽ¶
)}[
åıĳå±ķ
elling
è¯¥åľ°åĮº
åĬ«
èĬ½
æ¨¡æĭŁ
ĠåıĺåĮĸ
Ġaffect
é«ĺèĥ½
groups
çļĦä»»æĦı
GE
ç»´
Ġtube
ë
éĢĤå½ĵ
ret
Ġvirial
ä¸ĭéĿ¢çļĦ
æĿ¡çº¦
Ġspi
Ġdevelopment
Ger
discuss
¾
Ġtrue
[(\
nab
å¤ļä¸ª
Ġith
^{+}\)
}\,,\
ç¢į
æĺ¯åĽłä¸º
åģ¶æķ°
åĲĽå£«åĿ¦
Ġpositron
è¾¨çİĩ
Ġanalytic
ads
)=-
èĤĮèĤī
åīĤ
ĠCepheids
ek
Ġ\}.\)
åĽºå®ļçļĦ
Ġæµģ
åľĨ
pher
ĠåĮĸåŃ¦
æµĵç¼©
CM
SiO
reak
Ġprotoplanetary
åľ
Ġses
èĩªå·±
FeAs
tis
åºĶ
ĠAb
ĠåŁºäºİ
æĥħå½¢
v
Ġconformally
3333
æĸĩçĮ®
ash
>=\
å°ı
åºĶçĶ¨äºİ
ĠçĲĥ
æ·±åħ¥
Ġstronger
åı¯èĥ½çļĦ
Ġunconventional
åħĦ
éĥ½è¢«
ticular
Ġcomputations
Ġdecision
Ġ\\-\
variate
ä¿ĿæĮģä¸įåıĺ
937
igni
Ge
tive
ofsight
Fermi
's
Wil
)ãĢĤ
}}{\
Ġentire
continuous
ä¸ĢæĿ¥
TP
ĠAnd
åįĹç¾İ
Ġ_\
åķĨä¸ļä¸Ńå¿ĥ
æĪĳä»¬æĬ¥åĳĬ
çĽ¸åħ³é¡µéĿ¢
ĠçĬ¶æĢģ
çļĦæĬķ
Col
ĠUsing
éĢı
ç¦½
Ġreproduce
\}.
çŁ¶
ĠæĬ
ences
Ġéĩĳ
é©¶
nictides
Ġmanif
Ġoccurs
æ£Ģ
Ġpolynomi
)&=-
åħ´
æ³ī
åĲĮä½į
Ġå·¥ä½ľ
Ġcompr
202
ial
appe
Ńī
åľ¨è¿ĻäºĽ
Ġroughly
åħ±åĴĮåħļ
elves
ars
Ġcovered
\}
å³°
stitu
ĠåĽ¾åĥı
ç¦ıå¾·
æĪĲåĪĨ
ä½İé¢ĳ
åģıç§»
Ġperov
inc
Ġhighest
æİĴåĩº
æĽ¾ä¸º
çļĦçģµ
product
åĪĩåī²
Ġbegin
uc
çŃĴ
äºĮåħĥ
tures
æ¶īåıĬ
æ·±åº¦
}+(
ĠçĶ±äºİ
Ġarray
Ġusually
_{+}
xz
Ġåľ¨æľ¬
æĿİ
zx
ccor
Ġuniformly
rts
Ġè°ĥ
thes
ĠæĸĻ
åıªæĺ¯
åıĬåħ¶
å±
ĠO
å¯¹æ¯ıä¸ª
Ġduration
sized
doping
è´¡
Ġmagnetically
Ġacqui
Ġsurrounded
çĲĥçĬ¶
çĬ¶æĢģä¸Ń
agree
nano
Ġdifficulty
loop
ä¸ªä½ĵ
Ġg
åĪĻç§°ä¸º
OO
Ġ[-\
å¡Ķ
123
åį°åº¦
ä¸ºåħ¶
ä½İèĥ½éĩı
æī©æķ£
åħĭèİ±
ä¹Łåı«
Ġsuns
åķĨ
Ġchapter
Ġquantized
æĭĨ
Ġpre
vmatrix
æ¼Ķç¤ºäºĨ
Ġnotes
çĴ
è¡¨çİ°åĩº
ä¹ĭéĹ´åŃĺåľ¨
ĠLHC
Ġrender
aking
Ġfacility
Ġgradients
å¹¶å°Ĩ
ç»´çº³
cted
isions
å¥ı
use
ä¸ºåľ¨
ony
çļĦåĪĨæŀĲ
çļĦä½ľçĶ¨
æ¦Ĥæĭ¬äºĨ
^*(
ĠSchrodinger
ĠHausdorff
Ġäººä»¬
åĸ·å°Ħ
Ġmobile
Ġaddressed
ĠMpc
Ġmap
Ġdistingu
Ġvariation
Ġ15
çļĦè¶ħ
Ġaims
ix
æī¾åĪ°ä¸Ģä¸ª
çļĦæ¡Ī
æĪĳä»¬éľĢè¦ģ
åĨ²åĩ»
åŃĺåľ¨çĿĢ
lates
æīĳ
åĢ
Ġobservations
é»Ħ
}}{
åıĤæķ°åĴĮ
çŃīäººçļĦ
oses
ĠXrays
^*\
é±¼
çļĦç»ĵæŀľ
Ġmax
çļĦæĸ°
ĠFeynman
ĠæİĴæĶ¾
Ġsolids
çļĦæľĢ
Ġä¸ĸçķĮ
åŀĤçĽ´
Ġmode
nQ
åħīæ»ĳ
ä»ĸçļĦ
ĠDNA
ĠæĺŁç³»
Ġknown
ä¸Ľ
Ġprimes
å®½åº¦
Ġä¾ĭå¦Ĥ
æķ°åĢ¼
points
Ġå¥½
fe
42
ĠåºĶçĶ¨
Ġgluon
èĤĿ
}{}^{
Ġlo
æĸ¯
æīĵå¼Ģ
Ġvaried
åģĩ
åĬłåĭĴ
Ġçĵ¦
Ġstatistic
èİ·
ates
éĻ¤éĿŀ
Ġelectrostatic
curl
volume
03
comes
ä¸Ģåº§
Ġrealtime
æīŃæĽ²çļĦ
éĢĥäº¡
åľ¨ä¸¤ä¸ª
Ġsensing
oisson
}))=\
}=(\
æŃ¥
ç»ĻåĪĨ
tL
æİ¥åı£
Ġfront
å¤§ä½¿
Ġcompare
Ġapproximate
ä½įæķ°
ĠInd
Ġgravity
Ġconjugacy
ĠU
Ġcounting
za
é¢Ħ
)^{-
dia
å®Ļ
Ġareas
Ġmac
Ġsemi
ä¹Łæ²¡æľī
è®°å½ķ
chemical
Ġfollowup
Ē
ĠNamely
fb
åºĹ
taining
Ġexotic
æ»¡è¶³äºĨ
ols
ç¬¬åĽĽ
associ
åħħçĶµ
ç«¯åı£
å¿ħè¦ģ
Ġcentury
Ġexceeding
äºĨä»ĸçļĦ
Ġæĺ¾ç¤º
}})=\
è¯¸
çļĦè´¡çĮ®
Ġinstance
âĢĿ,
Ġæı
å£
pc
çļĦåľ°
è´¨çĤ¹çļĦ
sati
osen
}\\&=\
ĠThis
Ġone
ä¸įä¸Ģ
å£°èªī
Ġhalf
})(\
è´¢æĶ¿
_{<
59
åı¯åĪĨ
_+=\
è¿ŀè´¯
Ġparameterized
æĿĲ
tp
Ġeffectiveness
åıĹåĬĽ
Ġpropagate
éº¦è¿ªå¥ĩ
Ġoptical
Ġmillion
æ°¨
ä¿®æĶ¹çļĦ
arith
Ġ8
ental
Ġhelicity
ĠMax
chain
Ġremarkably
ãĢģãĢĤ
éħĴç²¾
Ġstrate
166
Ġroom
ç²Ĵ
Ġelse
çŃĳ
Ġindividuals
Ġke
Ġcoexistence
tativity
usdor
å°±è¯»
)\},
Ġmotiv
å¯¹ç§°æĢ§
Ġhighredshift
Ġvibra
é»ıåľŁ
ample
_+)
æĬĢæľ¯
\}_
è·³
Xiv
Ġçº³
æķ£å°Ħ
Ġlaw
ption
æĪĺçķ¥
Ġdirected
åħĥç´łçļĦ
Ġquadrupole
æĢĢçĸĳ
çļĦæ¼ĶåĮĸ
Ġuna
æĿ¥è§£åĨ³
è´Ŀå£³
åĴĮéĩıåŃĲ
Ġisos
æĪĳä»¬è¦ģ
Wilson
ĠSuper
åŃ©
ä¸ĭæłĩ
éĹ®é¢ĺ
Ġresources
ĠæĪĳä»¬åľ¨è¿ĻéĩĮ
çĲĨçĶ±
aT
Ġjump
Ġcosmicray
ĠLD
æ³µ
Tf
Ġalong
åİŁä¸º
Ġ}\,
timate
Ġthorough
Ġequ
æ³ķä¸Ń
æľ¬èĬĤ
éĵ¾
Ġwin
)^{-(
ĠIn
Ġincoherent
æİ¨æĸŃ
Ġdiscontinu
Ġvary
mol
è¡°åıĺ
ffere
Cs
ĠåįĹ
ç¬¬äºĮä¸ª
é©¾é©¶
åıĳçĶŁçļĦ
}};
Ġå°Ĩ
Ġconcentrated
Sa
æķ°æį®éĽĨ
orge
subset
MF
çĶµç£ģ
Ġcharacterizes
PI
Ġemphasis
837
gal
Ġgene
Ġparameters
åī¥
åĽłä¸ºå®ĥ
Ġworm
æ¯Ķä¾ĭ
ĠpT
Ġsati
Ġtests
Ġvisco
Ġregar
çº¸
éĴ»çŁ³
^{-}\
licative
there
analy
Ġsame
è¯¥å¸Ĥ
Ġantisymmetric
é¥¥
ç±į
})_
:=-\
ä¼į
æĹ¥èĢ³æĽ¼
Ġforms
ath
Ġnan
æ³ķçļĦ
eno
ä¸Ģå±Ĥ
çļĦæ£Ģ
ä¿Ħ
Ġproofs
æ´»åĬ¨
db
Ġreduce
åŃ¦å®¶åĴĮ
Ġrough
Ġremo
©åº¦
}\\
Ġnegle
çļĦé«ĺ
Au
ĠAR
Ġspecified
æĪĳä»¬å»ºè®®
è½¨éģĵ
è¶³ä»¥
)\;
æŃĮæĽ²
æ±Ĺ
éªĳå£«
dra
Ġtrajectories
çĽ´æİ¥
Ġè½¬æį¢
ä»Ģç»´åħĭ
çİ°å·²
Ġpenet
Ġson
å°Ħçº¿
ĠTf
Ġintroduction
Ġperson
},\;
^*,
Ġlambda
æķ¦
éĩİçĶŁ
ä¸ŃæĢ§
Ġ{}^
æŀģå°ı
å®ļ
Ġcosmology
')}
_{-\
å¼ºå¤§
ducing
ĠPauli
ĠçļĦä¸»è¦ģ
sio
åħ±åıĺ
Ġ3
Ġsucces
ä½İè´¨éĩı
ä¸įä¸º
åıĳåĬ¨æľº
Ġprobabilistic
Ġaccess
ä»¥åħ¶
Ġconstraint
èĪª
åĵģ
ä¸ºä¸»
çº½è¥¿åħ°
Ġfrag
ave
æĺŁåĽ¢
æľīä¸įåĲĮ
ä¿®æĶ¹
Ġ36
spe
ä¸İåħ¶ä»ĸ
^{}
omorphic
ĠEinstein
Ġåĥı
Ġmatrices
ĠRie
em
ä¸¤éĥ¨åĪĨ
Ġaccommo
Ġsimultaneous
scriptscriptstyle
Ġimpurity
ouville
}}(
tionary
Ġtip
æ¶²
gate
tunate
mbu
éĩĳ
çļĦæ´
åºĶè¯¥æĺ¯
}}=\
æī°
simple
rability
PA
Ġfilter
æĭ©
dI
è¯Ĭ
Ġç§»
Ġvalidity
ä¸Ģä¸ªç®ĢåįķçļĦ
è®¡åĪĴ
æĪĳä»¬ç»ĻåĩºäºĨ
}}\,
éļıçĿĢ
actory
mstellar
Ġprofi
ris
Comp
äºĨè¿Ļä¸ª
Ġdiagnos
Ġknot
Ġobscu
}^{+\
Ġunderlying
.}\)
é»İæĽ¼
æĽ´ä¸º
å¾ĭ
é¥±åĴĮ
ĠAGNs
Ġthan
dA
ering
Ġalgorithmic
}{(\
rana
Ġsingular
Ġchallenge
æģ
ĠExp
Ġtriang
Ġfun
åĨħ
]/(
CS
Ġå¯¹ç§°
çļĦæŁĲäºĽ
æĥ³
æ¯¯
taken
ç²ĴåŃĲåľ¨
çļĦç¬¬ä¸Ģ
}<
cho
Ġreview
æīį
LAS
ĠTaylor
bbon
Ver
éĤ£ä¹Īå®ĥ
parame
Ġvari
Ġadv
æĪªéĿ¢
ĠæĽ¾
subar
è¥¿è¥¿éĩĮ
Ġcycle
Ġ\\&=
sinh
:(
å¤ĩä»½
èį¡
ĠHiggs
ression
çŃĶ
=-
rcl
Pi
ĠRF
æ¡Ĩ
Ġtransform
ĠTy
éŀį
Ġflu
tof
If
warzschild
ä¸įçĽ¸
ills
hock
ĠæĪĳä»¬è¿ĺ
Ġorbitals
ä¹ĥ
brations
dete
æĺ¯ä»Ģä¹Ī
åĢ¼å¾Ĺ
Ġdispersion
Ġshown
éĿŀå¸¸éĩįè¦ģ
Ġgr
Ġidea
è¾ŀ
ngle
ä¾§éĩįäºİ
çľĭæĿ¥
åıĳæºĲäºİ
bigtriangle
recent
åĮĸåŃ¦
Ġobject
åħ±äº§
éģŃ
Ġpositions
gral
100
ĠIV
Ġcould
çļĦä»£çłģ
Ġasymptotically
dow
¢éĩı
è¯Ħä¼°
è¿ĩæ»¤åĻ¨
Ġæ°Ķ
å½Ĵä¸Ģ
æľ¬ä¹¦
Ġaspe
Ġoptimum
ĠKerr
Ġdissipative
Ġflows
}(-\
èĴĻ
Ġreflects
åķ
Ġextensive
å¥´éļ¶åĪ¶
Ġparticip
éĩįåıł
Ġdiffer
çļĦæĬ½
åģ¥
xis
Ġ--
searrow
mid
Ġpe
\|<
rand
wift
å¨ģå»ī
Ġ)(
cali
rial
æīĺ
ĠPb
orted
Ġair
æģ¶
Ġrelationships
stability
Ġpassing
})\)
éĥ¨
éĥ½ä¸İ
ĠMass
è®¾æľī
herenkov
Ġä¹Łæĺ¯
è§£çłģ
,\,\,\
Ġphenomenology
ĠSystem
))\
Ġnorm
Ġå®Ļ
ä»Ĭå¤©
Ġlearning
Ġæłĳ
æ¬§æ´²äºº
åĸ
ä¸¤èĢħ
è´«
}})^
ç©ºéĹ´ä¸Ĭ
bq
è§ĤæµĭåĪ°
è¡¨éĿ¢
æķ£å¸ĥ
Ġç²ĴåŃĲ
åķĨä¸ļ
Ġcomes
åįµ
ç´§åĩĳ
Ġrely
all
near
ç¬¬äºĮå®ļå¾ĭ
multip
å¹¸
æŁ±
æ¼ĶåĮĸ
alities
ç¯ĩ
)\|_
é©»
æĻļæľŁ
)^+
GG
pion
RM
Ġä¸Ńå¿ĥ
)&=-\
LK
åĺ
Ġclustering
Ġçī©
ĠTeV
667
ï¼
New
ffe
Ä
ç»
è²Į
æĶ¹åĸĦ
åħ
RL
çĽ¸åħ³çļĦ
Ġcylinder
at
Ġexcellent
æ¸Ĳ
ĠBur
Ġframes
EF
ä¸Ńä¸ĸçºª
æľ¬è´¨
Ġvolume
ĠFW
æĺł
ĠTra
''+\
æĲº
Ġextensions
xn
åĵ
Ġquantify
^*+
Ġacceleration
ç»´å¤ļ
ä»ĸä»¥
600
bolic
kz
ç¿»
è¥¿è¥¿æ¯Ķ
æ³½è¥¿
))^\
measure
ĠHamiltonian
Ġensure
Ġhadronic
^+,\
ä¸īçĻ¾
çº³å°Ķ
Ya
èĤ²
åĮĸçļĦ
è¯ģåĪ¸
åīįçļĦ
ä¸įè¦ģ
æ£īèĬ±
èĢħ
é¸Ń
|^{-\
çĦ¦
éĻĲåĪ¶åľ¨
Ġexceed
ç¬¬ä¸ª
ĠMo
Ġdeci
Ġintrac
ĳ
Ġbig
ä¹³
Ġsaddle
åĽłæŀľ
}}_
atory
Ġspeeds
ĠåĲĪ
Ġillu
åİĨåı²
è¯Ĩ
}\}\
å¾Ĺä»¥
æİĪ
Ġsugges
æľīçļĦ
ç»´æĬ¤
Ġionization
Ġotherwise
Ġpsi
Ġcategories
ç¤ºä¾ĭ
æŁ
Ġscientific
åģıæĮ¯
Ġmonot
çľĭåĪ°
åĽŀçŃĶ
evat
Ġ\;\
Ġevery
Ġdiscrepan
å¥İ
åİļ
å®ıè§Ĥ
è¯´
ĠGold
go
sical
=\{(
Ġä¸Ń
è´¦
},
ml
æııè¿°
\|=\
V
distribution
ä¹Įæĸ¯
ds
ĠBerry
çĶ±ä¸¤ä¸ª
åįıåıĺ
Ġdifficult
å®£ä¼ł
relations
nucle
çļĦæĶ¶
åĿĲæłĩç³»
åĽ¾ä¸Ń
åĴĮä¸Ģ
åĬªæĸ¯
reat
Ġ\(|\
allow
ĠGPa
ĠGR
ä»ĸä¸º
theta
tivity
arm
Ġia
tain
ticity
ä¸ºä¸Ńå¿ĥ
é¢ĳè°±
ĠDf
å°ºåħ¬å°º
Ġæĭī
]_{
}{|
Ġsubsta
æ³¢éķ¿
Ġquan
~}
åĵĪå¯Ĩé¡¿
Tw
Ġç¬¬
éĢıéķľ
array
691
phere
Ġsemig
ĠæŀĦ
Ġfirstorder
åĩºçİ°åľ¨
Ġdecoherence
æ¼ı
çĲĨè®ºä¸ŃçļĦ
Ġchemical
Nb
ĠNor
ĠHe
çº¦ç¿°
Ġçīĩ
Ġtimescale
æŃ£å¼ı
tari
ç»ĦåĲĪ
æķĳ
Ġè§£åĨ³
Ġimportant
No
æĪĲå°±
è¯¥æĸ¹æ³ķ
)\;.\)
åĴĮç¤¾ä¼ļ
in
^{+}
çºªå¿µ
Ġpseudoscalar
å®ª
æ³¢åĩ½æķ°çļĦ
æµ·æ´ĭ
vie
880
Ġsignal
ĠDbranes
Ġéĥ½
çĲĥ
çļĦç¼©æĶ¾
0
ĠæİĴ
åĽłäºİ
phi
èĦĤ
Ġcomputed
ĠBernoulli
ä¸ľå°¼
Ġinterfer
Ġattempts
éĻ¶
Ġcolour
cele
çļĦæł¸
{
ç»Ĩèĥŀ
Ġæ¯Ķä¾ĭ
ĠæĪĲä¸º
bal
éħī
Ġpossibilities
å¹ķåºľ
version
Ġpart
izability
Ġoverview
ditions
Ġrelates
Ġjust
SZ
Ġter
Ġimpor
æŀĦå»ºäºĨ
åĨ³å®ļçļĦ
ä¾Ŀæį®
åĬłä»¥
åİŁåĪĻä¸Ĭ
)\}\
æĿĤ
ĠçĦ¶èĢĮ
nus
principles
HB
Bigl
ç»ľ
æķ£åº¦
Ġperformed
ĠGalaxy
pecific
Ġposed
çļĦæĶ¿çŃĸ
had
Ġåħī
çĭ¬ç«ĭçļĦ
correlation
previous
æ¢
è§ĦèĮĥ
éĽª
çĭŃçªĦ
æĸ¹
MNew
åĴĮåĪĨæŀĲ
|<\
åĻª
harmonic
åĲĳéĩı
),\)
Ġè´¡çĮ®
Ġscheme
mple
gences
Ġ}(
tem
liar
ĠèĦīåĨ²
ĠCluster
ĠĠĠĠ
]},
)={\
åıĮ
åĲ«ä¹ī
åħ¶ä¸Ńä¸Ģä¸ª
åĩłçĻ¾
liminary
bj
å°º
ä½įç½®åĴĮ
ç±»ä¼¼çļĦ
magne
metal
åįģåŃĹåĨĽ
éĢīä¸¾
}|_{\
}({\
Ġmaterials
}*
çļĦç¾¤
mathbf
Ġcharacteristics
Ġåĩı
å·´åĭĴ
Ġdiagonalization
ç½Ĺ
Ġmetric
Ġnk
Ġsequences
æľĢå¥½çļĦ
Ġil
})}{
esta
Ġaccreting
åį´
Ġconstrain
åĮħå®¹
Ġstudy
Ġgiven
Ġdescribes
æĥ
tokes
Ġç©¶
Ġproduct
è¿Ķ
Ġarticle
è¯į
Kerr
æľĢæĸ°
ç§ĳç½Ĺæĭīå¤ļ
Ġçī¹æĢ§
led
æĮĩæķ°
Ġaxisymmetric
fully
ä¸ĭæĿ¥
Ġdef
milar
dean
can
éĩįå»º
C
èĥĨ
tar
Lo
ingle
çº¿ç¨ĭ
Ļ¾
lescope
è¡ĮåĪĹ
Ġåħĭ
igu
Ġattractor
End
Ġprimitive
tribu
ä¿ĿåĬł
symmetry
çļĦæ··åĲĪ
èµĦè®¯
ç®ĹåŃĲçļĦ
Ġirregular
åĲĳéĩıçļĦ
æ¦Ĥçİĩ
Ġensu
Ġcompu
rical
Ġdominates
ĠSpect
rate
ĠåĨ³
}}}(\
three
Ġentangle
åħ¶åľ¨
Ġçķ¥
pacity
Ġparticularly
åľ¨éĺ¿
Ġformed
éħį
éĻ¢åĪ¶
ĠåıĹ
Ġsys
reg
çĽ¸åıį
Ġcomputable
å½¢çļĦ
tivistic
Ġadsor
mbda
Ġmechan
tabular
Ġsupporting
åĳ½é¢ĺ
æŁĵèī²ä½ĵ
Ġmagnetoresistance
Ġjus
Ġexpected
Bal
é£İ
åī²è®©
actor
MSSM
Ġ11
WW
ĠåĨµ
entropy
åŁºæľ¬
ç®Ģç§°
LTE
Ġå¸¸
}}&=
Ġdetails
GW
å¡ĶåŁº
Ġvisi
èµŀ
Ġstarformation
åİħ
è§Ĵèī²
ishing
)}\,
Xå°Ħçº¿
diff
lo
çļĦè¯ģæĺİ
åĴĮæľĢ
Ġestimation
Ġä½ľä¸º
ull
call
çļĦåĪĨè£Ĥ
å¸ķæĭī
è¿Ļæł·
ĠPhysics
åı¯éĿł
éŃģåĮĹ
æ´¥
elect
^{\
æİĴæĶ¾çº¿
Ġharmonic
mx
åĲİæĿ¥çļĦ
Ġ:
lab
çĭ¬ç«ĭäºİ
çĲĥå½¢
Ġfollow
æĬķåħ¥
å·´é»İ
Ġonto
Ġso
è²
çļĦæ£
Ġpredomin
Ġproducts
Ġsubjected
YB
Ġbranes
Ġamen
ĠUniverse
æĦıä¹īçļĦ
^*)=\
ĠTs
åı¤å¸ĮèħĬ
ĠæĿ¡
)]=\
Ġregion
Ġun
Ġæľ¬
æł¼ä¼¦
åľ¨åĴĮ
ç¬¬äºĮæ¬¡
Ġimplement
ini
Ġå¾Ħ
å°Ķæĸĩ
Ġsubstrate
Vs
åºķéĥ¨
nced
æĬ
ka
çļĦæ¸
è®ºæĸĩä¸Ń
cil
ĠMHz
èĹ»
lider
è¯Ŀ
å¹³ç§»
å¥ĸ
nics
ç¥ŀç»ıç½ĳç»ľ
Ġempty
Ġexploration
type
expon
\}}
ĠæľĪ
,\)
è½¬ç½®
sian
éĻ¶çĵ·
ĵ
ntaneous
Ġideas
LS
Ġitself
araday
å¥ĩ
Ġclosed
Ġå¥¥
é¢ĦåħĪ
æľĹ
Ġspacetimes
Ġåī§
ç¾İ
Ġchange
Ġevi
è®¶
èĢĮåľ¨
ery
Ġorder
ne
æľīæķĪçļĦ
åĿĩä¸º
miltonian
å»¶ä¼¸èĩ³
SW
ĠRX
ç¾½
Ġingredient
Ġinduce
};\
Ġæ¨ª
zu
è¨Ģ
éĤ£ä¹Ī
du
Ġdetect
ä»ªå¼ı
DV
ä½Ĩä¹Ł
ĠRe
Ġé»ĳ
atu
,~~~
}\\\
åĲĳ
Ġgeneralizations
257
Ď
èµĦæľ¬
ĠNO
^*}
å®ĥä»¬çļĦ
ç±»æ¯Ķ
é¢Ħéĺ²
åıĳçĶŁ
åĪ«çļĦ
Ġglue
}^{+}\)
mage
orphic
Ġrelax
è¾ĵåĩº
çĸ¯
gravi
Pr
Ġexternal
ä¸ĬéĿ¢çļĦ
hev
åĭĴ
çīĪçĶ»
éĻ¡å³Ń
æİ¢
Ġsuitably
ĠHawking
è½¯
})}(
ĠåŃ¦
mt
alth
\\=&\
å·¡
é©¬ä¸ģ
Ġpions
ĠCas
TF
857
å¾·åĽ½
æĺ¯ä¸ºäºĨ
igure
Gold
é«ĺåİĭ
)=(-
Ġ_
feld
æĸĩåĮĸ
Ġguarantee
èİ·å¾ĹäºĨ
Ġcomprising
Ġpolarization
Ġbre
æ·»
sample
ata
æĪĸåħ¶ä»ĸ
è½¬æį¢æĪĲ
çļĦæĮ¯åĬ¨
Ġintervals
nipu
kN
df
AC
æĭ¬
Ġleading
minus
è¿Ļå°±æĺ¯
resonance
åĴ¬
=
çļĦç³»ç»Ł
è¡Ģæ¶²
chet
æĸ¯å¹´
ç£ģçĽĺ
ç§ĳåŃ¦å®¶
ĠHubb
åĪ¤
ĠMay
å¹¶è¢«
cosh
Ġmagnetized
xag
_{\;
èĲ¥
Ġstrength
Ġprobab
mc
į
ä½İçļĦ
åįģä¸ª
ç½ĳç»ľ
div
)!}\
è§ĴåĬ¨éĩı
Ġç¬¬ä¸Ģä¸ª
å¼Ģåıĳ
Ġnow
ĠSm
èĩªè½¬
å¤ļç§į
èįīæľ¬æ¤įçī©
Ġç¡Ģ
teri
çĥŃåĬĽåŃ¦
è¿Ļè¡¨æĺİ
åĪĿçº§
Ġarises
ĠT
Ġcrosssection
Chandra
Ġhyste
Ġsme
ä½ĵä¸Ĭ
ĠWhi
ä¸ľåįĹéĥ¨
æ¨¡ä»¿
Ġ}_{\
çļĦä¸¤ä¸ª
Ġclassification
çĩ
Ġfactors
Ġpolar
Ġsearch
roscopy
Ġreconstruction
ĠéĢļ
åı¤ç½Ĺé©¬
Ġç¡®
å¤ĸå£³
ented
éķ¿çº¦åħ¬éĩĮ
ç²¾ç¡®çļĦ
tance
åĬłåħ¥
HIC
æĻļ
å®ŀä½ĵ
up
ä¸Ńä½į
è¡¨çİ°ä¸º
ready
Ġhexag
èī¯å¥½çļĦ
Ġtas
Ġplu
åľĨå½¢
\}_{
äºīåıĸ
rity
åıĳåħī
oulli
çº§åĪ«
æ¬¡ä¸ĸçķĮå¤§æĪĺ
terofmass
|+\
Ġkeep
çļĦè¾¹çķĮ
åĪ«åĲį
çļĦçī¹çĤ¹
å¯¿
}}^{(
edimensional
,.
ç»ĨèıĮ
Ġæĸ°
ä¸ºä¸Ģ
éļ¶
Ġstrongly
}^{*}=\
è¥¿å°¼
'},
æİ¨æĸŃåĩº
åĲĪåĬĽ
±
çļĦæĸ¹æ³ķ
å¯ĨèĭıéĩĮ
åĿĲ
Ġincomplete
)))\
rane
ç©ºæ°Ķ
çĪµå£«
Ġdriving
å¤įåĲĪ
éĺµ
cor
xed
Ġabsence
nolimits
Ġé¢ĳè°±
num
ĠåĿ¦
Ġill
éī
ð
Ġalle
è®ºæĸĩ
DH
ĠLab
ia
):=
åį«çĶŁ
seudo
ĠçĹħ
åĪĽä½ľ
Ġintegration
quantum
plo
Ġ)}{
é£Ł
Ġgroundbased
Ġtowards
Ġsimplified
Ġåı¤
çº§
repres
)}),
flu
Ġmixed
æ±īå¯Ĩå°Ķé¡¿
è¿ĺè¡¨æĺİ
Ġç¢°æĴŀ
æµģäº¡
Ġgenetic
}\,
Ġamplitude
Ġreplace
Ġcollisions
Ġcs
Ġ\,.
çī©åĴĮ
ä»¥å¾Ģ
çļĦæ´»åĬ¨
Ġfitting
UE
åĬĽçļĦ
ä½ĵåĴĮ
ç»Ħç»ĩ
Ġslow
996
èĢĢæĸĳ
çļĦçŁ¥è¯Ĩ
ĠNf
Ġtake
ĠStatis
åħŃåįģ
èµ·çĿĢ
ĠAS
Ġquotients
Ġmapping
æĿ¥çļĦ
'}{
ĠCoxeter
rents
)}:=\
Ġbands
è¿ŀæİ¥
Hil
Ġcorre
Ġ~=~
çī²
è®¡ç®Ĺ
show
æ»©
ç¤¾åĮº
molecular
ĠBV
Ġin
Ġalter
Ġconve
å¼¹æĢ§
ĠåŃĹæ®µ
terature
çĵ¦å°Ķ
Ġlaws
+~
Ġstret
1000
Ġ()
kp
|~
éĢļ
Ġå¼±
Ġproved
,)
åĪłéĻ¤
Ġleave
ç¼©å°ı
æĺłå°Ħ
ĠSer
åĴĮåı¯
Ġunusual
åĨľæ°ĳ
Ġæ³Ľ
ĠArray
æĢ§çļĦ
latory
ä¸»å¯¼åľ°ä½į
çļĦç²ĴåŃĲ
453
åĬ¨çĶ»
\\&\
180
æł¼æĭī
Ben
Ġdeposition
çļĦç¾İ
Ġprecise
çī¹éĩĮ
Ġmi
dl
åºŁ
Ġive
éĥ½åŃĺåľ¨
Ġbottom
æĶ¹åıĺ
Ġalthough
æĸ¯å·´è¾¾
é»ĳæ´ŀ
+{\
Ġrates
é¢ł
±»
Ġstarted
ĠOr
æĪĲæŃ£æ¯Ķ
è¿Ľå±ķ
|}{|
_{{
pla
åĻªå£°
hood
çļĦåİŁåĽł
Ġlu
Ġestablishing
äººåľ¨
tances
éĺ»æĸŃ
Ġsmaller
éķ¿èĢĮ
CL
åĴĮæ°´
æ³¨åħ¥
^{*
Ġorganic
çļĦç±»
hlung
Ġbenchmark
åĤ¬
phonon
Ġsupports
ticle
ĠéĻĦè¿ĳ
Ġindirect
æĦıè¯Ĩ
Ġtwolevel
æ¶²æĢģ
Ġ\;\;\;\;
Ġfuture
Ġçī¹åĪ«
åı²åīį
Ġintroduced
æĬĽçī©çº¿
å¢ŀåĬłäºĨ
æĪĲä¸º
ĠSUSY
227
çļĦæĮĩæķ°
Ġrule
èĪªç©º
Ġinvariant
Ġadvantages
ari
Dv
limits
-{
åħ³äºİ
ĠStar
æĶ¯æµģ
Ġenable
çĤŃ
ĠLy
vdots
87
irs
æµ·æ¸¯
åĲķ
Ġ\[
å¯¹è§ĴçŁ©éĺµ
ĠCloud
ä¸Ģæ¬¡
çļĦåĿĲæłĩ
æĿ¡
å®Įåħ¨ä¸Ģèĩ´
Ġevolves
ĠBased
Ġselect
Ġèµĸ
Ġmeasure
}}{(
è¯¥åħ¬åı¸
equiv
å»º
éĶ¤
Ġtradeoff
Ġequal
ternal
Ġtrac
290
ä¸´çķĮçĤ¹
åĲĳåĮĹ
éĢļè¿ĩå°Ĩ
Ġesti
wn
pses
å°ºåº¦ä¸Ĭ
Ġ|{\
!}.\)
quently
éĥ¨éĺŁ
^{'
çļĦä¸Ńå¿ĥ
æµģåĬ¨çļĦ
on
INR
å±ł
é©¬éĩĮ
åĪĨå¸ĥäºİ
è§Ĩä¸º
Ġce
èĴ¸åıĳ
}}}
Ġamplitu
è¶ĭåĲĮ
Ġhydrodynamical
çĽ¸ä¹ĺ
}_-
rix
æĸĩåŃĹ
Ġodd
ĺ
åŁºäºº
è¿Ľè¡Į
lattice
Ġåħ¬åı¸
åĪ°ä¸Ģä¸ª
¨ĭ
lowing
ert
Ġåħ³ç³»
ditionally
Ġæľº
elli
çļĦæ¯ı
åĪĴ
åĭ¾
125
Ġsw
Ġsuch
åı
ĠHamiltonians
nging
æ³¢åŃĲ
ient
å¯Ĩåº¦åĴĮ
åĽ¾å½¢
Ġä»¬
Ġterm
ĠåľĨ
Ġç§¯åĪĨ
å¤©çĦ¶æ°Ķ
ç©´
ç»§æī¿äºº
ped
å¹¶æĺ¾ç¤º
Ġbubbles
æľĢè¿ĳå¯¹
Ġhund
ferro
è·¨è¶Ĭ
èĥ½éĩıåĴĮ
å¦
Ġpres
è¿Ļä¸ªæĸ¹æ³ķ
RX
^{|\
è¿Ļé¡¹
ç»ıèĲ¥
éĶ¦
æľºæ¢°èĥ½
çļĦB
Ġeventually
åĳ¨
=\!
}}\)
ä¸ĸçķĮ
Ġmuch
Ġpl
ĠHecke
Ġdivided
ĠçĶ±
æ±ĩ
æĥ³æ³ķ
æĳĨ
ä¸İæľĢè¿ĳ
Ġsubtrac
sia
å¤ıåŃ£
_{*
æŃ£äº¤åŁº
Ġcon
Ġwo
å¤©
gel
kR
Ġå½¢å¼ı
çıĬ
stack
Ġdiscussion
Ġå¦Ĥæŀľ
Ġchaos
trans
å¢Ļå£ģ
Ġuni
varsigma
çļĦC
çľĭåģļ
waves
èĹīçĶ±
åĳ¨çŁ¥
åĽł
çº¦ç§į
ä¾µåħ¥
Ġincludes
Ġtrivial
åĬłå°Ķ
ä¸įçŃīå¼ı
æĪĲå¯¹
Ġfeasible
artreeFock
Ġæ®µ
Bur
Ġinst
(,)
stro
Ġpinning
Ġge
Ġconjectured
than
èĭ¥æĺ¯
Ġrat
åİŁåŃĲ
Ġ&=&
æľĢåĲİ
åĵªä¸ª
èĦĤèĤª
cto
èµ·å§ĭ
è¯ŀçĶŁ
æĦıå¿Ĺ
åĸľçĪ±
æľ¬èº«
ä»»åĬ¡
çĪĨåıĳ
å®£å¸ĥ
ymmetric
å½¼æŃ¤
åĲĹ
Ġcorrespond
Ġè®¨è®º
],\\
å¤©ä½ĵ
ving
Ġmobility
Ġobjects
ĠUltra
Ġmeth
liquid
å§Ĩ
é»İå·´å«©
coo
Ġske
sum
Ġdiagonal
ç»ĵæŀĦçļĦ
Ġspreadsheet
yt
è¢ĭ
generate
Ġinitial
Ġextracted
tors
Ġbyproduct
æŃ£
Zr
åľ¨è¶ħ
Ġhistor
oscale
ĠEuclidean
perturb
mond
ĠåŁºæľ¬
cattering
Ġfluids
é»
æµ´
æĪĳä»¬ä¼°è®¡
ç¯®
è£Ĥ
ç»Ń
Ġpreserved
Ġks
'^
æĪıåī§
GF
'+
æ²ī
çĶ»æ´¾
çħ
Ġine
Schwinger
}_{-
248
Ġperme
Ġdevoted
Ġå¼ķåĬĽ
ç»ĵè®ºæĺ¯
Ġè´Ŀ
å¹³éĿ¢
^\#
vel
SFR
sures
çº¢è½¬
æľĢä½³
è¿Ļé¡¹å·¥ä½ľ
663
tribution
Ġä¸»è¦ģ
ä¾ĭå¦Ĥ
å¹²æ¶ī
å¤ľ
è®¯
Ġinvestigation
Ġproteins
ä»¤äººæĥĬ
gree
Ġra
nes
æĿĢæŃ»
jh
Ġdifference
*(
å¤§åŃ¦ä»»æķĻ
Ġaxes
éĺ»ç¢į
ï¼Ľ
Ġedge
å¾Ģå¾Ģ
Ġcombining
æ¸ħæ¥ļ
çļĦåĬ¨æĢģ
ĠNewtonian
Ġhypersurfaces
TN
åĪ¶æĪĲ
èĸ
ll
çļĦæĶ¾
}(
Ġcyclo
ĠPAH
éķ
$}
Ġdescription
éģĤ
Ġprogen
çº¯ç²¹
ç¡®å®ļæĢ§
é»İ
Ġæ¸ħ
27
è§Ĥèµı
ĠèĻ½çĦ¶
è¡¬
Ġle
Ġç¦
åĢºåĪ¸
}'_
Ġmathcal
ĠåĲİæĿ¥
Ġrepresent
ç¬¬
Ġexpa
mulation
ç©ºéĹ´çļĦ
èĨľ
Ġspontaneous
Ġoperator
ĠçĽ®
éĤ£ä¹Īå°±
first
çļĦæĳĦ
ä¸ªäºº
Ġmatch
}))\)
Ġcancel
Ġassoci
150
ovi
æł¼æĸ¯
æĺ¯åŁºäºİ
Ġpossesses
Ġinteraction
Ġfindings
fur
æŃ£æĸ¹å½¢
Ġobjective
Ġions
åľ°åĮº
éļıæľº
Ġå¿µ
^+\
Ġgeneralization
çļĦæĺŁç³»
}')
æĽ´å¤ļ
quares
ä½ĵçļĦ
ä¸įä¸Ģå®ļ
åľ¨ä¸į
Ġè§£
åĴĮçĥŃ
gether
Ġrectangular
çļĦD
çīĮ
46
lrc
Ġconstr
dual
æ´¾
Ġscat
~\
ä¼Ĺè®®éĻ¢
ä¼ĹæīĢåĳ¨çŁ¥çļĦ
åĪĴåĪĨä¸º
})-
ĠåıĳçĶŁ
dw
¯æĢ§
Yan
ä»¥èī²åĪĹ
'}.\)
æĸ¥
proper
å¸¦
Ġ(),
è¿ĻéĩĮ
Ġmixing
Ġactually
æĪĳä»¬çĶ¨
597
Ġlensing
çī¹å¾ģ
è¯¾
çĲĨè®º
Hermitian
Ġtachyon
æĹ©å¹´
æī©å±ķäºĨ
ĠGA
æĺ¯ä¸įåı¯
{[\
å¸¸éĩı
éĻĨåľ°
ä¸¥æł¼çļĦ
çļĦçº¿
ĠFO
degree
å°Ĩé¢Ĩ
çļĦçĶµåľº
arXiv
ç¾¤ä½ĵ
}=
å¦ĤæŀľåŃĺåľ¨
Ġcouplings
çĹĩçĬ¶
Ġspectrometer
åı¯ä»¥è¯ģæĺİ
ç»¼
ç»ĻäºĨ
èĲ¨
å·®åĪĨ
Ġmill
Ġdeformations
ĠQ
º
Ġdelocal
NL
mod
è¿ĳä»£
åıª
çļĦä¸į
trol
åĮħåĲ«äºĨ
éħ¯
modular
Ġpropor
loring
Ġä¸¤ä¸ª
Ġhard
Ġindicators
çĭ¬
Y
Ġdetections
Ġdefe
Ġbeta
è¿Ļæĺ¯åĽłä¸º
Ġnanoparticles
æ®ĭä½Ļ
ä¹Łæľī
Ġäºĭå®ŀ
åľ¨çļĦ
brack
pot
çļĦåıĮéĩį
çĶ¨åĪ°
åĵ¥ä¼¦æ¯Ķäºļ
æł¸éħ¸
å¤¸åħĭ
éĻĲåĢ¼
cs
å°¼å°Ķ
',\)
Ġcollision
Ġside
éĽĨ
åįĬåı¤åħ¸
Ġchromospheric
ç½ĳ
ĠNear
Ġä»ĸçļĦ
çľĭåĩº
Ġdivergence
uu
çĬ¶æĢģä¸ĭ
tical
Ġcollapse
åħ¬å°º
Ġfreedom
mathbb
other
åĲĳä¸Ĭ
^{-}
rain
å®ļä½į
ĠQu
ĠIGR
bs
çĵ£
}{[
Ġstron
Ġè¿ĳ
ĠCompu
pro
ĠUl
åħ±åĴĮåĽ½
vy
Ġmultiplicity
ç¬¬äºĶ
Biggr
ĠWi
{(-
ngular
Ġå»º
}={
å®°
ĠCor
ĠRn
Ġpairs
pri
æ°ı
è¯ºæĽ¼
äºļåİĨ
Ġkinematic
information
çĽ²
Ġrespect
ç½Ĺé©¬äºº
å¤ļé¡¹å¼ı
Ġisomorphic
lating
ĠChi
ĠThe
Ġ[[
äºĨä¸Ģä¸ª
å¤ľéĹ´
...+
æľĹåħĭ
ä¹Ŀ
ĠDar
åĪļä½ĵçļĦ
å¯»å¸¸
firm
Ġself
ĠGinzburg
342
å¿
ä¸¤çĤ¹
çķ¸
Ġbackground
spectral
çŃīç¦»åŃĲä½ĵ
Ġada
})|\
ä¸»è¦ģæĺ¯
çļĦç½ĳ
Ġphotospheric
KT
éĥ¨ä½į
\,\,
æĬĺ
Ġrandomi
Lorentz
F
åĨĻä¸º
exchange
çļĦå¤ļ
Ġhydro
Ġspacing
å¹´åĽł
Zn
åı¯ä»¥ä»İ
èĭ±
è¶Ĭ
Ġlogarithmic
è¾¾åĪ°
Ġ-\
åįķ
=~
{(}\
ĠæĪĳä»¬è®¨è®º
çļĦç²¾ç¥ŀ
Ġç¼
åľ¨æīĢæľī
^{-{
vity
å¸¸è¢«
Ġgame
çĺ¤
å©´
åħ¶ä¸»è¦ģ
()
Ġtoroidal
æ²Īç§¯
ä¸Ģä¸ªæĸ°çļĦ
åĵĪå¾ĹéĢĬ
ice
ardin
Ġunitary
..:
æ¸ħ
Hubb
FR
III
å¼ĢåĪĽ
duc
oldsymbol
MHD
P
romov
Ġillustrated
è¾¹å½¢
æĬĢ
cally
çĶ·çĪµ
åľ¨åĨħçļĦ
}=[
çķħ
æĿ¥æĺ¾ç¤º
lifford
é»Ħèī²
æľīåı¯èĥ½
Ġmoves
Ġè§Ĥ
ä¸ĸä¿Ĺ
}}^{\
åı¯
æ¶ħ
Ġfocuses
åįģåħŃ
éĢļéĩıçļĦ
ä¹ĭä¹ħ
130
ul
è¾Ĳçħ§
Ġå®ŀçİ°
äººæ°ĳ
Ġelectro
tificial
Ġcorollary
Ġhar
æĶ¶æķĽ
Ġphenomena
è´¨çĤ¹
curve
ä¸Ģç±»
èľ
Ġwork
Ġevents
Ġdeb
Ġ\!
dM
Ġconditional
æĹ¶åĢĻ
ĠOrion
éĺ¿æĭīæĸ¯åĬł
Ġalgebraically
Ļ½
å¤©ä½ĵçļĦ
hole
åįģä¸ĥ
ç®Ģè¦ģ
åĳ½åĲį
æĺ¯è¯¥
Ġsuffer
ea
åĮĢ
éĿŀå¸¸ä¸Ģèĩ´
ç¦ģ
ĠçĻ¾
Ġcompar
Ġmicros
éĽĩ
Ġrenormalized
Ġä»¶
Ġ~.\)
ĠâĢľ
iY
å¹¶éĿŀ
çļĦåĩłä½ķ
åĪĨæŀĲ
æĢ§èĥ½
Ġhomotopy
''\
ĠCH
åŃĺåľ¨äºİ
ç£ģæĢ§
Ġto
ç§ģäºº
ä½İèĥ½
åĮ
çĶ¨è¡¨ç¤º
èĻ½çĦ¶
åŀĭçļĦ
Ġfix
Ġer
Ġnucleon
æ²³åĴĮ
çļĦçŁ
Ġconfirmed
é½¿
è¯¥å²Ľ
è¿Ĳè¡Į
Ġlist
æĭĵå±ķ
ä¸ĢåįĬ
æıĴåħ¥
BF
Ġresi
kpc
æľ¨æĿĲ
å½»
æĪĳä»¬çļĦ
Ġconfined
ĠOne
Ġargue
ľç´¢
roscopically
heating
è¿ĻäºĽæķ°æį®
Ī
ables
pseudo
nr
Ġmodel
Ġincreasing
å¸ĥæĸ¯
,-\
å·´è¥¿
'(
Ġå·´
brated
Ġwave
åĵĪçī¹
Ġinsight
ĠAC
Be
æĪĸ
ä¸¥
åĻªéŁ³
M
éģĵè·¯
quality
åĢº
yal
nN
}\,(
ĠSNe
è½´
Ġsupp
tingu
Ĭ¶æĢģ
Ġadopt
ç©¶
Ġå°ı
å½¢
ç¦»
haps
Ġdoping
_+-
grega
åĴ½
Ġferroelectric
Gordon
ç´«å¤ĸçº¿
pw
å®ĺ
Ġbright
Ġcollection
Ġleft
los
Ġéķ¿
çĽ¸èģĶ
ĠRegge
å
!
ĠHow
ĠField
äººå·¥
å¼º
ç¾İåħĥ
æ¯įäº²
zen
Ġchirality
Ġhysteresis
ĠStokes
çĭ±
æ¯ıæ¬¡
Ġaccounted
ä¸ŃçļĦä¸Ģä¸ª
æķĻæİĪ
253
åĲİ
Ġthree
æŀª
:~
çļĦæİ¨
Fe
Ġmajor
å¢ĵ
Ġelements
æī«æıı
Ġä¸ĭ
fields
ĠFano
rov
ĠæĪĲ
Ġadaptation
Ġmecha
ĠæľĢå°ı
Ġmag
ç²¹
Ġcontinue
Ġæĸ¹ç¨ĭ
Abelian
å¯»æ±Ĥ
Ġdistor
by
tributed
ä¼ĹæīĢ
xd
æĪĳä»¬ä¹Łåı¯ä»¥
ĠI
åı¯ä»¥çĶ¨æĿ¥
384
ä¸ľåĮĹéĥ¨
ĠChe
Ġexact
Ġmatrix
^{+
Ġamong
tary
éĵħ
éŃĤ
halos
å¥¥è¿Ĳ
Ġcontaining
åħĭæľį
ä¸§å¤±
Dg
ley
Ġæ¨¡å¼ı
å±Ĥä¸Ń
çĻ¾åĪĨ
åī²
ĠéĻħ
IO
å·´å°Ķå¹²
between
ä¸»æľº
vari
åıĸåĨ³
oph
åĽŀ
å¤ª
èĬŃèķ¾èĪŀåĽ¢
ä»İæŃ¤
ĠæŃ£åľ¨
Ġimplemented
ward
pmod
å°ĳæķ°
æĢĢ
åĲĪéĩĳ
Ġlate
ä½İäºİ
Ġwhi
KE
Ġconvex
Ġ),\)
å¤§æī¹
å·¦åı³
è®¾å®ļ
20
çĶ²çĬ¶èħº
ä¹ĺæķ°
åĳ³
Ġhightemperature
Ġeffects
æĸ¹åĲĳä¸Ĭ
åĩºçļĦ
ĠæĪĳä»¬è¡¨æĺİ
ized
Ġsuggest
æĮīéĴ®
Ġconnections
iD
åĵ©åħ¬éĩĮ
å°Ŀ
å¥´éļ¶
Ġassumes
Ġhost
gani
å¥Ķ
Ġho
Sir
æ¸©åº¦ä¸ĭ
éĻĪ
åĩłä½ķ
Ġlead
Ġtelescopes
}))
Ġtro
Ġconvective
æ¶ī
ä»įçĦ¶æĺ¯
åıĳè¡Į
bounded
}}\
Ġspac
575
![
å¼Ģ
Ġintra
ges
å¤©ä¸»æķĻ
æĺİç¡®
çļĦåħĥç´ł
}^{(\
Ġæ²³
è¶ĭ
Ġhorizon
Ġincompressible
æĵ¦
Ġcriteri
Ġneighbors
éĢ»
Ġidentity
Ġ}{(
um
çļĦæĥ
Ġradical
lensing
Ġtherm
çĶ¨
å¹´æľĪæĹ¥
Ġsometimes
åıĸæ¶Ī
an
^
åħ¬
åİĤ
Ġ\|^
D
ortant
xxx
):=\{
ĠMO
é³
æĪĲä¸Ģ
Ġker
éĹ®
å¸ĮèħĬ
Ġç½
bigoplus
ĠPCA
nts
),\;
Ġæĺ¯ä¸Ģä¸ª
Ġsharing
arities
ä¸ºåŁºç¡ĢçļĦ
çļĦåĨħå®¹
å¼Ĥå¸¸
Ze
çļĦæ²³
è¯ģæĺİäºĨ
Ġrecom
èľ¡
tators
Ġcorrelations
ä¹ĭå¤Ħ
Ġangle
è©
Ġversions
Ġmachine
ined
Ġhundreds
'),\)
Ġthey
åĲİéĿ¢
thered
Ġeccent
')+
ĠIsing
isi
æĦıä¹ī
pted
å®ĥåľ¨
ĠçĶ¨
é¢ĳçİĩçļĦ
S
typical
Ġazimuthal
mathtt
çĽ¸äºĴä½ľçĶ¨çļĦ
Ġmolecu
é¢Ĩå¯¼äºº
è®©
éģĵå¾·
Ġä¸įåĲĮ
dz
uller
Ġtriangular
ĠCombining
ĠWMAP
Ġcommunic
çļĦåģĩè®¾
Ġconsequence
parrow
èĪį
)};
ĠRecent
æĮĩåĩº
four
Ġsurprising
ç´«èī²
tm
æŃ»äº¡
analytic
Ġbody
çģ
èģļéĽĨ
æĪĳä»¬è®¨è®º
è§Ī
ĠCu
çļĦåıĳ
ĠçĤ¹
çļĦéĢŁåº¦
Ġ\;\;
Ġaggrega
Ġtin
guide
igzag
åŁºäºİ
åħĭæŀĹ
cher
æĺĵæĦŁ
åĲ¨
nel
)&=(
Ġrepres
Ġæ£
ab
agreement
Ġcover
å¤§èĩ´
to
èĩªå·±çļĦ
Û
å³
}^{+}
çĽĳç¦ģ
ä¿Ŀç½Ĺ
ç©ºéĹ´ä¸ĬçļĦ
sequence
ä¸ľåįĹ
éķ¿æľŁ
Ġinfinity
dQ
åĵģç§į
Ġå¤§
Ġç³»ç»ŁçļĦ
æŁıæŀĹ
èµ¢
çļĦçī©çĲĨ
æ²Ļæ¼ł
BPS
]:=
Ġcompressible
oltzmann
MBH
xe
Ġshower
Ġpractical
grav
exact
while
ç»ķ
Ġvarying
çĶŁåŃĺ
è®Ńç»ĥ
å»ºè®¾
å¿ł
éĶĢåĶ®
å¹´åĪ°
mechanical
æĹ¶éĹ´
æľīå¤ļ
Ġå¹ħ
Ġcyc
3
6667
377
Ġimproves
èĴĻåı¤
dark
production
Ġexpe
)\;=\;
olved
''+
ç¨ĭåº¦çļĦ
éĥİ
Ising
textit
Ġæłĩ
]}(\
Ġskew
å¼ĤæĢ§
Ġratio
Ġhighresolution
èł
Ġbas
lar
:\,\
æĸ¹å¼ı
å»ºè®®
åĪĨç±»
loan
Ġgoverning
stablish
Ġextrasolar
Ġprotein
An
Ġfactor
æĪĳä»¬çŁ¥éģĵ
bA
èĩªçĦ¶
roll
Ġexcitons
Ġaffe
ä½¿åħ¶
rose
ries
èį§
å°ģå»º
)^{[
å¹´æĪĲä¸º
çİ°åľ¨çļĦ
çĭĦæĭīåħĭ
ĠLax
vir
ĠCh
Ġyet
Ġ({\
Ġinflu
edi
ĠSecond
äºĮåıīæłĳ
am
force
åľĪ
Ġsemigroup
Ġsimplest
å®ŀéªĮç»ĵæŀľ
Ġconductance
poly
Ĩæŀ¶
é«ĺèĥ½éĩı
colone
çĶ²
éĥ½åı¯ä»¥
Ġdepletion
Ġattack
ist
çĮ¿
nucleus
gathered
MK
cip
Ġsubset
ä¼¸
Ġold
åį°åĪ·
\})=
Ġdescri
åı¥è¯Ŀ
host
åĢ¼æĺ¯
æ¥ļ
Ġå½ĵ
ç«Ń
è¢«åĬ¨
Ġnumerical
\\-
Ġsensitive
DP
Ġimmediate
åĨį
averaged
\\=&
ĠåıĤéĺħ
Ġcontrolled
Ġbos
å®ŀéĻħä¸Ĭ
ä¾ĭåŃĲ
èģ
later
ä½ĵåŀĭ
æį·
Ġthermal
Ġenergy
çļĦçŁ©éĺµ
åľ¨æŁĲäºĽ
+(\
tage
Ġç«ĭ
ĠæĪĳä»¬ä½¿çĶ¨
åŁºéĩĳ
å®ŀéªĮä¸Ń
éĻĨåĨĽ
å·ŀé¦ĸåºľ
èĩ´
æ¸ħæ´ģ
Shi
å§ĭ
Ġtechniques
864
Ġreproduces
Ġpotentials
pherical
Ġbirth
éĺµåĪĹ
Ġlatter
ç¨ł
ĠPoly
ä¸Ģå¥Ĺ
}\|^{
Ġrelay
ĠSouth
çĲ
çļĦæ¨ªåĲĳ
ossi
Ġdo
åĩ¸
sically
Ġconstitute
ç»ĺçĶ»
rho
Ġme
è§ī
åĽłæĸ¯åĿ¦
Ġincrease
ĠæĽ¼
åĪĨè§£
edy
bers
æµ·åºķ
èħĵçī¹çĥĪ
æĿĲæĸĻä¸Ń
Ġind
portation
åľĨéĶ¥
imp
èħĶ
Ġoutcomes
åľ°å¸¦
licity
Ġå¤Ħ
Ġswave
èİ·å¥¥æĸ¯åį¡
æĸ¯çī¹
mu
Ġlevels
DR
çļĦæ¿Ģ
Ġbridge
':=
ignment
)|.
Ġmanipulation
VI
Ġdissipa
åĲ¯
rank
å¿ħå®ļ
ĠæĪĳä»¬ä¸º
mediate
Ġmb
Ġconversion
çļĦè§Ĵåº¦
.\
éĻĦè¿ĳçļĦ
)}_{
Ġkinematical
çĬ¹å¤ªæķĻ
çĪª
ç¾¤éĽĨ
}\
Ġauthor
åľ°åĽ¾
æĿŁ
Ġallowing
çļĦå¥³åĦ¿
mbigu
collapse
)),\
çļĦçī¹æĢ§
called
ç¾İç´¢
Ġå¯¹äºİ
ĠChap
Ġç©ºéĹ´
quences
Ġmutually
Ġordin
æĿ¡çº¹
Ġæ°
ä½ĵç§¯
åŃ¤ç«ĭ
çłĤ
hoff
Ġrecent
Ġdrift
ĠnonAbelian
éĵ¾æĿ¡
ron
)\
Ġbonds
vious
correlated
Ġactive
ç¬¬è¡Į
Ġpara
èī¯å¥½
ropean
æİ¨å¹¿
Ġç¦»
ĠæĪĳä»¬æĺ¾ç¤º
shi
ppler
Ġmen
Ġprimordial
è¿ģå¾Ģ
Ġæľī
Ġcd
Ġåħ±
264
ä¸İéĿŀ
ä¹ł
Ġlinewidth
Ġå·®
Ġæµĭè¯ķ
ä»İäºĭ
Ġdemonstrates
ĠçŁ©éĺµ
åıĬ
æĺ¾èĳĹçļĦ
Ġjoint
åĴĮæĹ¶éĹ´
ç«ĭæĸ¹ä½ĵ
Ġquali
æ¥
ittle
Ġdon
çļĦæĶ¹éĿ©
Ġfluctu
çİ¯
æłĩåĩĨæ¨¡åŀĭ
Ġwavefunctions
æĬĺå°Ħ
å¾¡
åº¦éĩıç©ºéĹ´
orption
åľ¨èĭ±åĽ½
ç«ŀèµĽ
Ap
æŁ¯
åĵĪå¾·
parameters
Ġaction
åĮºåĴĮ
Ġemergent
æĿ¥ä¼°è®¡
Ġinfer
Ġgrow
Ġmath
çªģåıĺ
åģıå¿ĥ
ĠIma
Ġè¡ĮäºĨ
839
Ġç¬¬ä¸Ģ
åĪĽå§ĭäºº
uter
})\,\
æī°åĬ¨çĲĨè®º
è±ª
Ġduring
å·«
Ġä¿¡åı·
Ġprototype
Ġæīĭ
é«
Ġ_{\
Ġlocus
Ġlet
åĮħåĲ«ä¸Ģä¸ª
violet
Ġstatement
äº¤éĶĻ
man
ĠMori
Ġå¤ĦçĲĨ
ĠGa
ĠBose
ĠPS
626
æĶ¿åºľé¦ĸèĦĳ
åıĮå±Ĥ
bil
ç¼ĸè¯ĳ
\,,\
éķ¿åħ¬åĪĨ
Ġappeared
ancial
Ġrelevance
);\)
Z
å¥ĩæķ°
Ġom
llll
odynamics
Ġmost
Ġmodulation
Ħæ¸ħ
{{{
ä»£çĲĨ
fact
åľ¨ä½į
å®¢è§Ĥ
åľ°åĴĮ
Ġcircum
å¼łéĩıçļĦ
align
,\\&\
ometer
æ°ĳæĹı
çĸĹ
:=
Ġsole
æīĢ
å¤§èĦĳ
Ġ.:
Ġtermin
Ġimposed
æĭŁåĲĪ
axwell
ĠåĪ°
çİ¯å¢ĥ
Ġtechnique
number
ĠIsla
æĸľ
ĠæĶ
duce
men
Ġdiscrepancies
Ġ\([\
åĪ¶éĢłä¸ļ
Ġvec
Rightarrow
Ġfm
ĠAssuming
formed
æķĻåŃ¦
,\,\,\,\
æķ´
åĲĮæĹ¶
åħ¬åı¸
æİĪæĿĥ
Ġed
mplectic
åīįéĿ¢
\)
Ġrenormalization
Ġshows
tre
Ġelectrodynamics
Ġcompound
Ġå½ķ
ld
åħ¬çº¦
varGamma
æ¾
ĠOver
æĬĢå·§
ĠWar
Ġstring
aded
æİ©
]_
ç»ĵæŀľæĺ¾ç¤º
Ġdedicated
rme
JJ
åīĤéĩı
system
æī©å¤§çļĦ
Ġ)\,
ĠSA
spa
ĠçļĦä¸Ģä¸ª
ç¾¤ç¾¤
dies
shaped
{}
æıĲåįĩ
TS
Rx
å¾Īæľī
ĠSD
é©¬åħĭ
åŃ¢
Ę
Ġspectro
å¥½å¤Ħ
è°±
Ġconcerns
å¼ºçļĦ
Ġç²
æľĢé«ĺå³°
æ´ŀç©´
æĺ¯æł¹æį®
Ġaccoun
è¦ģæ±Ĥ
ĠSimulation
_-,
Ġgames
Ġæĥ
tations
):\
å¾·æĦıå¿Ĺ
ket
charac
éĵº
æĬ¥åĳĬäºĨ
çļĦçľ
æ¯Ĵ
Ġkernels
è®¾è®¡çļĦ
éĺ¿æĭīä¼¯äºº
level
Ġ}
hydro
çļĦæļ´
textcolor
åĮº
åĪ¶çļĦ
ĠAccording
gin
Ġabsorption
Ġdet
åŁºåĩĨ
rac
yc
æīĭæ³ķ
¯
Ġelectronphonon
Ġç¨³å®ļ
é¡µ
ĠJo
Ġgrou
ĠBB
Ġç»ĦåĲĪ
Ġreduced
æ¯į
sful
çĿĢ
ä¾ı
å®ĩå®Ļ
Ġdispersive
è¿ĩç¨ĭ
å¹´S
Ġnondegenerate
åĩº
Ġmess
åĳĬè¯ī
å¤ĦçĲĨåĻ¨
Ġindividual
neighbor
plan
)!}
éĵĢ
ĠäºĮ
Ġsimp
orho
mini
25
ĠSF
æ¢¯åº¦
Ġpattern
Ġig
Ġextract
.(
Ġ}+\
èĩ³ä»Ĭ
èį£èªī
å¯¹åģ¶
æł¼
DFT
Ń
Ġcharacteri
Ġcategory
LM
eness
çļĦæĥ³æ³ķ
Ġaffects
Ġachieves
éĺ¿æĭī
åĮĸåĴĮ
èģĶç»ĵ
æĶ¿çŃĸ
ĠAnderson
keV
éĻĦè¿ĳ
Ġbi
éĢļä¿¡
Ren
ĠOn
Ġlocation
AU
38
åıĳå°Ħ
_{-}(
Ġdomain
æĪĳä»¬èĥ½å¤Ł
[{\
ĥŃ
åħĭåĪ©
æ¦Ĥ
Ġhapp
ç®ĹåŃĲ
çŀ¬éĹ´
thin
ä¸°å¯Į
æĥħåĨµä¸ĭ
æķ´ä¸ª
Ġevolved
ad
éĩıçļĦ
åįģåĽĽ
æĬĹ
Ġä»ħ
æīĵåĩ»
race
<s>
igned
éĻ¶åĻ¨
ĠçŃīäºº
åĴ
pr
bigtriangleup
èµ
illing
ĠPr
=&
èį·
pmatrix
tag
çī©ä½ĵ
}\},
haring
æ¯Ķè¾ĥ
ighb
Ġdel
als
çļĦçĪĨ
onically
minimal
çĹħäºº
Ġevaluation
ä½İéŁ³
Ġindependent
ç§ĳåŃ¦
pped
Ġ\,.\)
Ġacquired
Ġfor
Ġassumptions
qr
dest
uy
where
sta
HA
èĭ¯
çļĦçĤ¹
ĠTa
æľīéĻĲ
ĠæĪĳä»¬åľ¨
Ġç«
ĠæĽ
ĠVu
]
æ°Ł
åĬĽçŁ©
cf
æĺ¾ç¤ºåĩº
hler
çª
ä¸ĸçºªåĪĿ
Ġè¿ŀ
ĠäºĶ
çļĦç¢°æĴŀ
ĠèĢĮ
çģµæ´»
ĠåĽ¢
Ġæ¦Ĥçİĩ
Ġrepresen
Ġwere
èģĶç³»èµ·æĿ¥
heavy
Ġlateral
Ġindication
ì
æĿł
hedra
Ġcharacterization
)-(\
çļĦåľ£
Ġefficient
Ġdepends
Ġexis
distance
Ġpaths
Ġdrop
æ¹ĸæ³Ĭ
Ġfide
ĠæĻ¶
Ġdown
Ġ,\\
ĠUnlike
Ġearly
ç¾¤ä¸Ń
Ġprojective
Ġliquid
cessible
Ġdramatic
å°Ĩåħ¶
Ġthermodynamic
Box
Ġexpla
Ġevaluate
)}(\
counter
Pc
textrm
ĠPoincar
Ġåį¡
èĹ
å¥¥
åħĭéĢĬ
æľºæ¢°
ä»ĸæĽ¾
æŀĦæĪĲä¸Ģä¸ª
brid
åĩ½æķ°åĴĮ
Ġconcer
ibb
Lx
)),
èħº
ĠNN
åįķä½įåĪ¶
lastic
color
Ġmanifold
rey
è¯¥æ¨¡åŀĭ
Ġcomparison
åİĨ
ĠåĬ©
ĠConsider
Ġdeveloped
Ġext
ä½Ĩä»į
Ġinfinitely
çº¦åĮĸ
Ġå½¢æĪĲ
|}.
jg
Tr
è¿İ
Ġeach
ç³Ļ
mity
Qs
grams
åĬ¿èĥ½
This
Ġsupersymmetric
va
^{++
}-\{
ison
çĽ¸åıĺ
bn
å¯¹äºİä»»ä½ķ
å·¥
ĠæĮĩ
æĹģ
æºĲäºİ
'}=
çĥŃåĬĽ
Ġthermodynamics
Va
çľĭä½ľ
å¥¥åľ°
æĪĳä»¬é¦ĸåħĪ
Ta
&=&
æĹłéľĢ
Ġtechn
ĠMinkowski
äºİå¹´
åĪĨéĴŁ
\,=\,
Ġrare
è¿«ä½¿
åĸ·
¤Ĳ
åŁŁ
ä¼ĺåĮĸ
Ġformulate
mological
!}{
è½¬åĮĸ
Ġgap
mentary
æĦŁè§ī
ker
åĪĨæĶ¯
ç»ĵåĲĪäºĨ
äºĮåıī
è®¡çĶ»
æĿ¥è¯ģæĺİ
éĢĴå¢ŀ
okkerPlanck
ç½ĹéĹ¨
ĠDes
æ¸©æļĸ
Ġtot
}:=(
å±ķ
çļĦåĲĦç§į
Ġthermodynamical
æ¨¡
éĢĤçĶ¨äºİ
Ġcontribution
æĮĩåĲĳ
^-
ner
elf
bust
Ġdiversity
double
Ġbursts
æŃĮåĶ±
Ġ\(\,
è´Ń
åħ¬åĽ½
gan
nusu
å¥½èİ±åĿŀ
trap
åıĸåĨ³äºİ
}^{\
çĻ
ano
åº§
Ġappe
èĥľ
å»Ĭ
è¥¿å¾·
æįĨ
çļĦæķ°éĩı
è¿Ł
Ġghost
ĠSiO
ç¡Ŀ
ĠæŃ¤
ä½¿æĪĳä»¬
åħ±äº§ä¸»ä¹ī
flow
tific
gge
pper
Ġinvariants
ä¾ĿèµĸæĢ§
Ġsystem
(\{\
ĠæĶ¯æĮģ
äººçļĦ
abi
nT
çĥŃéĩı
Ġemis
ç§»
çĽ´è§ī
åĲĮèĥļ
kappa
Ġb
åıĳæĮ¥
Ġimplications
èĥ½éĩıå¯Ĩåº¦
off
sibly
åĴĮæĺ¯
Ġbary
Ġnonnegative
ć
å¤§æĪĺ
-)
è¿Ļåľº
Ġbroadband
}&=\
weak
))(
iA
æĸ¯å¡Ķ
CV
ç¬¬ç«ł
ä¸¾åĬŀ
èĵĦ
dinger
ast
Bu
Ġobscured
)]^{
ĠåĽŀ
tability
æ¿Ģåıĳ
Ġuniversality
è±ļ
å¡ŀå°Ķ
Ġtraining
å¤ļå¹´çĶŁ
Ġproven
Ġconstants
Ġ=-
å¹¶åıĳçİ°
Ġeigen
Ġ\\=&
åĿĿ
è¿«
ĠæıĲä¾Ľ
hase
Ġinteger
per
æĻ°
romagne
break
Ġoriginate
ĠCartan
ä½ĽéĻĢ
ä»¥åįĹ
Ġdiagrams
Ġrepulsive
æĵį
ĠKu
åħ¶å®ĥ
};
hD
Ġoffer
Ġextra
MW
å¤ĦçĲĨ
äººä¸İ
æĽ¿
24
å¹¶ä¸Ķ
Ġorthonormal
prising
Bar
è¿Ĳä½ľ
bes
å·¨å¤§
Ġå¢ŀåĬł
Ġgreater
Ġç£ģçĽĺ
efficient
Ġç»Łè®¡
ditional
Ġaccording
(-
åħ¬è®¤
Ġation
çĸ¹
è¿Ļä¸ĢçĤ¹
ä¼ļè¢«
æĮĩ
çŁ¥
ĠCMB
Ġunde
ĠCur
åħ¨å±Ģ
ä¹Łåı¯èĥ½
Fock
Ġæķ°éĩı
åĲİä»£
cw
AZ
Ġextrapo
ĠDF
ç»Łæ²»
Ġå¤§åŀĭ
magnitude
Ġprevious
158
Ġansatz
éķľåĥı
åĨ³å®ļ
åĨħæľī
Ġlepto
bally
æ¯«ç±³
æĪĳä»¬èĢĥèĻĳäºĨ
æ¯Ķçİĩ
ĠMat
æµĭå®ļ
gligi
è¾ĥå¤§çļĦ
çĽ¸ä¿¡
develop
prime
izes
äº¤æµģ
[
è¿ĻæĦıåĳ³çĿĢ
æľĢå¥½
åħ¨éķ¿
tX
èĤĥ
Ġredshift
åŁºçĿ£
å·²ç»ı
çŁ¢éĩıç©ºéĹ´
Im
å°ıçĲĥ
urally
ĠèĢĮä¸įæĺ¯
Ġ&\
æ¡
æĿĥå¨ģ
Ġquadra
ĠçĥŃ
999
}^{(
ä¸įè¶ħè¿ĩ
Ġpublished
_{+}\
ĠXY
äº§äºİ
ä¾µçķ¥
ĠGal
ç¬ĳ
strate
Sim
çº¿æĢ§ç©ºéĹ´
Ġelectric
Ġmultiwavelength
äº²
Ġarri
sT
ubb
éĥ¨çļĦ
çģ°èī²
Ġunparticle
æ´Ľåħĭ
chel
quential
Ġshowers
Ġwith
Ġcorrelation
Ġzigzag
Ġå°Ķ
omic
Ġnumerous
Ġefficiency
)-(
^{|
ĠæľĢè¿ĳ
one
JY
åı£åĳ³
éĥ¨åĪĨ
mkern
Ġevaluating
such
æľĢéĩįè¦ģçļĦ
hi
¾ä¼ļ
preser
DI
å°±ä¼ļ
ä¹Łåľ¨
Ġassemb
è½°çĤ¸
\|_{\
çļĦæĻ¶
}\{
integrable
æĢ»æĺ¯
ä¸¤æ¬¡
éģµå¾ª
å¹³è¡¡çļĦ
çļĦæĿ¡ä»¶
¯ı
Ġampli
åį°åº¦æ´ĭ
ĠLac
æŃ£å¦Ĥ
Ġchoice
trix
åĩºåı£
éĥ½èĥ½
çļĤ
éĿłè¿ĳ
}|}\
elta
ukawa
oop
Ğ
ina
Ġproximity
æ¯ģ
å¢ŀå¤§
ĠS
ĠSpin
ifshitz
ä¼´
Mar
Ġmark
Ġadvan
åį·
}^{*}
Ġsoliton
{}_
æ¡Īä»¶
èĤ¯
quet
Ġçº¢
æĿĥåĪ©
çļĦçŀ¬
Ġinfluence
Ġsigns
åŃĲ
Ng
éĿŀå¸¸
Ġbelonging
Ġepita
Ġrig
èĢį
Ġachievable
å¹´å»ºç«ĭ
{}{
wards
Ġsix
Ġç§°ä¸º
AGB
å¼ĢæĻ®åĭĴ
)}=(
LL
å®ŀè·µ
Ġbeh
PN
Ġconstituent
ki
Ġdefic
æĦıåĳ³çĿĢ
éĢļè¿ĩåľ¨
ĠæŁĲäºĽ
elm
prove
æĿ¥èĩª
å¼ıçļĦ
Ġell
ç¡®åĪĩ
æĸľçİĩ
èĤī
kM
Ġbolometric
').
lti
Ġmerger
å¢Ļ
Ô
åįķè°ĥ
ĠChernSimons
Ġprove
Ġ14
çķĮ
Ġä¸»ä¹ī
æģ°å¥½
ous
åİ¿
ç¼©æĶ¾
çİ»çĴĥ
æ¿ĢçĥĪ
åĴĮæĸ°
Ġpor
çĢĳå¸ĥ
broad
Ġtwist
è®º
metallic
ri
å¨ģ
Ġtravel
Ġsupermassive
éļ¾
å¡Į
çī¹å¹´
me
åľ¨ä¸Ģä¸ª
Ġshe
ç¾İåĨĽ
ç¯ĩæĸĩç«ł
kt
ginary
åľ°è²Į
Ġexpand
åĲĽ
ä¸ľè¥¿
Ġidentities
ķĮ
æľīä¸¤ä¸ª
Ġfundamental
Ġ}\
rant
EA
Ġdesigned
å½
Ġpulsations
åľ¨ä»»ä½ķ
åĴĮçļĦ
ó
Ġminor
ĠCT
Ġæľª
az
ä¸ĢçĶŁ
ĠNetwork
Ġprep
Ġcategor
ĠNc
çļĦåĲĦ
plet
boration
Ġmechanism
Stra
Ġcoarse
Ġcoincide
å°±åı¯ä»¥
step
éĢ»è¾ĳ
\}\
Ġlink
åħ¼å®¹
Ġwhich
äºĮéĺ¶
çļĦç«ĭ
Ġbelow
ĠAny
Ġaccomplish
Ġmesh
ĠMan
ĦŁ
)|\
rably
)|=|
lm
è·µ
ç©·
ators
èĩªçĶ±çļĦ
Ġexperimental
ä¼°
ĠæĢ§
åŀ«
Ġcore
\,|\,
ç»ĵçĤ¹çļĦ
éĥ½ä¸į
Ġparent
_{\,
Ġany
è¿Ľè¡ĮäºĨ
Ġstripe
Ġspectr
åıĳæĺİ
Ġæ²¡æľī
å¹¿æĴŃ
Ġéķ¿åº¦
åĽĽéĿ¢
æ¯Ĺ
GM
çīĻ
Ġæľ¬æĸĩ
æľĢé«ĺ
DA
ä¸įåĲĮçļĦæĺ¯
å¾®åĪĨæĸ¹ç¨ĭ
}).\)
åĽ½å¤ĸ
ä¹Į
-.
æľĽ
æ²³è°·
é£ŁçĶ¨
å¸Ĥåľº
Ġ].
q
å¥¥åľ°åĪ©
Ġ^{
Ġç»ĵæŀľ
åħ¬ä¼ļ
æĹ¶ä¼ļ
Ġtoy
ĠNeumann
æĪĳä»¬å±ķç¤ºäºĨ
æĬļ
ä½ľåĵģä¸Ń
Ġoverla
Riemann
Ġconfirm
boxtimes
Cx
Ġæ´»
Ħ
Ġweak
iV
ç«ĭæ³ķ
è½»
Ġoxygen
heim
}}=
Ġåĵģ
rae
cise
ĠéĹ®é¢ĺ
ires
ag
Ġperio
Ġsubstitu
åľŁèĢ³
Ġ^{-
Ġbaryonic
Ġrow
ĠCen
ä¸ĿçĬ¶
ased
Ġsmoothing
æľīæĹ¶ä¹Ł
åĴĮå¤ļ
]/
201
ta
åŃĶ
pin
Ġcrypto
æľĽè¿ľéķľ
è£¸
fol
åıĳåĬ¨
åĩĿèĥ¶
ided
varin
æł¹æį®
ĠæĭŁ
ĠFre
St
Ġdecades
è¶ĬåįĹ
liminf
çļĦæ»
Ġfinally
Ġpresent
RT
æĬµæ¶Ī
Ġresidue
AS
[-
ashba
Ġgradient
167
åĪ¶éĢł
ĠæĿ¿
åĨĻä½ľ
len
æĪĲä»½
139
Ġçİ°åľ¨
åĬłåĪ©ç¦ıå°¼äºļ
Ġsign
ĠFirst
æ¯Ķæĸ¯
liff
GI
èĥ½æºĲ
ĠHubbard
ä¼łæĦŁåĻ¨
Ġry
ĠæľŁ
Ġquad
Ġ]=
æŃ»åĲİ
mi
itive
ĠåĮĸçļĦ
éĵĥ
ĠåįĬ
ĠII
les
§åĪ¶
åı¯ä»¥æĬĬ
216
Ġunivers
ä¹ĺç§¯
æľº
ĠInfrared
Ġlayer
çĶĺ
åĲĪéĢĤ
åĩıéĢŁ
çĮª
å¸¦é¢Ĩ
Ġ[\
52
çķ´
tify
wide
Ġå®ļä¹ī
æĪĳä»¬åıªéľĢè¦ģ
è±Ĩ
Ġadjacent
Ġclu
unch
sa
chy
Ġlumin
æĪĳä»¬å¯¹
ç²¾ç¥ŀçĹħ
Ġper
Ġproble
exten
åıĳçİ°äºĨ
éĥ½ä¼ļåĮº
Ġastro
èįīæľ¬
æĸĲ
æĶ¿åıĺ
Ġcuts
5
)ï¼Į
Ġowing
Ġll
^-_
åĮĪ
hand
Ġarrangement
Ġct
ĠSpecifically
emph
ĠæĸŃ
_-(\
Ġaf
Ġequatorial
tili
æ®ĭ
wri
319
ä¸ĵéĹ¨
Ġfe
å¤§å¤ļæķ°
åĴĮC
scripts
æı
åı¤å·´
sion
å®ŀçİ°çļĦ
vents
{\|
è¡¨ç¤ºæ³ķ
Ġä¸ª
Ě
TH
Ġcells
Ġtest
ç«ł
ived
Ġobserving
textnormal
æĽ´é«ĺ
èį·é©¬
æĸ°åŀĭ
ymmetry
åħĪ
eff
æĥħç»ª
elike
ä»½
Np
)|}{
racy
hx
icz
Ġfocus
)]+
åº¦
&=\
bigwedge
propto
Ġingredi
Ġits
Nd
onomical
åĴĮK
;\;\;\;\
æ¼ł
è¿ĳéĤ»
çķĮéĿ¢
èĢ
Ġæį®
åĽºå®ļçĤ¹
Ġexplored
,\,
èģĶåĲĪ
Ġdw
æģĴå®ļ
only
ä¸Ķä»ħ
åħīçĶµ
ĠThen
Ġinvariance
NK
çĻ¾ç§ĳ
ĠåĲĮçļĦ
_!
clidean
Ġsyn
EV
ĠMM
.),
standard
Ġsteri
Landau
Ġabundance
å¤±è´¥
iting
è¿Ľè¡Įè°ĥæŁ¥
å¹´åıĪ
ç¬¬äºĮæ¬¡ä¸ĸçķĮå¤§æĪĺæľŁéĹ´
Ġdirections
åĴĮæĹł
kin
zero
erre
Ġbreaks
Ġneutrino
nH
¹ĸ
CDM
Ġinterferometric
}^
æĻ®éĩĮ
curv
overrightarrow
otimes
æĭĸ
Ġfunctors
ĠAc
Ġgreatly
åģıå¯¼æķ°
A
éļıæĹ¶éĹ´åıĺåĮĸ
å¼ıåŃĲ
Ġnarrow
å±Ģ
Ġni
å¾®åŀĭ
instein
ext
åıĤçħ§
ceding
Ġprotocol
;\;\;\;
è§Ĥä¼Ĺ
è´¢äº§
ĠPe
æĭį
Ġfourth
ĠçĶ¨æĿ¥
ĠæĪĳä»¬çłĶç©¶
ĠSci
ĠLISA
dn
Ġ32
H
Ġmathematics
)}\;
æĬĬ
Ġorbital
äººåı£çº¦
Ġfirst
AL
ances
inear
ç¾Ĭ
Ġconsist
éĤ£æł·
ĠSU
Ġrepresentative
Ġsof
jor
Ġonset
Ġquasiperiodic
scalar
Ġrequiring
çº¦æĿŁ
ç¬¬äºĮæ¬¡ä¸ĸçķĮå¤§æĪĺä¸Ń
raphy
NIR
çĽ¸æ¯Ķè¾ĥ
102
ç¼ħçĶ¸
ä¸¤æŀģåĪĨåĮĸ
Ġsolved
ç¾İåĽ½
,{
Ġunderstood
å²©çŁ³
Ġexterior
Ġnanotube
è±¡å¾ģ
ĠUn
ĠKaluzaKlein
\#
å¸¸æĢģ
Ġargument
èĢĥèĻĳåĪ°
bu
zes
ence
çļĦæ°Ķä½ĵ
ä»įçĦ¶
éĤ£ä¸ª
Ġfunc
Sky
æļĹ
ç»ĵåĲĪ
)=-\
Ġback
ĠæľĢ
Ġcu
Ġ)}
å¼ĢæĿ¥
Ġforth
ĠéĹ´
ä½įç§»
åĩºçİ°
æķ°ä½į
Ġstatistics
tory
Ġcloud
çº¦å¹´
åľŁ
Ġ}_{
æĭīä¸ģè¯Ń
33
ĠGo
iant
çĽ´çº¿
(\
æŃ£å¸¸
].
æİ¨åĩº
ĠBessel
tions
çº¿æ®µ
è´·
ç©Ĩ
èħ¹
åĪĨæµģ
tuning
Ki
ih
ĠåĬ¨æĢģ
loch
Ġgas
è¯ĹäººåĴĮ
èħ°
qx
æ£ĢéªĮ
ito
-}
æµģä½ĵ
éĽĢ
)})\)
å¯¹åºĶ
æĺ¯éĢļè¿ĩ
ily
åĲ¯åĬ¨
Ġtimedependent
åĪ©æĸ¯
åĿļåĽº
Ġpiecewise
Ġprior
bla
ä¸ĢçĽ´æĺ¯
655
Ġæ»¡è¶³
}\!\
supseteq
Ġobvious
åįķä½ĵ
ç»Īç«¯
å¤§çļĦ
åı¯èĥ½æľī
lies
Ġè¡¨éĿ¢
è¯Ĺ
åŃ©åŃĲ
çļĦæĪĺ
Ġexpanded
åŃĹæ®µ
çļĦæ²
çľ¼éķľ
éĤ»è¿ĳ
ä¹¦ç±į
çİ»èī²
rities
Ġconvergence
ĠSolar
Ġdemon
Ġexhibited
Ġcontamination
Ġ\(\{{\
ĠéŁ³
éĶģ
cations
Ġcandidates
Ġisotropic
Ġç½ĳ
å±Ģéĥ¨
&=-\
TiO
çļĦæŁ
ä¸Ńåħ·æľī
Ġsince
Ġ23
åŃ£èĬĤ
Ġagain
SF
çļĦè¡Įä¸º
Ġmakes
å°ıäºİ
çļĦä¾ĭåŃĲ
å¸ĥå°Ķ
ras
Ġcharged
Ġregardless
èĢ³
Ġflat
éĢĤå½ĵçļĦ
=[
ths
èŀº
å¼ıä¸Ń
ton
æ°¸ä¹ħ
çļĦç¼ĸ
æ¿Ĵ
|,\)
Ġprobed
ressing
æµĵåº¦
åı¯èĥ½
SG
æ»ļ
çļĦåĪĨ
resul
Ġmono
å°¼æĸ¯
å½ĵä½ľ
],[
modules
çļĦéĢļ
åħīè°±
Ġexisting
Ġate
èĩŃ
Ġresolutions
éĽĨæĪĲ
æĪĲç«ĭ
å¹´åĩºçīĪ
å±ħä½ıåľ¨
Ġ\|\
èģĶçĽŁ
ĠSupp
aligned
Ġdimension
ä¸įåĲĮäºİ
dynamics
åħĭå¹´
times
Ġcool
çļĦæ³¢
æļ´éľ²
Ġhy
çļĦæµĭéĩı
çĸĨ
Ġamorphous
Ġgenus
physical
ĠTC
åĳ½
Ġresponses
åħīè°±ä¸Ń
Ġbecome
mog
'^{-
åĻ¨çļĦ
`
ç»Ħä¸Ń
åį¡æĸ¯
ĠCME
igin
å½ķ
èĬ±åºı
åĩĿ
çļĦå¹³
å¹ķ
Ġau
Ġçł
ç£
Ġæİ¢æµĭ
Ġetc
Ġnes
Ġfamiliar
ä¸Ģèĩ´
åįıå®ļ
æĲºå¸¦
é»ĺ
find
ĠStein
ised
1
}):
æ¨¡åŀĭ
è´¹ç±³
_*^
Ġbranches
Ġthose
çļĦç¦
lations
è¯
åĲĮ
main
ä¸ŃåĽ½çļĦ
Ġtemperature
å¯¹äºİä»»æĦı
Ġæł¸å¿ĥ
Ġintro
Ġcontraction
æıĲä¾Ľ
ĠWithin
Pop
è®¡ç®Ĺç»ĵæŀľ
Ġarchival
life
Ġimage
çº¦çĳŁ
214
})]
ä¿Ħäº¥ä¿Ħ
äºĭä»¶
kd
]}=
æµªæ¼«
\}(
è¾ī
è¢«æįķ
Ġåºľ
199
bos
åĴĮè°Ĳ
Ġ!
Ġnear
)+
æĸ¹çļĦ
æĪĳä»¬å°Ĩ
åī
mped
Ġdensity
çĽ¸åºĶ
Ġnamely
thresh
ä»ĳ
ĠDigital
æ¢µ
..
Ġäºĭ
çļĦæİ¨å¯¼
index
ï¼Į\
åĵª
ç®Ĺæ³ķçļĦ
dyna
Ġefforts
ĠæĪĳä»¬è¯ģæĺİ
Ġä½ĵçļĦ
try
Ġhypo
dP
å·©åĽº
çļĦå½±åĵį
å·¥ä¼ļ
çģ«å±±
Ġsparsity
ultra
Ġmultiplicative
Ġtarge
æĿ¥è¿Ľè¡Į
ity
ä¼¼
cos
èģļåıĺ
Ġ&\\
é»Ħéĩĳ
èĢĮéĿŀ
[-\
Ġtext
Ġprob
Ġå¾Ĺåĩº
çłĸ
åį«
éĩĩåıĸ
Ġé¢ĳ
ç¼ĵåĨ²
é»ĳæ´ŀçļĦ
åĵĪ
jective
æ·±
De
Ġtheorem
ç¢ĳ
ĠKolmogorov
Ġquartic
æ¶¯
ĠPT
}/\
ĠéĢī
Ns
Ġblack
Ġquantitative
çİ¯å½¢
_{>
ä¸Ńç«ĭ
åĪĨåĪ«ä¸º
^{*}(\
è¥¿åħĥå¹´
å¥³çİĭ
ur
Ġequilibrium
Ġrevisit
ald
hel
åĲĮå¹´
åĨĽå®ĺ
çļĦèĥ½åĬĽ
+}
Ġplanetary
ĠQSO
Ġdoubly
''}{
Ġobservables
Ġsay
çļĦçĽ®çļĦæĺ¯
åŁ¹
galaxy
ĠæĦı
YZ
}),\)
221
å½ĵéĢīä¸º
åı¯éĢĨ
¦»
ade
UK
Ġvo
diabatic
ä¸»é¢ĺ
Ġä¾Ľ
Ġsuper
ç©º
Ġabsorbed
åŃĺåıĸ
texttt
åĴĮå¹´ä»£
åĵ²åŃ¦
çīĻåĪ©
Ġ\;\;\
Ġå¯Ĩåº¦
çļĦè¦ģæ±Ĥ
æİªæĸ½
åı²è¾¾æŀĹ
ç²Ĺ
Ġcarrying
é«ĵ
Ġdeeper
ĠDifferent
å¹¿åĳĬ
ç¼Ŀ
Ġdataset
ĠThey
Ġreduces
lfloor
Ġthreedimensional
ç¾İåĽ½çļĦ
èı²
Ġdiscover
çļĦæĥħåĨµä¸ĭ
èĥĮæĻ¯
å¾·
åĩ¤
ç²¾ç»Ĩ
åľ¨ä»ĸ
|^{
Ġnumbers
Ġsubmanifold
Ġ\,,\
å½Ĵå±ŀ
Ġadvanced
ĠRev
æĺ¯å¦Ĥä½ķ
å®ĺæĸ¹
,~\
ç»Ħç¾¤çļĦ
JX
éĤ»æİ¥
Ġ\|_{\
çĬ¶æĢģçļĦ
ä»¤ä¸º
ä¸ľ
Ġcorrections
çĽ´è§ĴåĿĲæłĩç³»
éĹ¹
çŁ¥éģĵ
è®°ä¸º
çī¹äºº
VV
åĲĳåīį
äººçī©
Ġbubb
Ġranging
Ġåĩºçİ°
çļĦæĵįä½ľ
Ġcho
Vir
inclu
Ġ\((
Ġprojected
)\,\
å¹³
åı¯çĶ¨äºİ
967
ju
}]_
yn
tel
ĠæĹł
Ġarise
åĲĦåľ°
å¡ĳ
_{-}\)
|+|\
Ġfami
)|,
ositions
æĿ¥è®¡ç®Ĺ
å®¹éĩı
æ±ĩåĲĪ
Ġdeg
Ġepoch
çķĮéĻĲ
})
Ġarbitrary
æĶ¾å¤§
Ġmodelling
Ġrelevant
Ġalk
Ġmodi
ä¸įåĪĹé¢ł
è°ĥæķ´
éĤĢ
charged
As
æ°®
Ġ}}{\
éĩĳèŀį
ry
ä½Ĩä»ĸ
éĩĩçĶ¨
çĲĨå·¥
Ġhomology
=}\
åĬ¨æľº
Ġæ»ĳ
æľĢæĹ©çļĦ
short
Ġdetecting
Ġessential
onses
atures
IS
éĢ®
å¹´åİŁåĲį
QL
è¥¿äºļ
åį¡
åĩ½
192
Ġaxio
æ¸©
ĠæĬķ
çĶ¨ä»¥
Ġæīĺ
æ¶¦
æľīäºĨ
ç¼Ģ
shift
çĪ±åĽłæĸ¯åĿ¦
246
æĮīçħ§
tity
ĠGreen
18
}{{
çļĦæĮ¯
Ġ17
å¿§
mental
zag
è¢«è§Ĩä¸º
MA
junction
ĠSobolev
Ġons
Ġsymbols
)\}_{
çŁ©
''(\
åĪĩçº¿
çĽ¸å®¹
RC
æķ´åĲĪ
raph
åĮĹäº¬
Ġsuited
Ġcas
Ġhow
Ġswit
ä»¬çļĦ
critical
éĤ¦èģĶ
-(
Ġdisorder
æī¹è¯Ħ
ans
å¥½çļĦ
èĥĮåĮħ
äº¦
Ġè®©
mate
Ġpowers
mize
ĠWIMP
å¤ļéĩį
Ġdocu
è¯´æ³ķ
ĠCo
Ġsudden
è¥¿åħĥåīįä¸ĸçºª
åĲ«
ĠDy
pk
^-=
Ġradio
ç»¼åĲĪ
è§£æĶ¾
uni
})^{\
ĠæĪĳä»¬å±ķç¤ºäºĨ
åĨįåº¦
ĠæķĻ
ç¦»åŃĲ
åĬłæĭ¿
Ġulti
ĠME
åŀĭ
çľŁç©º
è®¾æĸ½
Ġpulses
èĩ³å¹´
Ġtechni
ĠæĪĳä»¬çłĶç©¶äºĨ
ĠBorel
èķ
æ´
åķĨäºº
æ¯ķ
ane
infinite
Ġtion
Ġfully
£ģ
ä¿ĥ
lanet
Ġreaction
+\|
Ġ28
Ġsituations
Ġflow
|\;
956
ç»Łè®¡åĬĽåŃ¦
Ġcontinuity
Ġchar
å´ĩ
pected
NLO
éĩįè¦ģ
Ġviable
Ġcoinci
åĩıåİ»
Ab
comb
ä½Ĩæĺ¯
Ġå¹´ä»£
})&=\
ams
Ġspli
èĥº
åĭ¤
Ġcycles
olds
ĠæĪĸèĢħ
Ġoscillators
arpo
mizes
aran
Ġarm
)!}{(
æľªæĿ¥çļĦ
Ġinteract
å½¹
åı¯åıĺ
æľĪ
ç¼ĸè¾ĳ
åı¤åŁİ
Ġupdated
tiotemporal
general
Ġapproximated
ĠæĮĩæķ°
Ġdispersions
åĶ¯ä¸ĢçļĦ
ĠĠĊ
250
Ġæŀľ
MS
ä¼łæĦŁ
228
berg
abs
}}}.
å±ħä½ı
rone
è¿Ľè¡Įæ¯Ķè¾ĥ
çļĦç²Ĵ
éĻ¡
way
Ġenha
Ġdrag
Ġfal
ä¸Ńåıĳçİ°
Ġdiscus
}=-\
Ġma
ç»ĪæŃ¢
å®ļäºĨ
Ġdirection
Ġappear
Ġcontinuation
Ġresonator
ĠAl
leptonic
deca
hspace
QU
ious
å¸ĮæľĽ
Ġcandida
æį
äºº
åĢŁ
Ġtheoretical
Vmatrix
Ġautomatically
ĠQED
æŃ£å¼ıåĲįç§°
idx
^{+}\
ç»´åŁĥ
hoto
æ¿Ģ
tr
188
,&\
varprojlim
æĳ§
åħ¬ä¼Ĺ
å¹¶åľ¨
ãĢĤ
Ġspinorbit
ä¼ĲåĪ©äºļ
ĠæĦŁ
Ġstarting
ä¾µ
tru
ĠPre
æľ¬åľ°åĮĸ
ĠĠ
)'(
cta
çļĦåįĬ
ĠPoisson
Ġindependently
å»¶ä¼¸åĪ°
åľ¨ä¸Ń
ĠéĩĩçĶ¨
åŃŁ
Ġvol
çļĦå®ĩå®Ļ
èĥĥ
Ġæ¶Ī
ç§įæ¤į
Ġum
åħ¨åĽ½
åħĭæĭī
Ġembedding
Ġgeometric
åİŁä½ıæ°ĳ
ä¸Ĭåįĩ
é¥
Ġconsider
è¶ħéĩįåĬĽ
åĪĻä¸º
èĴĤ
Ġplaced
Sigma
ales
è¿Ļä¸¤ä¸ª
800
åĲ«éĩı
åħ±çĶŁ
Ġè¡Įä¸º
cession
èı²å¾ĭå®¾
åĩĿèģļ
è§ĤçĤ¹
)~.\)
ç³»æķ°
æĪĳä»¬çī¹åĪ«
äº§ä¸ļ
ight
åºĵä»ĳ
tio
}...
æĢĿ
]^{\
åħ³èģĶ
Sm
Ġdominant
pur
Ġä»£çłģ
^+(\
æĹ©æľŁ
ate
çļĦç¢
è¡¨å±Ĥ
Ġincreases
å¾®éĩı
çİ°å®ŀçļĦ
åıĤèĢĥç³»ä¸Ń
forward
å®ļçļĦ
Ġapproach
rz
ole
åŃĲç¾¤
Ġere
lets
ĠAss
IX
nova
ä¼łæĴŃ
çļĦæľī
ĠExperimental
æĭ¥æľī
¯Ķ
åİŁåħĪ
é¦ĸéĥ½
Ġæ¸¸
dY
langle
Ġregimes
Ġreality
æ°´çļĦ
Ġuser
Ġattemp
åľ°åĿĢ
John
ħ§
Č
vice
Ġsolution
Ġç´ł
Ġvon
åŃ¦çļĦ
|)^{
ç»Ħç»ĩçļĦ
çĪ±å¾·åįİ
ç¢°æĴŀ
ĠPal
ä¸Ĭæĺ¯
æľ¬å¾ģåĢ¼
åĲĮæŀĦ
Sc
order
ä¸Ĭæ¼Ķ
solution
åĽ½å®¶åħ¬åĽŃ
ĠCos
åĬ©äºİ
Ġsatellites
å©ļå§»
çļĦç¤¾ä¼ļ
åĪĨåĪ«
Ġç»ĵæŀĦ
ä¹¡æĿĳ
åĬŁ
ĠçŁ¢éĩı
stream
Ġintegral
Ġperfect
Ġ})\
Ġsemiconductors
Ġbrown
ä¸Ģè¡Į
çī¹å¾ģæĺ¯
mbert
}\\&
Ġconstant
Ġdemonstrating
}>\
åºıæķ°
å¸¸å¸¸
):=(
}&=(
Ġcus
ħåĨµ
èİī
Ġcrucial
åŁºç¡Ģä¸Ĭ
è¹Ħ
Ġestimating
Ric
Ġconstructive
head
çĶ±æŃ¤
ell
heres
åĩłåĨħ
Ġselected
axis
|^{\
åİŁæĿ¥çļĦ
}}=-\
iw
Ġannihilation
Ġvertical
åĮ»å¸Ī
Ġ..
çļĦæĳ
çļĦç¼©
Ġnearinfrared
çİ¯çļĦ
child
53
Ġobserve
....
ä½Ĩå®ĥ
Ġsuff
Ġtrans
ä¾ĭåŃĲä¸Ń
ĠRi
çĮľæĥ³
Ġcul
ĠæīĢæľī
Ġsuperconductors
èĳ¡èĲĦ
ä¸Ńè¢«
åĮ¹
Ġ\(
æĸ¯æīĺ
çĽ¸ç»ĵåĲĪ
ĠBern
Ġweb
æł¹æľ¬
Ġwas
ĠBanach
))\,
Ġmotivated
åįıå¥ıæĽ²
ç¥ŀåºĻ
åı¦å¤ĸ
èĪĮ
}\;.
vio
)}{(\
grangian
çļĦç«ŀ
å¿Ĩ
çļĦæĹł
quent
é¢ĦæľŁçļĦ
éĢ¸
ä¸ŃæľĢ
ĠGra
çļĦæĺ¯
çĨ
éļĨ
lands
èĩª
è¾ħåĬ©
Ġevalu
åĦ¿
è®¼
ĠåĴĮ
çĬ¯
Ġcircumstellar
è°ĥæŁ¥äºĨ
çļĦç¨ĭ
Ġå·¥
Ġæ¬¡
Ġ.
è¶ħå¯¼
ory
çŃīæķĪ
çĿ£
Ġwalk
K
886
supp
æ¼Ķåĩº
)^
Ġcodes
Ġnecessary
çŁ®æĺŁ
wr
ana
Ġinvolved
ĠImaging
Ġfull
ĠOf
æıĴåĢ¼
çĽĴ
))=
missible
juga
49
ode
åĪĻè¯¥
downarrow
XM
Ġè¿ŀæİ¥
å¤©æĸĩåŃ¦
æľĭåıĭ
å¤įåĪ¶äºĨ
è¯Ńä¹ī
ĠEarth
Ġhours
Ļ
ĠæĽ¿
Ġger
çīĽæ´¥
è¯±
æĪĳä»¬ä»ĭç»į
å¼ķåıĳçļĦ
ä¸Ķ
çĶ°åľ°
ticles
Ġstress
ĠNLO
è¥¿åįĹéĥ¨
è¯»èĢħ
Ġä¹İ
Ġsides
\!\!\
ä½İæ¸©
parallel
Ġåıĺæį¢
ä¸Ģå¯¹
toff
425
å¥¶
Ġepsilon
ĠDC
\,.\)
å°¾éĥ¨
æĪĺäºī
Ġamount
}]}
éĵ¬
æľ¬æĸĩä¸Ń
Ġèĥ½éĩı
rian
cer
+\|\
Ġthus
ä¸Ģéĺ¶
Ġhundred
Ġè®¡
ä½ıå®ħ
åıĸå¾Ĺ
æŃ¤ç±»
æıŃ
Ġtransmit
å¼Ĥè´¨
é©¬æĭī
Ġutilizing
Ġsolv
Ġhat
Ġconfid
atter
ings
late
åıĹå°ģä¸º
ĠMott
Ġ..:
DT
Ġcarry
Ġsurvi
400
layer
ĠWhile
ened
Ġshort
Ġdetail
Ġray
åĪ°å¹´
Ġirradi
å¥ī
çŃīä»·äºİ
åĢĻ
æĶ¾
ĠåıĤæķ°
ĠHu
æŁ¥æī¾
å¸¸
èģĶç³»
ĠHen
ort
Ġç±»åŀĭ
Ġbases
çļĦå»ºçŃĳ
Ġspanning
åİ»ä¸ĸ
èİīèİİ
è¿ĳä¼¼
beam
Ġinside
å¯¼æ¼Ķ
è§£çŃĶ
ä¼łéĢĴ
çļĦä¸Ģç»Ħ
Ġsmall
Yau
æ¯ı
æ°ĶåĢĻ
çļĦåıĤæķ°
orous
ĠæĮ¯
æĸĳçĤ¹
Ġevolving
æĺ¯ä¸Ģç§į
çĽ¸åĲĮ
ĠæĪĳ
å¤«
æıĲä¾ĽäºĨä¸Ģç§į
Ġresidual
hal
ĠHopf
Ġjets
ĠTau
ĠMil
gni
ä¼ĳ
Ġgreat
,*
Þ
ooft
ä¸Ģåįĥ
hart
iX
éĽĨåĲĪçļĦ
åĲİæĿ¥æĪĲä¸º
æĢİ
Ġscale
Ġsquee
BS
)=(\
ET
}~.
dis
æĺ¯æĮĩ
Ġgold
çł´
inski
éĨ
Ġalignment
Ġ+\
ç¥ŀèģĮ
meric
è´´
Ġsmallest
ĠFried
ä½ľä¸ļ
variance
integra
ç¼Ķ
ro
itemize
cur
å¢ĥåĨħ
å·²
small
down
its
Ġisometry
}\,\,\
Ġdifficul
EL
son
}}}}
æĿ¥è°ĥæŁ¥
çļĦè¿ĲåĬ¨
fh
tition
Ġasympto
åĲİæľŁ
oul
åıĳå±ķäºĨ
Cl
çĨĬ
Ġrather
Ġplay
KS
é¥²åħ»
ĠTheta
neutr
ĠåĽºå®ļ
¢
Ġscal
Ġä¼¼
)}:
ě
çļĦè®¾è®¡
è§ĤæµĭåĪ°çļĦ
)[\
Ġç´¢
Ġspot
vil
108
}~,
bul
close
è¥¿åĮĹéĥ¨
Ġinteresting
Ġcapaci
parameter
\,{\
hf
èĤ©
Ĉ
Ġreconstructed
Ġå®ĥä»¬
çļĦæ¦Ĥæĭ¬
å¤ĦæŃ»
Ġextremely
çł´ç¢İ
Ġæİ§åĪ¶
å¥¹çļĦ
ier
åĩł
è½¬æį¢
èĦĳ
IF
ĠD
åħ¨éĥ¨
minis
ĠåĨµä¸ĭ
_{*}(
è¿Ľè¡ĮçłĶç©¶
|-
29
Ġphysical
Ġsha
ĠWil
è¿ĩæ¸¡
æµĭéĩıä»ª
èĩªåĲĮæŀĦ
qa
æĻ®éĢļçļĦ
éħįå¯¹
å®ģ
Ġ[(
Ġbounded
DE
Ġinstanton
æĺŁ
çŃīä»·
ĠåĬĽ
Ġbilli
ä½ĽæķĻ
},\)
äº¦è¯·åıĤéĺħ
æ²¿çĿĢ
ä½ľèĢħ
ĠMR
elfand
çļĦæīĢæľī
é©¼
Ġtraces
å»ºçŃĳå¸Ī
åĨħçļĦ
}{=}
è®¤ä¸ºæĺ¯
æľīäºĽ
ç¦ģæŃ¢
éħ
Ġshould
Ġedges
ä½Ĩåľ¨
Ġdecoupling
åī¯
ratic
Ġappearance
Ġè°ĥæŁ¥
ä¸Ļ
Ġlea
Ġvaries
Ġlight
çīĽ
Ġsph
æŃ£å¸¸åĮĸ
tarrow
Ġcoefficients
å¤į
inci
çĦ¶èĢĮ
pping
Ġenhance
å¼ķè¿Ľ
çĭ©çĮİ
çī²çķľ
Ġexponents
Ġmolecular
Ġå²Ľ
Ġsignificantly
iT
Ġgraphs
èİİå£«
567
åı¯è¡Į
Ġæľīåħ³
Ġado
line
Rb
Ġmasers
Ġheat
è¯¢
have
_+,
allel
åľŁåľ°
å¤ķ
å¸Ĳ
PQ
Ġcomprehensive
éĴ¾
åħ´å»º
Ġhuman
Ġversus
Ġexperiment
ãĢĤãĢĤãĢĤãĢĤ
eg
Ġfilters
éĩįéĩı
åŁİéķĩ
Ġhyper
amming
è¾ĳ
ĠçŃīå¼ı
Ġoutburst
Ġpenal
sh
sov
æĹ§ç§°
ĠMonteCarlo
åı¯è¿½æº¯
ĠéĤ£ä¹Ī
åľĨçİ¯
åĪĽå»º
æķĻæ´¾
æĻ®ç«ĭåħ¹
Ġmechanisms
çļĦåĽ½å®¶
Ġä¹Ł
Ġæŀģ
isible
displaystyle
Ġexecu
å¯Ĩå°Ķé¡¿
Ġfrustra
åħ¨ä½ĵ
Ġcre
å¦Ĥ
Ģ
Ġplanets
łĶç©¶
Ġchanges
Th
Ġåıĺ
partition
Or
stead
éĩįçĤ¹æĺ¯
Ġç»Ļ
Ġverification
éĵŃ
Ġsecre
equivalent
Ġdecrease
Markovian
seteq
æĲľç´¢
åħ¼
ä»·åĢ¼
Ġintr
ĠNH
è´¨éĩıçļĦ
ç«ĭåį³
èĢĮéĹ»åĲį
é½Ĳ
æ³¢å¸Į
æĦıåĳ³
Ġbeha
åĢ¾åĲĳ
Ġmaximize
çªģ
ç©Ĩç½ķé»ĺå¾·
operator
ĠOnly
çĶµçº¿
æĮĩæķ°çļĦ
'))
è®¿
åľ°ä¸ĭ
Ġdespite
metry
ç¡®çķĮ
åįł
ä¸Ģä¸ĸ
çĲĨè®ºçļĦ
Ġinstances
ĠçŃī
å¸Įå°Ķ
LT
Ġstiff
å°ļæľª
ohm
ĠVery
Ġoxide
so
è®¨è®º
Ġdetailed
è¥¿çıŃ
å®ĮæĪĲçļĦ
Ġä¹ĭä¸Ģ
çļĦä¸ŃéĹ´
åĴĮéĿŀ
,
Ġdiffers
Ġkappa
åĢ¡
Ġarchitecture
åĢ¼çļĦ
og
é£ŀ
Ġzer
Max
Ġlong
Ġprescription
æĥħæĬ¥
å®Įæķ´çļĦ
Ġparticle
Ġmonit
è¥¿åħĥä¸ĸçºª
Dp
æŁ¥çĲĨ
åĪ°äºĨ
_-}
Ġ)^{
åķĨæķ°
aba
quare
ĠçĽ¸æ¯Ķ
é¢ĳéģĵ
Ġè£Ĥ
çŁ¢
puts
çļĦè§Ĵ
/(\
vo
Ġorientation
æŃ£æķ´æķ°
èĭ¹
Ġtypically
çļĦéļıæľº
dation
ĠTe
çļĦæĥħå½¢
^{(
Ġclo
Ġgeneration
DG
åıĮåĢį
çļĦçŀ¬æĹ¶
ĠåıĬåħ¶
eeman
Ġdense
Ġmagnetization
ä»ª
mances
ĠSZ
Ġmirror
åł
Ġ10
))]
åľ¨æľ¬æĸĩä»¶ä¸Ń
åľ°çļĦ
é»ĺè®¤
åĶ
mical
irk
Ġreli
zf
Ġanomaly
Ġari
Ġbulk
Ġlat
æ¬§
åĪĨåŃĲäºĳ
uf
111
åħĥç´ł
ĠMAGIC
Ġinvestigated
Ġ^{(
load
ä¹ĭä½ľ
are
çĬ¶æĢģåĴĮ
}-(
yste
ç»ĵçĽŁ
Ġoptically
åŃķ
theoretic
iM
Ġprobe
å¹¶ä¸į
Ġæĸĩä»¶
bolev
Ġè´¨
æ¶µçĽĸ
ç¬¬ä¸Ģ
ä»¥å¤ª
Ġsurrounding
ynchron
Ġunity
è§£éĩĬäºĨ
åıĳè¡¨
Ġtail
ĠTaking
ual
çŃ¾ç½²
ä¸įèĥ½
127
æıĲä¾ĽçļĦ
çļĦè¯ģæį®
Ġantifer
edinger
ĠçŁŃ
æŃ¦
:=\,
ounds
åĵĪå¸Į
Ġroots
QT
æľĢè¿ĳ
Ġdeli
Ġnucleons
äº§çĶŁäºĨ
Ste
ima
éĩĩæł·
+|
åĽ¾ä¹¦é¦Ĩ
mann
åĬłçĥŃ
ots
ç»ĵæŀĦ
å®ı
ĠéĿ¢çļĦ
é¡¹å¼ı
éĩįè¦ģä½ľçĶ¨
éģ¿åħį
Ġäºļ
roughout
Ġaveraged
æµģä½ĵåĬ¨åĬĽåŃ¦
çĶ
galaxies
åı¯åľ¨
å·ŀçļĦ
Wo
çļĦå¼Ģ
Ġdepth
ĠMet
è¶£
åį°ç¬¬å®ī
ato
Ġpos
Ġtorsion
éļĶå¼Ģ
ç¼
absor
Ġfill
å¸Ĥ
å§ĭäºİ
å¹¶åħ¥
Ġ&(
']
varie
åıĤè°ĭ
ĠåĬĽåŃ¦
laton
æıĲåĢ¡
Nf
ois
ogon
çĶļ
Ġçļ®
Ġelu
ç½Ĺé©¬
æĹ¦
ikx
Ġnu
=-\
çĶµæ±ł
~~~~~~~~~~~~~~~~
AK
è¯ŃåĴĮ
sider
æĹº
Sub
çļĦè¯Ńè¨Ģ
ä¸įç¡®å®ļæĢ§
Ġbecause
èĬŃèķ¾èĪŀ
åīįå¹´
ç¼łç»ķ
jq
æµģå½¢
Ġmeasures
Ġelect
din
è®¡ç®ĹäºĨ
Ġradi
åı¦ä¸Ģ
Ġinflaton
éĻĲå®ļ
a
Ġrigidity
è¿ŀ
dF
Ġservice
Ġçł´
Ġcoexis
Ġantis
tism
Ġvan
ä»»åĳ½ä¸º
ly
Ġschemes
Ġconclusions
ä¸¤æĿ¡
^*}\
Ġsubsequently
ä»ħä»ħ
wind
Ġdu
tonoise
æİ§
Ġåıĳå±ķ
ç¼©
éĩįåĬĽ
Ġconnected
çļĦå¯¹è±¡
èį
æŀģåĢ¼
Ġ=\
ä¸¥è°¨
äºĨè¿ĻäºĽ
,+
26
opti
Ġæķ£å°Ħ
emp
ĠæłĩåĩĨ
äºīå¤º
åİŁçĤ¹
LB
ç¬¬ä¸Ģä¸ª
ĠHc
gg
which
ĠçĽ¸åºĶ
Ġrec
æłĩéĩı
fil
æŁĲä¸ª
ä¼ĬåĪ©
çļĦçªģ
arest
Ġ(
å§Ĩæĸ¯
æĺŁçļĦ
Ý
Ġkine
\}=\{
sec
åª
80
æľ¬æĸĩä»¶
åĪĨè¾¨çİĩ
èµĭäºĪ
èĤª
ä¸»æķĻ
å±±èĦī
äºļæ´²
æŃ£äº¤
Ġarithmetic
]&=
Ġreflected
bid
ellip
è°ģ
è¥¿çıŃçīĻäºº
è§Ĥå¯ŁèĢħ
compass
Ġheli
èĦ±ç¦»
Ġrank
Ġincident
coherent
Ġreasons
æ³¢åĬ¨
likely
å·¨å¤§çļĦ
}_{(
duals
matic
æĹłç©·å°ı
å®¡è§Ĩ
Ġå¼Ģå§ĭ
Ġseesaw
Ġcriteria
ä¸´
äºĨä¸İ
Ġçī¹
tening
çļĦæĥ³
äº«æľī
Ġrate
Ġfit
YX
Ġda
Ġä¹ĭåĲİ
è¿Ļæĺ¯
æĢ
éĻ¶å®Ľ
Ġè¯ģ
gho
ä¼¸å±ķ
Ġvacu
Ġrepro
åį³åı¯
èĦĬæ¤İ
Ġpolicy
èµ¶
æīĵ
åįĵ
åıįå¯¹
Ġkinetics
ĠCERN
}+\
Ġdeposi
Ġelastic
_{(\
è¢ĸ
lator
è®½åĪº
Ġsources
åħĪé©±
æº¢
å±ı
ä»ĸä¹Ł
ressible
äºĮ
asu
çļĦé¢ĳçİĩ
çļĦè§£åĨ³æĸ¹æ¡Ī
æ§½
Ġbasis
Ġtree
ĠæľĢå¤§
åįİ
ä»Ĭ
ush
åħ¶
Ġtang
èĢĥåı¤
å¾®å¼±çļĦ
ä¹ħ
Ka
åıĳçĶµæľº
çļĦæķ°åŃ¦
Ġvola
ä¸ļ
.\\
åĪĩéĻ¤
ä¹Ī
pter
Ġprimarily
metic
é©¾
æ³ķåħ°
os
ĠBoh
çĦ¶åĲİ
è¿Ļéĥ¨
çļĦç¿
ĠTheoretical
ĠTr
Fer
Ġneed
Ġcourse
å¨ĥ
ĠAbelian
\&\
å¥½
é»ı
ĠMore
åŃ¦ä¸Ń
çģ«ç®Ń
aring
corpo
Ġyielding
Ġattraction
Ġyoung
ake
}|^
Ġcountable
å°ıçļĦ
Ġdifferenti
ĠçŁ³
±ä¹Ĳ
æ±
low
Ġintergalactic
æĸ¯ç§ĳ
ä¹Ł
éĴī
Ġæĥħ
]}{\
Ġordinary
Ġæ¯į
çļĦæİ
åĬ©
Ġ\(<\
åĴĮæĶ¿æ²»
Ġ\,(
Ġslo
Ġpurely
Par
222
Ġmasses
Ġæ¯Ķ
yg
}\}_{
å¼ĢåıĳäºĨ
ĠçĶµèį·
çĨĶ
_\
è¿«å®³
æł¡
tope
ä¸įåĲĮçļĦ
coming
ä¹Łæĺ¯
Ġarbitrarily
Ġmes
åĪĨæŀĲä¸Ń
Ġpole
æĵİ
ď
Ġdiameter
Ġexplicitly
ĠLinear
materi
äº¤æį¢
Ġåħ¶
éĢĶ
åĶĲ
è¿ľçļĦ
ach
))_
B
æ¦ĤçİĩåĪĨå¸ĥ
Ġlowtemperature
,~~
Ġentirely
æ¶µ
åħ·ä½ĵ
tle
rie
Ġnonvanishing
ĠFisher
ĠCan
æĸ¹éĿ¢
æĿ¥çłĶç©¶
temperature
)}|
Mf
æľĢå°ı
Ġinequ
&=(
Ġ=(\
fic
åĿĩ
æĬ¢
_*\
æĿĳ
ç¢°æĴŀä¸Ń
cover
è®ºè¿°
æĬ½æł·
AP
çĴĥ
anal
åİĦç±³
Ġ\:
ation
HH
ĠLA
ĠâĢĿ,
Ġini
Ġingredients
Ġmultiple
Ġpredominantly
ä½ĵçİ°
qt
è°·çī©
ä¼łå¯¼
AM
ĠJa
çŁ³
åĩ¯
æļ´
inted
non
MZ
çŁŃæľŁ
+\!
ĠMc
æŃ£åľ¨
çĽ¸åºĶçļĦ
è¡¨æł¼
bl
éģĩ
Ġinhomogeneity
Ġposi
çī¹æ®ĬçļĦ
^*.\)
Ġinverse
Ġvalue
}=\|
mediated
Ġslight
mino
Ġè§Ĩ
èĪŀè¹Ī
}\}.\)
Ġ;
lied
åĶ¯ä¸Ģ
Ġenrichment
Ġä¿¡æģ¯
è¢«è¿«
Ġmar
ĠWigner
kC
é¢Ĩå¯¼ä¸ĭ
Ġoscillator
fty
Ġmajority
åıĺå¾Ĺ
åĲ§
æĸ¹åĲĳ
iggs
nov
umer
))\\
åįĩé«ĺ
ç²
åĩ½æķ°çļĦ
åıĸèĩª
å¤§åĪ©
303
ile
ctron
Ġaccompanied
^{*}\)
å¼ĢåıĳçļĦ
Ġpopu
Ġfinal
çº¦åħ¬éĩĮ
ĠèĩªçĶ±
ċ
Ġfa
terms
ln
ĠNC
èİ·èĥľ
å¡«åħħ
åĴĮä¸İ
Ġåħģè®¸
æ¤Ń
Ġfluores
ĠMost
though
sepa
ĠYukawa
åĮºåŁŁçļĦ
ĠConsidering
=-{
)}(-
åİŁæĿ¥
Ġéĩįæĸ°
Ġexp
ĠGeneral
ction
è¶³çĲĥ
éº»
Ġspace
mated
ap
ç±»ä¼¼åľ°
Ġit
variant
ĠæģĴ
JL
å§¿
Ġnoncommutative
Ġç£ģåľº
Ġpreparation
Ġtau
çļĦæ±
Ġsecond
è½®çıŃ
Ġnonclassical
è·ĥè¿ģ
}}^{
Ġreturn
SN
Ġ(.
cite
é¼»
ç¬
åŃ¦åĲį
Ġseparation
ä¸Ģæł·
gram
Ġè§Ħæ¨¡
OS
æĭ¼æİ¥
Ġåį³
Ġsubgroup
å½¼å¾Ĺ
Ġt
çĶ²çĬ¶
èĲ¨å°Ķ
å¾Īå¤§
çİĽä¸½
BI
é«ĺçŃī
çĲĨæĥ³æ°Ķä½ĵ
ĠLag
osite
åıĺæķ°
Ġproof
ai
Einstein
]\\&=
PL
],
-\!
åįķä¸ª
åįĹ
æī
Ġ$\
æ²īç§¯
çī¹å°Ķ
!\!\
èĬĤçĤ¹çļĦ
éĻ¤ä»¥
}=\{
Ġreason
numerical
lization
romagnetic
Ġå¸¦
Ġlongitu
ine
Ġå¯Ł
iz
Ġtraveling
ĠOs
å£°éŁ³
Ġtrack
Ġlook
å®Įå¤ĩ
}\,.\)
å¼ºè°ĥ
ĠGaAs
lbrack
è¿Ļä¸İ
Ġä¼ļ
ltaneous
\}=\
Ġstarburst
nce
Ġvibrational
å¹´çĶ±
è¸
è´µæĹı
è´ª
å·´å¾·
æĮĳæĪĺ
50
Ġprincipal
Ġrelative
Ġabsolute
åħĭæĸ¯
sic
max
åıªéľĢ
coll
Ġferromagnetic
ĠVarious
ac
+{
ational
åįĹéĿŀ
ç§°æĺ¯
æĢģçļĦ
æ²³åı£
åľ°ç£ģ
Ġorigin
ĠUniversity
388
ĠMa
éĢīå®ļ
ints
ĠIC
éħ¿
Ġdc
Ġthermodyna
åŁºçĿ£æķĻ
æĪĲå¹´
}}-\
Ġmake
ĠWilliam
Ġq
åĢ¾åĲĳäºİ
Ġpay
è·¯å¾·
å¯ĵ
but
Ġaccretion
Ġè§ģ
æĺ¯ä¸Ģèĩ´çļĦ
si
ĠåĮħæĭ¬
Ġgh
è´¨
Ġï¼Ľ
Ġthem
´
Ġbundles
Ġhence
Ġmedian
Ġåº¦çļĦ
åĪ©å¥¥
ç©ºéĹ´æĹ¶éĹ´
_+=
Ġenhanced
)~
Ġphonon
Ġconfinement
Ġbis
ä»ĸæĺ¯
most
)\\&+\
tie
ä¼Ĺ
æķ£æķ£
è¿Ľè¡ĮäºĨè°ĥæŁ¥
ĠLo
å½¢çĽ®
æĿŁç¼ļ
ĠHy
oun
AB
rans
çİĩåĴĮ
normal
Se
ä¸Ģè¯į
Ġsc
467
å£°æ³¢
Ġout
Ġrequired
è½¯ä»¶
è¿ĽèĢĮ
Ġglo
}},
Man
åĵ²åŃ¦å®¶
çļĦçĥŃ
Ġinternal
æ¬§åĩłéĩĮå¾Ĺ
76
è´¸æĺĵä¸Ńå¿ĥ
ç®Ģä»ĭ
sup
è½¯ä½ĵ
å¹¶ä¸İ
user
èĥģ
Ġmotions
86
333
Ġfilled
åĮĹæĸ¹
åĵĪå¸ĥæĸ¯
ĠTheory
ä»ĭç»įäºĨ
Ġimportance
,\,\,\,\,
]=[
Ġpaper
é¢Ħç®Ĺ
å¦ĤæŀľæĪĳä»¬
time
Ġbaseline
ĠSpeci
Ġtask
Ġå¹³
e
åİĭç¼©
å°½éĩı
ĠMBH
å¸¸è§ģçļĦ
åĩ¹
ä¹ĭéĹ´
|\,
'}
å®ŀçİ°äºĨ
åıįåĲĳ
Ġdisplay
æīĺç®¡
Ġrecovery
arance
Ġinterface
PT
æ¶ĪåĮĸ
)\}
}{{\
é³į
pun
nor
redshift
çļĦç³»æķ°
ä¸Ĭå¼ı
Ġemployed
\|=\|
åĨĮ
å¤¹
ĠSky
monium
çĨµ
åľĨæŁ±
ä¸īæ¬¡
Ġremain
LEX
local
}^{-\
Ġput
Ġconceptual
Pen
å¹´è¯¥
çļĦåºĶçĶ¨
æĹ¶
åĲİæĿ¥
Ġè½¬
Ġè¶ħ
Ġbelong
ĠMI
ç¤¼
ĠåŃĹ
Ġfo
ty
Ġsupergravity
ico
dV
od
ñ
æ¡£
è¾£
é»ĳèī²
ä¸ºä¸Ģä¸ª
å¸Įçī¹åĭĴ
QW
è´Ł
Ġsingleparticle
çĦ¦çĤ¹
arth
topy
åľ¨è¿Ļä¸Ģ
ä¸°å¯ĮçļĦ
|\
]}(
ä½Ĩ
äºĽ
æĽ´é«ĺçļĦ
addle
rect
Ġclosely
Ġlogarith
Ġmedia
äºĶä¸ª
è¯Ńä½ľ
çī¹çĤ¹
ä½³
æľ¬æĸĩ
Ġå¸¦æľī
lus
èĢĮæĺ¯
VLT
Ġadap
ç½©
Ĭ
Ġç§°
ms
ä»¥ä¸º
ually
Do
eller
è´¢
Ġ)^
ISA
Ġä»£
éĢļå¸¸åľ¨
ĿĢ
çļĦè¯Ŀ
éģĵçļĦ
electro
è¦Ĩ
ĠHCO
Ġsimpler
nia
çļĦæĶ¿
å¾Īå°ı
Đ
èĭ±æĸĩ
ign
å®ĥ
Ġgau
è¯ģæį®è¡¨æĺİ
ç°§
Ġinfty
è¯´æĺ¯
çĲĨè§£
ridged
PE
Ġerr
Ġcounterparts
ä¸ĢæĿ¡
tes
Ġzeros
tenu
Ġdot
Ġsupernovae
Al
])=\
uri
ĠDA
Ì
æľªæĿ¥
ç»Łä¸Ģ
Ġdwarfs
éĥ½è¦ģ
leqslant
utr
Ġapplies
å±ĳ
å£°
coupling
lap
:=\{
éĢĤåºĶ
Ġinduced
ĠClo
Ġcup
æįķèİ·
á
Ĭ¶
ç»´å¤ļåĪ©äºļ
hibit
Ġmultic
Ġcreation
Ġè¿Ļç§į
Ġexpect
æ»
Ġstateofthe
åĸĦ
going
ç»Ĵ
from
çĶŁçĲĨåŃ¦
tated
ĠæĪĳä»¬è°ĥæŁ¥
çĽ¸åħ³
Left
èĨı
äºĨä¸Ģç§į
Ġwrite
Ġsi
zed
ä¸¤æŀģ
æĪĳä»¬èĢĥèĻĳ
Lp
ç¹ģèį£
semb
ç¦
è§Ĩè§ī
topes
Ġdeviations
çļĦæ¬§æ´²
may
17
çī¹æ®Ĭ
Her
Ġcomputation
èģĶåĲĪåĽ½
~~
å±¿
Ġsymbol
Ġantic
fiers
ĠRadio
ĠFriedmann
è¡¨ç¤ºçļĦ
FE
åĢĻéĢīäºº
éª¨éª¼
ä»İæľª
Ġindic
å°Ķçī¹
}{\|
-(\
Ed
ç±»
åĴĮåıį
åľ°è¡¨
Ġtension
Ġæ¦Ĥ
ä¸ĭæĿ¥çļĦ
Ġretur
)~~
Ġtetragonal
æķĪ
coprod
çĭ¬çī¹
ä»İå¹´èµ·
ĠæĽ´
LBA
ĭ¬
Ġrevealing
NIX
èµ·æºĲäºİ
ality
Ġbarriers
HO
boundary
é¹
è´¢åĬ¡
æ·ĭå·´
ubov
dable
é©³
è¿ĶåĽŀ
Ġlifetime
ĠMn
Ġsemantics
è·¯
ping
_{+}^{
Ġçİ°
}-\
è®¤
AdS
ä¼łç»Łä¸Ĭ
VM
Ġexci
çī©
cent
åªĴä½ĵ
city
qubit
å·®è·Ŀ
ĠHartreeFock
ĠInteresting
wise
åįĬå²Ľ
ä½¿æĪĳä»¬èĥ½å¤Ł
Rs
åıĳçĶŁåľ¨
Ġ\
æĪĳä»¬è¯ģ
åĽ¾åĴĮ
Ġstream
çļĦä¸Ń
taneous
çļĦä¸Ģ
nic
av
Ġparametrized
pipi
jn
Su
ä½İ
åĽ¾çīĩ
ç¿»è½¬
åĽ¢ä½ĵ
è¿Ļç§įæĸ¹æ³ķ
Ġæ¨¡åŀĭ
zaku
Ġresul
sha
{}^
å¾·åĽ½çļĦ
çŃĽ
ĠTauri
åĲĳä¸ĭ
ä»ĵ
æľŁ
sides
Ġsolid
äºīè¾©
>=
Ġcur
Ġemergence
\}\)
ĠFinally
Ġstars
155
ises
tential
ç´§
æ³ķåĴĮ
åºĵ
wavelength
Ġstages
Ġpercolation
allax
tating
Ġnonline
è¯ģå®ŀ
li
éĢĨè½¬
Ġgeneric
Ġphotoionization
çļĦç¼º
Ġobserved
Ġpp
=-(
ĠFeAs
Ġspectral
Ġdiffere
åĬŀ
çļĦæ°´
vanishing
Ġclouds
Ġseve
allis
æľĢç®ĢåįķçļĦ
éĽ¨
Wigner
Ġcomposed
ĠAlso
ted
èĻĳ
å¥ıæĽ²
æŃ£æ¯Ķ
Ġç²Ĵ
ĠåĳĬ
Ġwhile
69
und
ä½Ľç½Ĺ
åįĹæĸ¯æĭīå¤«
çļĦèµ·æºĲ
ç§ĳ
è¯¥åŁİ
ĠBe
çĲĥåĿĲæłĩ
çļĦç¬¬
'=\
Is
Ġaccounting
æĹłç©·è¿ľ
ĠåĪ«æĺ¯
Ġcontinu
éĴ¢éĵģ
è¯»
è¶ħå¯¼æĢ§
roscopic
çļĦæĻ®
))=\
åīįå¾Ģ
å¾Īå°ĳ
Sb
cup
110
çīĪ
Ġsquare
Ġrefined
çļĦå¯¹
ĠFol
bon
åģ
åĻ¨ä¸Ń
åĽ½åĨħ
åĨĪ
Ġmm
ĠLand
Ġ48
dop
Ġè¿°
èµĲ
Ġspreads
æĬķå°Ħ
åħ¬è·¯
ä¿®éģĵ
GRBs
Ġdimer
åľºè®º
æ²³çķĶ
åį³ä½¿åľ¨
ĠOB
net
æ¯ķä¸ļäºİ
åŀĴ
Ġtechnology
è¡¨ç¤ºä¸º
xb
iu
)|_{\
Ġprotocols
rotating
AY
xt
çŁŃæļĤ
æĳ©æĵ¦
Ġequivalently
è¥¿åħ°
ĠAB
è¿°
43
å¤§å¹ħ
Ġele
æº¶
éĻįä½İ
Ġgenerator
éĤ£ä¹ĪæĪĳä»¬
é¢Ĩè¢ĸ
æī¿
èĮĥæķ°
tile
bi
åıĪ
åį·åħ¥
çĶµæºĲ
ores
éĴ®
polynomial
éĢīé¡¹
di
ĠXray
bas
åı¯ä»¥æĺ¯
å¤ļå°ĳ
Ġrelation
versely
ä¸ŃæĸŃ
ä¹ĲéĺŁ
å¤ļå°Ķ
Ġsuggests
å¤§åŀĭ
Ġprinciples
Ġè¿Ļæł·
ran
Ġï¼Į
Ġcos
çļĦå¼ºåº¦
rVert
å¤ļ
\!
åĽĽç»´
Ġpoorly
cast
ough
laring
Ġåħ¬å¼ı
èĳ¡èĲĦçīĻ
ĠçĽ¸äºĴä½ľçĶ¨
je
Ġè¯·
éĶĻè¯¯
Xåħī
çļĦS
wking
'|
åį¡æĭī
Ġinvestiga
Ġimplemen
Com
çĪ±
gen
Bra
millimeter
Ġmethod
Walker
æĭīæł¼
432
test
})\;
ĠYM
Ġlittle
Ġclarify
Ġ[
éĻĲåĪ¶
supset
ymb
åīª
çļĦä¸įç¡®å®ļæĢ§
strates
Ġsite
åĴĮé©¬
Ġspecu
û
sions
ä¾§
ĠIt
æµģ
å¾ĹåĲį
çĶµç¦»
Ġgradi
çļĦæ¬§
Ġmainly
å¾Īé«ĺ
jl
IJ
fiable
è¾ĥ
ously
Ġmembers
mir
æĺ¯å¯¹
Ġwidths
str
æĹı
(,
æ©
})=\
æľĢçĿĢåĲį
restrial
ves
ç¿»è¯ĳ
834
Ġcircular
energe
å¦ĩå¥³
NG
å·´åĭĴæĸ¯åĿ¦
å¾·çļĦ
continu
problem
ĠIa
ĠFrom
},\
sz
æµģåĲĳ
æµģä½ĵåĬ¨åĬĽ
essel
å·´å¸ĥ
è¿ľå¾ģ
ropies
}=\
sively
ĠAt
{$
åĬł
drawn
ç»´åħĭ
Ġresolved
Ġçº§
wall
è±¹
å½¢è±¡
Ġtimescales
Ġnumerically
å¯¹è¿ĻäºĽ
æ¼Ĩ
Ġacross
Ġscenarios
äººä¸º
Ġscheduling
error
éŃģ
ils
NS
æ´»è·ĥ
åıĺçļĦ
Ġhomogen
Ġtransmitter
58
bigcup
Fin
åİŁåŀĭ
zable
çļĦæ¢
ĠåĮħåĲ«
å¯ĨåĪĩçĽ¸åħ³
èµĽ
min
çĶ¨äºİ
åĪĨä¸º
çĸ«
Ġproton
Ġadvantage
Ġsurfaces
640
}=-(
åĳ½ä»¤è¡Į
äºīè®º
Ġadding
bd
ĠG
æĸ¯åŁº
çļĦæ¸©
Ġpenetration
=\|
Ġintermediate
ä»¥æŃ¤
),\\&
Ġdecoding
Ġdist
æ¯
ä»¥æĿ¥
éĢŁåº¦ä¸º
cting
Ġferromagnetism
imple
own
Abridged
Ġç¬¦
Ġwavelength
Ġaccomp
Ġarcmin
celeration
Ġmanifes
åĴĮå¯¹
commu
}}:=\
Ü
åģıå¯¼
Ġ\,\,
æķ°æį®çļĦ
åħĥç»Ħ
æľºæŀĦ
æķĪåºĶçļĦ
Ġoscillatory
Del
åĵĪå¯Ĩé¡¿éĩı
:=\
quate
Simons
overline
çļĦèĩªçĶ±
Ġassociate
ĠOmega
Ġtidal
85
å²Ľå±¿
Ġpast
å°¾å·´
çļĦæīĭ
åįĹåĮĹ
å¿ħé¡»
Ġ\|(
rc
Ġspecies
çļĦç»Łè®¡
diagonal
s
Ġergodic
åı¯ä»¥å°Ĩ
å£ģçĶ»
åįģåħ«
Ġlargest
ç¥
éĢĢ
çĳŀåħ¸
èĪ°
Ġcoll
Ġflexi
åįİçĽĽé¡¿
tate
Ġintroduces
åĬ¨åĬ¨
sided
Ġ\({\
$}.
)~.
\!\!\!\
æĪĳä»¬ç¡®å®ļ
æĪĳä»¬åĪ©çĶ¨
å¿ħ
Ġblock
èĭĹ
Dis
Ġsums
~~~\
çº²
)}^{-
Ġproposed
Ġexhibiting
Ġæĺĵ
GB
å¢ŀéĩı
bration
ĠGeV
motion
Hubbard
Ġalgebraic
Ġpreliminary
Ġfollowed
Ġdelay
oustic
Ġunbiased
)\,
éķ¿å¤§
çĩķ
çĶŁæ´»åľ¨
èħ¾
GaAs
åĽ½å®¶åħĥé¦ĸ
Ġdots
åįıåĬ©
tages
ĠAdditionally
çº³
stood
æ»´
}|<
é¦ĸæ¬¡
PAH
Ġten
åıĽ
Ġmirr
å¤±
simal
æĦŁåºĶ
}}_{\
faff
Ġphoton
ä¿®éģĵéĻ¢
water
gn
Ġcomplexes
}}}\)
mul
ĠLagrange
æıĲè®®
alled
Ġnova
ither
versity
è¢«å¹¿æ³Ľ
å¹¶å°Ĩåħ¶
Ġphantom
elvin
bowtie
_*(\
cia
cking
|_{\
})\\&\
:\
enn
Ġactivation
auer
Ġä¸Ģç§į
æ±Ĥ
å®ĥä»¬æĺ¯
Ġtransiting
Ġavalan
97
ªģ
çº±
æľįä»İ
vera
Ġx
æłĳçļĦ
Ġque
ç»Ŀå¯¹
Ġiden
Ġaccelerated
æĸ¹ç¨ĭç»Ħ
''=
ç»Ī
val
triangleq
Ġbelie
çļĦçĶµç£ģ
å®ŀæĹ¶
ford
ĠClass
tein
isons
åĮĹéĿŀ
ating
Ġitine
ril
ore
ä¼¤å®³
æĸ¹ä½į
&
ç¾İå°¼äºļ
rvert
åĳĬ
').\)
Ġsurveys
æĺ¯å°Ĩ
èĢĮäº§çĶŁ
ark
èĪªå¤©
ĠStandard
åį±
ä¸¤æŀģåĮĸ
æĽ¼å°¼
Ġcapture
ynomi
Ġ(,
è®¡æķ°
Ġmodes
Ġrandomness
åıĸå¾ĹäºĨ
è¿ĻäºĽæ¨¡åŀĭ
æŃ£æķĻ
_*,
Ġall
æīįä¼ļ
adde
æĺ¯ä»ĸ
ĠåĪĨåŃĲ
çļĦæ¨¡æĭŁ
çĽ¸ä¼¼
ä½ľåĵģæľī
åŃ¦ä½į
neutral
åĪ©å®ī
Ġenu
ville
æĪĳä»¬åĪĨæŀĲäºĨ
ç®Ģæ´ģ
corre
ç¼ĵ
Ġdes
-|
æĸ°é¢ĸ
352
åħ¶å®ŀ
ĠGeVc
æĳ©æ´Ľ
Ġcub
ç¬Ķè®°
åĨ³å®ļäºĨ
åĿļ
è¿Ļ
rk
det
åĩĨç²ĴåŃĲ
äº¦ä½ľ
ç´«å¤ĸ
}&\
faces
æł¹
Ġdistant
major
sur
Ġprecur
å¾·åħ°
è®¡ç®Ĺä¸Ń
945
éĥ¨ä»¶
å¸¦æĿ¥
Ġçī¹åĪ«æĺ¯
Ġelectron
her
å®ŀéªĮçļĦ
mag
éĿ¢å¯¹
Ag
68
å¸®åĬ©
æĬ¼
Mpc
Ru
çļĦåľº
æº
æĪĳä»¬åĪĨæŀĲ
åĦĴ
ä¸ĸçºªæĻļæľŁ
æ¶
ĠWay
è½´ä¸Ĭ
)).
Ġconsidering
Ġsuccess
pres
Ġcases
ners
Ġapply
tH
Ġ\;\;\;
ĠåĮĹ
åľ¨è¿ĻéĩĮ
Ġresponse
Ġlattices
Ġhigher
æľ¬åľ°
)}{\
k
Ġä¹Ī
vent
ä»ĭè´¨
Ġapplying
åĲįä¸º
ĠGF
Ġcompac
Ġ}{\
Ġquintess
ymp
ï¼Į
éĢĨ
æıĲåĩºäºĨ
Ġstri
è£ģ
ç»ĵæŀľ
çļĦæĸ¹ç¨ĭ
oly
åıĳèĤ²
Ġorbit
Ġown
ĠBra
vv
Ġmatches
}_{{\
tional
è¥¿åĵ¥
ducible
Ġdecomposition
Ġç¦»åŃĲ
eli
å¯¨
Ġ=\,
ĠDE
çļĦæ¤
Ġsuccessful
ç¦»å¿ĥ
osyn
mer
å¾Ī
Ġperforming
Ġillustrate
åľ¨è¿Ļç§į
åħ¶ä¸Ńä¸º
Ġasymmetry
Ġmonopole
å®ĹæķĻ
Ġtunneling
çĤ¸
)}}
binom
ä¸į
çļĦçĹħ
dences
Ġgets
æł¸
vation
Ġpla
å¹´ä»ĸ
Ġability
305
å¯Ĩåº¦åĬŁèĥ½
821
Ġps
mitive
å¹»æĥ³
ä¸įå¤ª
æľºåĪ¶
Ġnonuni
Ġdiscu
sin
mpli
Ġcompressed
utrino
æµĭéĩı
204
Ġneeds
Ġconvenient
Ġsimultaneously
Ġent
Ġtool
enced
åĲĪ
loy
æĽ¾è¢«
Ġ((\
Ġdh
Ġsel
Fo
Ġ)^{\
Ġamounts
borate
ä¸Ńå¤®
çĭ
çĶµå®¹
Ġbehaves
Ġwelldefined
åĪĨè¾¨
ę
å®«
åĢ¡å¯¼
åľ¨è®¸å¤ļ
pless
Ġscaled
æĹłéĻĲçļĦ
åĩĢ
ĠåĪ°çļĦ
bru
Ġincorporating
Can
Ġcharacterizations
ç»´åº¦çļĦ
Ġextend
æİ¥è¿ĳ
Ġphon
ä¸ĸçºªæĹ¶
è´¸
æ³¨éĩĬ
ilibri
'/
è¯¯
Ġcardin
Ġtruncated
Ġ\((-\
sla
,~~\
Ġsqueezing
æľ
hen
Ġaway
antly
æģĭ
ĠäºĨä¸Ģä¸ª
çł´åĿı
Ġengine
çļĦæŁĲä¸ª
æ´²
çĹħæ¯Ĵ
zer
give
volution
çĶ¨éĢĶ
partial
QSO
boldmath
xC
æĪĳä»¬åı¯ä»¥
åįĩéĻį
Ġcopies
Ġfaster
äºĴ
ĠåĲĦç§į
ĠLi
Ġcall
Ġcontribu
æķ°ä¸ª
åıįå¯¹ç§°
respe
çļĦä¸»é¢ĺ
ä»·åĢ¼çļĦ
}},\)
æŀľå®ŀ
Bigg
Ġæİ¢æµĭåĻ¨
fra
Ġreductive
LG
Ġ}}{
)}+\
ie
dimension
TZ
tk
è¯ºå¤«
Ġformer
Ġestimators
versal
Ġwavefunction
sus
})&
name
çĽĬ
Tilde
ä¿®æŃ£
ntz
æıĲåıĸ
cp
åĴĮä¸Ģä¸ª
neutron
Ġexpectation
Ġprovides
comp
Ġcreate
varying
åº·
ä¸ºåŁºç¡Ģ
å°Ĩå®ĥ
Ġround
Ġaltern
Ġè±¡
Ġcounterpart
ä¸ĸçķĮåĲĦåľ°
trivial
Ġ|\
åį¡ç½Ĺ
ltimes
Ġè½»
Ġtrun
ĠMu
çĥĤ
Ġä¸¤ç§į
æ¨¡å¼ı
ä»¤
ĠGau
Hg
ä»ĸäºº
æĭĵ
yellow
æİ¥
å¡«
eyfert
haus
åĵĢ
rela
Ġglobular
å¹´å·¦åı³
åĽĽåħĥ
Ġusers
Ġsaid
é¤Ĳ
}\;,
Ġevolutionary
Ġmomenta
cepti
æī°åĬ¨æĢ§
itedimensional
paper
PG
ä½ľä¸ºä¸Ģä¸ª
Lifshitz
dle
åı¸ä»¤
\}+\
^*_
çļĦåı¯
]}\
Ġbot
msstrahlung
º¶
Ġä½įç½®
ç¤¾ä¼ļ
åĩºåĲį
784
æľīè¶£
Ġsur
&:=\
Ġpossible
lat
Ġchosen
El
Ġ\|_
Ġsignificant
)|.\)
Ġmagnitu
æŁıæĭī
çªĹåı£
ç¾¤
èº«
sure
mulated
conds
ĠçĿĢ
Ġè¯ģæį®
RS
ł
åŃĲç©ºéĹ´
éģĹä¼ł
nos
åĨĹ
èĥ½
åħīåº¦
ha
ĠåĽłæŃ¤
}',
Ġcoordinates
lived
è§Ĥ
å¤ļæķ°
xial
ä¸Ģéĥ¨åĪĨ
éĶ®
ä¼¦æĸ¯
dap
Jy
Ne
Ġrespon
ĠåŁºç¡Ģ
Ġæ´²
é¸
redic
ĠåĬ¨çļĦ
è¯ĬæĸŃ
omo
åıł
Whi
åĮ»çĶŁ
æĪĺæĸĹ
\}}|
ĠæĮ
åĪĽéĢł
Ġmonotonic
Ġpack
Ġtrees
ä¸Ńå¿ĥ
Ġtru
¹
æĮī
Ġevapo
å±ĭé¡¶
ĠRiemannian
af
ĠThus
Ġld
Ġdisc
å®³
ä¹Łå°±æĺ¯è¯´
æ²³
åİĭå¼º
åĪĩåĲĳéĩı
éĻ¤äºĨ
meds
structure
span
tinu
block
CD
mk
Ġfar
}+{
åºĻ
wedge
!}{\
Ġstorage
è¿Ľ
Ġinstruments
æĽ²
Uni
Ġfragments
æĬĴæĥħ
ĠClifford
ĠåĽ¾
å°¸
dG
Ġindicate
ä¸ĩäºº
ç¼ĸè¾ĳåĻ¨
ç»´æķ°
ç³»ç»Łåľ°
Ġåľ¨è¿ĻéĩĮ
brace
ç¥Ń
96
m
å½©
å®ŀçİ°
Ġdri
Ġrepresentation
æ£®åł¡
acute
çŁ³å¢¨
åĪ¶å®ļ
,\,\,\,
Ġattributed
(\,
åŃŁåĬłæĭī
isms
ĠèĥĮæĻ¯
olid
ferromagnetic
emission
hifted
åĪĽåĬŀ
æİ¥æĶ¶
isecond
dy
ä¸İåľ¨
åĴĮåħīè°±
æĹĹ
å®ĥæĺ¯ä¸Ģä¸ª
ĠY
cone
ear
Ġexciting
lon
è¿ĩç¨ĭä¸Ń
è¿Ĳ
Sn
ä¼¯çī¹
äºī
Ġideal
sty
Ġrt
Ġinversion
Ġsample
Ġinertial
Ġrighthanded
oplus
conne
elihood
Ġpolytopes
åĬ¿éĺ±
Ġfila
å¼ºè¿«
Ġpopular
Ġç³»æķ°
dens
!)^
Ġé¡¹
Ġcontinuous
ĠLangevin
Ġ;\)
éļĲèĹı
Ġmicron
å¼Ĥ
Ġplot
è¡¨è¾¾å¼ı
ç»Ŀç¼ĺ
ç«¥
å¸ĥéĽ·
vec
has
åĿĹ
Ġassuming
éŃĶ
Ġsensor
çļĦæ¶
çļĦæļĹ
åįķåħĥ
éĩĳå±ŀ
Har
çļĦå®ļä¹ī
47
æ°¦
=+\
å¥´
çĹĽ
reci
Ġ\([
å¸Ĩ
dx
thermal
åĨħæł¸
Ġdimensions
çļĦç¡®
magneto
Ġtransient
æºĲåĩº
åħ·ä½ĵåľ°è¯´
Ġhere
æŁĲç§į
dition
çļĦæ··ä¹±
éĤ»åŁŁ
)&=
ocity
åŃ¦åĲįä¸º
ä»¶
Ġvortices
çĤ¹çļĦ
çģµ
nK
ĠGromov
ĠPhoto
Ġconstru
ä¼ļäº§çĶŁ
rational
æ³ķå±ŀ
çļĦå®ŀéªĮ
ä»¥ä¸Ĭ
èİİ
spaces
è§Ħå®ļ
åĤħéĩĮ
åľ¨éĤ£éĩĮ
æŀģåĮĸ
åľ£
æĭīæĸ¯
lr
Ġ{}_
çĽ´èĩ³
å¤ıå¨ģ
é¢ĺ
åħŃä¸ª
trsim
ĠMoreover
Ġinspired
Ġmeasuring
^{-\
éĩįæĸ°
Ġov
]-[
æŃ»äºİ
æıĲä¾ĽäºĨ
)},
Ġthermally
Ġdrawn
å½ĵä¸Ń
ratio
çļĦå¤ĸ
Fi
}+(\
ä¸īç§į
enumerate
Ġreader
ç´§å¯Ĩ
ä»¤äºº
éĻ·éĺ±
å¥³ç¥ŀ
NR
Ġdivi
ĠLyapunov
Ġlayered
æĽ²çº¿çļĦ
Ġexpress
é²ģ
æīĭåĬ¨
Ġcancellation
ise
é¢Ĩåľ°
æ¸ĹéĢı
tter
Ġrotational
\\\
ĠåĢ¼
Ġ\},\)
IB
æķ°çĽ®
çº¿ä¸Ĭ
magn
ĠdS
Ġline
347
ĠçĶ±æŃ¤
åĲ»åĲĪ
åĪ
stabili
çŃ¹
aves
æµģéĩı
GL
)-{\
è¯¥åľ°
ometry
Ġsystematic
åŃ¦è¯´
_{[
Ġbipartite
ĠæĪĲçļĦ
radi
ĠPhys
çļĦæ°ĳæĹı
äºĳå±Ĥ
Ġexponent
}){\
free
uw
nas
é«ĺåľ°
çĲĨæĢ§
Ġarith
å½¢æĪĲä¸Ģä¸ª
åłĨç§¯
åİŁåĪĻ
Ġinsights
)\\&=
Ġå¤§çļĦ
çļĦåĪĨç±»
å»ī
åĩĨç¡®
Ġthese
è¾¹çķĮæĿ¡ä»¶
ä»£è¡¨äºĨ
bands
åĽ¾è±¡
ĠåºĶ
Ġj
çļĦæııè¿°
Ġorgan
similar
]^
çº¿çļĦ
<unk>
æĪĳä»¬å¼Ģåıĳ
choose
å¤©çº¿
å¨ľ
Ġhetero
Ġhadron
çķĮå®ļ
å°½ç®¡
è½¨
çĸ
çļĦçŃīçº§
çĲĲ
åĹ
Ġå·²
Ġcolloidal
Ġestima
ib
Ġcosmic
èĢ¶è·¯æĴĴ
æĳ
WR
Ġby
çļĦéĥ¨åĪĨ
joint
Ġdemonstrate
orts
èī²çļĦ
)}).
ĠAuger
ior
ctro
ç¬¬ä¸Ģç§į
ĠäºĴä½ľçĶ¨
orizons
combin
å¿½çķ¥
72
504
}}).\)
Ġinsulator
jacent
è¸ª
Ġrequirements
}}&
Ġoxi
Ġè½¨éģĵ
çļĦæķ°åĢ¼
ful
Ġmerging
illi
åĬłå·ŀ
Ġgravitino
emptyset
correct
}}]
åĶ¯
çļĦèĭ±åĽ½
ĠæĹ¶éĹ´
dfrac
ä¸ĸçºªä¸ŃæľŁ
åĪĩ
Ġinjected
Ġfreely
ĠUni
Ġastrophysics
åºĬ
Ġ\(+
models
yx
Ġur
ĠçļĦ
Ġoptimality
aluzaKlein
ED
ç¨İ
^{*}=
æĭīæł¼æľĹæĹ¥
èĩ³åħ³éĩįè¦ģ
tanh
Ġå»ºç«ĭ
ä¼Ļä¼´
Ġproposes
By
ze
èĢĮå¯¹äºİ
Ġdegenerate
Ġpresentation
åĩºçİ°çļĦ
Ġrefer
vdash
çĶ¨åľ¨
å½¢æĢģ
å¢Ł
ä¹Ĳ
ä¿¡ä»»
çļĦæĸ¹åĲĳ
Ġequation
æİĴæĶ¾
hk
CA
æ°Ķä½ĵçļĦ
Ġgives
åħĥç´łåĢ¼
åĲĦå·ŀ
åºĶçĶ¨ç¨ĭåºı
ĠTheore
åĪĩæį¢
Ġpeak
éĹ²
mbers
ğ
çģĮ
Ġbuild
tat
Ġchannel
Ġexc
å·´
éģ
æŁ´
HECR
ud
Ġcy
Ġunless
ĠçīĻ
Ġinde
<pad>
Ġinfin
ham
Ġspectra
action
Ġradiative
Ġmoving
ĠFeshbach
ose
æĶ¶
æĿĢå®³
Ġtomog
ĠåĬĽçļĦ
åĮºåĪĨ
serv
éľī
å®ŀè¡Į
Ġcomponents
Ex
\}.\)
syn
lear
Ġtransfer
UU
ĠCol
ister
Ġclaim
Ġcl
sections
^+=
åĴĮä¸¤ä¸ª
ĠYangMills
Fran
nical
WZ
)\|_{\
åĽłåħ¶
åºıåĪĹ
SM
Ġgamma
åıĳåĩº
æĺĤ
åĨ·
Ġmoment
ä¿ĺ
ç®¡çĲĨ
bol
åĸĢ
urn
Ġelectronelectron
Ġrealistic
Ġsufficient
Mi
Ġ}}\
ĠXM
éĿŀå¸¸çĽ¸ä¼¼
,(\
èµŀç¾İ
æ©Ħæ¦Ħ
èĬ³
Ġoutlined
Ġndimensional
è§ģçļĦ
Ġcurv
å¯¹ä¸Ģä¸ª
sts
Ġfle
å¤Ł
ä¸ĬçķĮ
}|
Ġbel
è¡¡
ome
Ġdistribution
Ġdual
éĩĮåħĭ
éĽķåĪ»
wan
Ġf
Ġestimated
}].
148
çļĦçĬ¶æĢģ
ĠèĻĳ
theses
èħĲ
è¿ĳè¿ĳ
tributions
Ġæĭ©
çļĦçŃ
AD
Ġåı¶
Ġrepresentations
ĠRaman
åĮĸåŃ¦åıįåºĶ
ç¾¤å²Ľ
Ġdeno
Ġè¿ĩç¨ĭ
Ġphotoemission
çļĦæ®ĸæ°ĳ
é£ŀè¡Į
Ġanalogues
Ġsti
nti
ç£ģåĮĸ
Ġemp
Ġexplaining
ĠåŃĺåľ¨
Ġstatis
å¤ĸå±Ĥ
æīĢä»¥
æľĢåĪĿçļĦ
è¿ĩç¨ĭçļĦ
~~~~
ä¸īè§Ĵå½¢
Ġwall
ĠéĤ£
Ġcondens
Ġthre
æĬĺåıł
Ġisot
Ġbasic
å®¢
particular
Ġresis
278
çīĪæľ¬çļĦ
Ġlower
æ±Ĥå¾Ĺ
Ġli
Ġderivative
Ġfacili
æĪĳä»¬è§Ĥå¯ŁåĪ°
Ġbipolar
Ġrange
èĶ¬
å¥¹æĺ¯
Ġastronomy
ondo
è§£æŀĲ
EE
çļĦæ²³æµģ
Ġdecon
proto
Ġstrain
tal
æľĢä½İ
å¯¹ä»»æĦı
çļĦç¤
ä¾ĿéĿł
Ġextreme
qquad
ĠMal
ĠåĨĽ
è°ĥè¯ķ
Yu
owski
é¢ĸ
æİ¨èįĲ
è£ħ
è®¡ç®Ĺæĸ¹æ³ķ
}=&\
èĦ
Ġhad
Ġprobability
çŃĶæ¡Ī
è¯Ħ
å¸ĮèħĬäºº
å·ŀ
Ġsegments
osing
Ö
æ°ĳéĹ´
æŁĲä¸Ģ
varnothing
ZZ
invariant
Ġss
ĠSFR
Ġperi
éĵ¶è¡Į
æ¨¡éĩı
ĠGen
'_
ilistic
textsc
Ġvaluable
è¶³
crystal
æĢĿè·¯
Ġmorph
515
Ġdependencies
å®¾å¤ķ
Ġnonsingular
æİ
icular
Ho
ĠåĪĨå¸ĥ
é»ĳ
}^{(-
æĭĶ
Ġvariational
èĵĿ
han
ĠéĢļéĩı
vi
ĠåĿĩ
Ġimprovements
ary
åİŁåĽłæĺ¯
Ġåľº
Ġspite
ĠA
Mills
Ġsteep
Ġrespe
ė
äº®
èģļåĲĪçī©
ç¨łå¯Ĩ
luminosity
Ġrecor
Ġperformance
Ġden
tilde
Ġdistinct
åħīçİ¯
quely
Ġ&=\
å§Ķåĳĺ
èĩªåĬ¨
mization
ĠBCS
146
bility
Ġdeterminations
éļĲåĲ«
generated
åħĭæ´Ľ
Ġquaterni
çļĦæĦı
Ġäºĳ
wa
beha
ä¸īè§Ĵæ´²
åĻ¨å®ĺ
Ġasymmetric
ĠInstead
æī¾åĪ°
ulti
å½©èī²
Ġhis
Ġdeple
236
æĶ¹è¿Ľ
Ġveri
Ġlarge
maximal
Ġattribute
box
Ġoriginal
Ġ\{\
Ġbeca
Ġtangent
Ġnona
èħĬ
æłª
fluid
Ġavo
ĠAuAu
Ġåºĵ
\{|
xh
éĴĪ
sting
Ġopens
Ġaimed
tual
301
åº¦éĩı
625
Ġredden
black
Land
Ġauth
scriptstyle
aff
Ġalterna
ä¸´åºĬ
¹ģ
Ġdistribu
cous
Ġcritical
ĠæĥħåĨµ
å®ļåĪĻ
levant
even
Ġopti
Ġstraight
ä¸ľéĥ¨
ĠçĪ±
æİ¨æµĭ
è¿ĲçĶ¨
ich
smallmatrix
æŃ£æĢģ
Ġiterative
Ġloo
åºĨ
diaba
|{\
trically
åįķç²ĴåŃĲ
Ġrapidity
æĢİä¹Ī
Ġcontinuum
oscopic
Ġç¤
Ġåįķä½į
Ġexperimentally
ims
Ġbiased
Ġnot
Ġchi
Ġbriefly
Ġselfenergy
è´£
TW
çļĦæ®ĭ
ä¸Ńç»§
åģıè½¬
Ġnd
Ġnexttoleading
èĢĮä¸į
å¾Ĺåĩº
ĠmeV
åİŁåĲį
åĳ¨æľŁ
Ġçģ
ĠNational
æł½åŁ¹
çļĦæĽ
å¹´
ç°
åĮĹéĥ¨çļĦ
ĠNA
çļĦä¸Ģä¸ª
CW
èĴ¸
Ġvi
Ġcodimension
çļĦçŁ¥
åĮºçļĦ
ĠMilky
])\)
750
å·¥ç¨ĭ
æľ¨
Ġcomparing
transition
è¥¿çıŃçīĻ
è®¡ç®Ĺæľº
ĠèĬ±
æł¼æŀĹ
Ġæ¤
Ġjunction
stackrel
å£«
oper
éĤ£ä¸į
å¥ĩçĤ¹
ä¾Ŀ
Ġloading
Ġå®¹
Ġsection
covered
æķĪçİĩ
çĮľ
åľ°éĿ¢
å¯¹æĴŀ
po
})_\
å½¢æĪĲ
ç´
Ġloop
Ġseparately
æļĹçī©è´¨
eV
ĠåĪ©
Ġavaila
Ġfitted
''(
å½¢å¦Ĥ
star
}}}(
ject
ä¸ĭæĸ¹
))^{-
ĠAg
æ²Ļ
åĪĨæŀĲäºĨ
æµĭéĩıäºĨ
Ġinterval
Ġå½±
Ġexposure
T
OR
xp
Ġmuon
domin
Ġmeson
Ġkey
å¼¹éģĵ
Ġongoing
gi
Ġ|\{
electron
wered
SR
ä¼łæŁĵ
çļĦç¦»åŃĲ
ä¿Ŀå®Ī
Ġobe
çļĦæ¼Ķ
è¶ĭåĲĳ
UV
Ġåľ£
Ġaxion
232
éģŃåıĹ
åįģäºĶ
Ġphy
lip
jan
ĠåĽłä¸º
ca
äº¤æĽ¿
å·´åŁºæĸ¯åĿ¦
ĠæºĲ
ĠE
cdot
Ġgravi
}\\&=
ç»Ł
Ġpolic
ä¾£
Ġgave
App
Ġç§į
Ġdiff
åĪĹåĲĳéĩı
Ġformal
ĠæĪĳä»¬æıĲåĩº
Ġstellar
Ġupper
Ġè·Ŀç¦»
asi
big
èĭ¹æŀľ
ç¨ĭ
Ġwireless
æĪĳä»¬å¾ĹåĪ°
ç¨£
}\|\
èį¯
éĩįå¤§
çļĦçģ
åįĹåĮĹæĪĺäºī
ç½¢
\,(\
è¿ĺæľī
cri
ä¸Ģç§įæĸ°çļĦ
Ù
Ġrecurrence
avi
Ġclasses
æľĿé²ľ
Ġsqueezed
Ħ¦
VLA
ĠHE
+\,
çŁ©å½¢
Ġswitch
ĠãĢģ
æĬµè¾¾
ä¸įå°ĳ
Ġprimary
ä¸ģ
ä»¥ä¾¿
ĠHH
}}\|
éħįæĸ¹
Ġ\:\
Ġéĩįè¦ģ
Ġscreening
Ġexception
isher
eu
Ġturbule
ĠMaxi
artree
enu
ç¨
ç²ĴåŃĲçļĦ
çĶŁçĲĨ
accu
rum
Ġidenti
è¾ŀèģĮ
bigotimes
åĿĲæłĩç³»ä¸Ń
é¸¡
ç§ĺå¯Ĩ
Ġtw
ä¹ĭä¸Ģ
Ġphenomen
En
çī¹å®ļ
PD
)),\\
æ¹
Ġwires
æµĭè¯ķ
çļĦåħ³éĶ®
ographic
å®ĩå®ĻåŃ¦
Ġenvironment
Ġalternating
ator
ĠGro
èĬĿåĬłåĵ¥
ĠåĬŁ
è¿Ĳç®Ĺç¬¦
éĻħ
æŃ£æŃ£
Ġinho
old
Ġdiscuss
Ġremark
æħĪ
Ġhelp
æµ·æĭĶåħ¬å°º
çļĦæĸĩä»¶
ĠæīĢä»¥
çī¢
å±ĭ
æ·ĭ
Ġdecay
éĢĥå¾Ģ
Ġnebula
Ġladder
Ġgo
Ġkind
ggered
åĢ¾è§Ĵ
Ġbrighter
Ġçĵ
å·¥ç¨ĭå¸Ī
Ġmovement
Ġæ¬§
PES
pn
Gu
sed
çļĦæ¹ĸ
)=-(
ĠFermi
èµ«å°Ķ
å¸Įä¼¯æĿ¥
å¤įæķ°
å¹¶ä½¿
éĤ»
åĽŀé¡¾
^{**
çĸ¾
åµ
')
{,
Ġnormalization
æ¶²ä½ĵ
ĠBal
QCD
tered
Ġannu
636
Ġsearches
æĹłæķĪ
ingular
_{[\
Ġçİĭ
Ġsimulated
Ġshift
ä»£åħ¥
åħĭåħ°
å®¹çº³
Ġgenu
oling
ä½ł
æĽ¾æĺ¯
è¿ĺåİŁ
Ġk
Ġwhose
sors
Psi
dotsc
)}=\
å¼łéĩı
æģ¢å¤į
tia
Ġmodelindependent
Ġratios
ä¸ºä»ĸ
åĪĬ
Ġbla
ĠLambda
GC
Ġarms
^{*,
Ġwhite
åı·
Ġåľ°åĮº
Ġnode
ynman
|-\
çĽ¸äºĴä½ľ
æĪĳä»¬è¿ĺ
æĥħæĻ¯
ĠGamma
è®¢åįķ
éĻį
ĠSi
Ġvalu
Ġcalculating
æŁ¥çľĭ
å·´æ¯Ķ
è°Ľ
å¯¹æĺĵ
çİ¯å¢ĥä¸Ń
Ġintense
çĶµåĬ¿
Ġdeduce
Ġmeasurement
åĽ½æ°ĳ
ç¤¾
ĠPar
çļĦéĤ£
Ġcentrality
Ġoccupied
åį
ä½ľçī©
æīĢè°ĵçļĦ
ancies
æľ´
dC
è®®éĻ¢
Ġå±±
ä½ľåĵģ
Ġcylin
ĠGr
æĺ¯ä¸¤ä¸ª
Ġij
cdots
åĮħ
dwarf
åĩı
æĭīæł¼æľĹ
gle
mto
Ġdex
)}{|
Gf
åĲĪä½ľ
æ¼Ķå¥ı
Lie
å¿į
æķ°ä¹ĺ
èµĶ
Ġirre
,,ãĢĤ
ĠAbell
èĬŃ
Ġcompe
My
åĩ¯æĴĴ
Ġexcitations
å¼§
åĮħè£ħ
Ġaveraging
æĹĭ
tq
mal
Ġambigu
Xray
åĬ¨çī©çļĦ
DD
Ġergs
Ġflexible
burst
äºĭ
Ġirreducible
dE
Ġdete
èº«ä¸º
cond
ä¼¦
dig
åį¡è·¯
ke
ĠäºĽ
è®¸å¤ļ
ermi
Mas
Ġnull
è°´
Ġinvo
ä¸Ńä½¿çĶ¨
Ġsmallscale
ization
Ġdop
ĠAA
Ġéĵ¾
regular
å½¢å¼ı
åĲĮä¼¦
aluza
ā
died
Ġextends
å¹´èİ·
KK
Ġsilicon
liers
ower
Ġç¾¤
Ġbosons
^*,\
¬Ķ
Ġspiral
Ġexclusive
æĺŁæľŁ
erical
ä»¤äººæĥĬè®¶
Ġrelativistic
åħ¬æĸ¤
Ġsolar
rative
Ġsize
åĨħåŃĺ
æĦıåĽ¾
ä»ĸåľ¨
åı°
Ġconsis
ogical
righ
çĩĥçĥ§
Ĵæĥħ
ĠCompared
bar
æĪĳä»¬å·²ç»ı
ä¸ºæŃ¤
xyz
-|\
based
åı¯è§Ĥ
Ġæ¡Ĩæŀ¶
ĠéĢīæĭ©
ç»©
Ġconjugate
Ġreg
Ġreport
èģĮ
Ġè¦ģ
itz
\|.\)
ä¼¯
ope
|}\
ç¢Ł
Ġirradiation
480
åį±æľº
Ġsubmanifolds
çļĦçī¹æ®Ĭ
Ġconstructed
æ®ĸæ°ĳåľ°
åĪĨç¦»
Ġpercent
ç¨³å®ļ
cti
åĨłåĨĽ
Ġ,\\&
çļĦçĶµ
istor
function
èĥĮæĻ¯ä¸ĭ
æµģè¡Į
|>
çļĦåĦ¿åŃĲ
åı³è¾¹
éĽĨåĽ¢
table
æİĪäºĪ
qn
Ġprobabilities
strahlung
è¡°èĲ½
çļĦä¿¡åı·
semi
åľºçļĦ
å¢¨
nable
Ġsee
æĴ
Ġconfirming
æĦıè§ģ
structures
å¯¹ç«ĭ
Ġsemis
Ġquoti
Ġconstructions
æ¦
Ġelectr
ä¸Ńä»¥
)}}{(
So
é«ĺç»´
å¹´æĭħä»»
ç§ĳå¤«
,...
è¦ģç´ł
ç½ļ
energ
çĽ¸å½ĵäºİ
åį³å°Ĩ
ĠSchwarzschild
å¤§å¸Ī
CoO
grow
triangle
In
è¿ĺæĺ¯
å¹´ä¸İ
æī§
Ġoccu
å¹´èĭ±åĽ½
å¸ĥç½Ĺ
æļ´åĬ¨
åħħæ»¡
Ġextremal
å¹º
Ġincre
Cr
Ġç±»ä¼¼
ĠMSSM
åĬłä¸Ĭ
å¾Īéļ¾
ä¸ºæŃ¢
åĽŃ
ĠåŃĺ
Ġdetermine
çļĦä½İ
å®¹æĺĵ
æľĿåľ£
doteq
éĽħåħ¸
ctivity
ä¸ĸçķĮä¸Ĭ
ä¹¦ä¸Ń
å²Ń
é©¯
'
è¿ĽåĮĸ
Ġsimulations
Ġmarked
ender
Ġparallax
Ġæ³ķ
ä¸įåıĺ
åħ³å¿ĥ
å±±åĮº
lambda
thins
whi
ymer
çļĦåĮĸåŃ¦
liary
æ¬¢
æ³ķ
Ġmarginal
å®ļç§¯åĪĨ
ians
Nu
ä¿¡å¥ī
åŁŁå¢Ļ
Ġinvolves
vou
))^
ŀ¬
||_
Ġdis
éĴ¢
ç´¢å¼ķ
oles
å½±åĵįåĬĽ
é¸Łç±»
åĲĦä¸ª
\}\\
Fs
978
é¦ĸåħĪ
å½±åĥı
ichi
ĠLat
ĠSL
å±ķç¤ºäºĨ
è¾ĥå°ĳ
Ġstability
sub
ä¹ĭåĲİ
èĢģæ±ĩ
Ġcolor
OB
Ġ{{{\
Ġbc
é¦Ļ
qp
æŃ£äº¤å½Ĵä¸Ģ
Ġmoderate
Ġéĩı
contra
åº¦çļĦ
æ»¤
Ġå¤ļåħĥ
åĪĨç»Ħ
Ġinteractions
è¾ĸ
na
ç¥ŀè¯Ŀ
åľ¨K
èŃ¦å¯Ł
Ġphenomenological
cation
ductors
æ¯Ķè¾ĥäºĨ
tian
tang
æĶ¿åºľ
Ġspherical
åħŃä¸ĸ
usz
semic
å¦ĤæīĢç¤º
æ²»çĸĹ
åĴĮæµ·
è®°å¿Ĩ
ĠCN
å°¤
åıĺåĮĸ
Ġcompleted
'.
åľ°å¹³
åĪ¸
è½®
LI
Ġsupernova
Ġwalls
ĠEr
æĭ¿
çĶµåĬĽ
ç½ĳçĲĥ
cases
quency
row
Ġfilament
Ġconjunction
\\&
åĲ¬
we
RN
FX
Ġåľ¨æŃ¤
æŀĦ
Ġwould
æ¯Ľ
åŃĹèĬĤ
å°ºåº¦çļĦ
Ġenco
Ġmagn
Ġå¤Ł
item
æĹłçĹĩçĬ¶
Ġexclusion
Ġdr
prob
ĠDete
æĪĳä»¬ä»İ
å¾Ħ
çļĦæĶ¹
dd
è¯łéĩĬ
æĿĤè´¨
Ġmel
Ġmolecules
æ¶ĪèĢĹ
Ġseparate
Ġæģ
ä¸Ģéĥ¨
æĹł
æĢ»çĿ£
754
sing
jb
èĢĥèĻĳä¸Ģä¸ª
jk
)}{
Ġsheets
_{+}(
Ġwellknown
çļĦä½¿çĶ¨
Ġaccount
Ġtwoloop
éĺģ
valan
åĪ¶éĢłåķĨ
nation
æĪĳä»¬æıĲåĩº
åħ³éĶ®
Ġword
_{(-
æĪĺ
åħ³æ³¨
Ġadaptive
Ġå¦Ĥä½ķ
åľ¨ä¸İ
Ġquasiparticles
è½¬
åĲ¸æĶ¶
ĠMany
Ġdiscusses
çļĦæĸ¹å¼ı
)],\)
bule
^+)
Ġworld
Ġ\(({\
æĬĽçī©
æ²Ł
dial
ê
Ġpuls
ä¸ľæĸ¹
Ġmomentum
èĭ¥å¹²
Ġfrequencies
Ġunstable
BK
åľ¨å¤Ħ
Ġgate
åĪĴåĪĨ
otherwise
llar
ç»´çļĦ
è¥¿éĥ¨
Ġregime
è¿ĩ
æįī
ĠExten
æĪĳä»¬è°ĥæŁ¥
Ġappropriate
Ġdate
è·
Ġfu
duci
è¡¨æĺİ
Ġolder
Ġ(|\
é¦ĸåºľ
å¸Ń
tom
yson
è´Łè´£
èĭ±åĽ½äºº
å¤§
olute
Ġresulting
SSM
ä¹±
åĬ¨çļĦ
Ġfocu
Ġtun
Ġ..,
}}^\
Ġup
æĹ±
çĶŁæĪĲ
raphic
atorial
çľĭæĪĲ
Ġunbounded
quas
Ġ)+
å°Ķæĸ¯
æĸĩåŃ¦
itu
é¼ĵåĲ¹
éĿŀå¯¹ç§°
)}_{\
åħī
è£
zo
çĻĮ
Ġways
Ġaccor
å¤ĸéĥ¨
åıªèĥ½
due
)}=
resonant
ermitian
rT
ĠPossible
ä¸»åºı
æĶ¿æ²»å®¶
Ġbroadening
å¹³è¡Į
äºĮèĢħ
}(\{
Wit
Ġè´¨éĩı
+(-
Ġcomplement
æ»¨
æ¾³å¤§åĪ©äºļ
Ġdescribing
Ġdisordered
Ġwindow
ST
çļĦæĬ¥
åıĻåĪ©äºļ
Ġheterotic
bigvee
ĠAs
mology
çĽ®å½ķ
å¹´ç¾İåĽ½
GV
Ġphotons
Ġnonperturb
(\|
ĠPn
æĪĳä»¬è®¤ä¸º
Ġ(.).
æĪĳä»¬çłĶç©¶
KR
å¤ĸåĬĽ
Ġrelativity
èĮİ
Ġmicrons
éģ¿
)_{(
æıĲçĲ´
jd
å®ī
Ġé©¬
ĠFlu
Ġarchi
ices
å¼ķèµ·çļĦ
})+\
ĠæĮī
Ġ}\)
çĽ¸å¯¹åºĶ
}{
depend
çļĦæĹ¶
é©¬åı¯
Ġderive
ä¼Ĭèİīèİİ
Ġdynamic
Mt
åľĨåĳ¨è¿ĲåĬ¨
æĹłåºı
Ġeluci
Ġted
*{
å¯ĦçĶŁ
å¹²æ¶īæµĭéĩı
ä½¿çĶ¨ä¸Ģä¸ª
Ġinflationary
rich
çļĦæ´»
/
èĢ¦
Ġcosmological
åŁºåľ°
ced
åĬłåĪ©
radial
åıĳéħµ
chen
Ġcoho
åħ¶ä½ľåĵģ
Ġsatisfying
åħģ
çļĦç»ĦåĲĪ
éħĭ
Ġfainter
çļĦçĻ¾
Ġä¼ł
overset
^+
éĴ¢çĲ´
çĲ³
å»ºç«ĭä¸Ģä¸ª
åĥµ
èĸĦå¼±
Ġnanori
resis
Ġreveals
Ġsing
Ġecon
light
Ġdivergences
Ġbackward
ä»£æķ°
çļĩ
æķ°éĩıçļĦ
Ġstructured
èµ·åĪĿ
èĬĤæĹ¥
))&=
Ġphases
}\,{\
Ġproperty
çĤ
è¿Ļæ®µ
cl
æł¡åĩĨ
ystate
Ġannihi
ĠApproxi
çĲĨè®ºåĴĮ
æĿĲæĸĻ
}}({\
èĬĤçĽ®
Ġprop
çĽ¸è¿ĳ
èĥ½åľ¨
Ġdisplays
AT
Ġik
Ġopen
å¾Ĺ
ofthe
Ġdilaton
^{(+
448
Ġgenerate
^*)^
FT
Ġgiving
)}&
Ġend
ĠBorn
Ġç¨ĭå¼ı
ä¸ĢçĻ¾
ä½Ĳ
é¡¶çĤ¹çļĦ
inos
Ġresonance
mensurate
inf
349
åħĦå¼Ł
åĬŁçİĩ
éĥĬ
èĬ¬
Ġhalo
10
\\
å¯¹æķ°
}'(\
'}}
Ġpresented
)+(
Ġ_{
åıĮå°Ħ
Ġåģļ
æĪĳä»¬åħĪ
olf
Ġfall
Ġvisibility
Ġdescribed
anced
Ġscience
ħ
Ġorganization
ç®Ĺç¬¦çļĦ
frac
,}
ĠåĪĨæŀĲ
conserv
Ġparameteri
Ġcardinality
çļĦé¦ĸ
åĲĳåı³
Ġalgebras
åī§ä½ľå®¶
tents
Un
Ľ
å¤Ħå¤Ħ
åĽºæľī
æĦŁåĪ°
Ġç¨ĭåºı
sition
Ġparame
Ġdiffusive
Ġçľĭ
blacktriangle
Ġ||
åĲĮä½įç´ł
ĠèĮĥåĽ´
match
Ġcaptures
Ġtemporal
Ġfirstprinciples
è¿ĺåı¯ä»¥
ä¼ļåĩºçİ°
}:=\
çĤ¹ä¸Ĭ
lying
éĢŁ
åįķåĲĳ
çļĦæ¯
Ġsees
Ġreconstruct
Ġdetermines
ä¿ĿåĬłåĪ©äºļ
æī®æ¼Ķ
ä¸»ä¹īåĴĮ
KA
ä¼
)(\
)\,,\)
Spin
Ġmaser
å©´åĦ¿
:=[
åº¦è¿ĩ
textup
ä¹Ļ
},...,
CH
\,\,\
istic
prod
è¿ĻäºĽ
90
æĺĨ
æĭīæĻ®æĭīæĸ¯
arl
åĭĥ
åıĳè¾¾
aux
Ġbr
kn
æ²¡
)}(
ĠåĪĨç¦»
è¿ĲåĬ¨çļĦ
åĪĹåĩº
Ġequilibria
ĠEffe
åıªåľ¨
æĶ¹ä¸º
çº¿æĢ§ç»ĦåĲĪ
åĪĨåĪ«ä¸ºåĴĮ
åı¶åŃĲ
Euler
Ġextragalactic
}}:=
bula
æįķæįī
Ġenviron
Ġon
)_{
è¿½è¸ª
æ¸ħæĻ°
Hamiltonian
å®¹åĻ¨
oc
Ġpressure
Ġappropriately
Ġdielectric
åĩłä½ķåĲĳéĩı
Ġtwocomponent
prote
å¤§åľ°
åĨĻ
éĥ½ä¼ļ
äºĭçī©
dotsm
æĪ¿éĹ´
lattices
ä¸»æĮģ
çİĭ
å¹´åĬłåħ¥
G
æ½®
Ġexciton
ru
åľ¨ä¸ĢäºĽ
Ġ\(\|
ĠæĪĳä»¬
æĪ´
èĪŀ
Ġparton
Ġeigenval
ç»´åĲīå°¼äºļ
ucle
!\!\!\!\
body
ĠæĢ§è´¨
multi
åı¯ä»¥çľĭåĪ°
^{-}(
çļĦæĮĩ
336
ç§»åĬ¨çļĦ
.).
mine
ä¸»è¦ģä»¥
Ġcontour
Ġclearly
åĬłæ³ķ
ĠBethe
Ġmechanics
ä¸įåĲĮ
,|
orem
ĠBecause
ç®¡å¼¦
')\)
ĠNevertheless
æľīçķĮ
)_\
lia
Ġ).
æĻ
some
è¯Ħä»·
è¥¿ä¼¯åĪ©äºļ
Ġexperiments
ç®¡
è½½
trons
è¯¥åĽ½
Ġidentification
çļĦçĶµæµģ
æ¬¡æķ°
initial
Ġresol
XX
768
blish
çľĭ
)=[\
ĠæĿ¥èĩª
ä¹łä¿Ĺ
)}.\)
éĹŃ
Ġinformation
åį¡ç½ĹæĿ¥çº³
arrow
æĸ°çļĦ
ĠBy
æİ¨
çļĦåŁİå¸Ĥ
å°ļ
Ġderived
ccc
é¢ĺæĿĲ
vers
å¹´é¾Ħ
properties
Ġinduces
è¶ħè¿ĩ
Ġpacket
æĪĸèĢħ
Ġsoft
æļ´åıĳ
æŃ
Ġintegrability
Ġvalence
01
pm
lev
toleading
Ġsou
æĬĽ
æī§æĶ¿
Ġ+
Ġapproximations
mode
functions
è¯ģå®ŀäºĨ
Ġagainst
Ġphonons
Ġn
åľ¨æľ¬æĸĩä¸Ń
è¿Ļä¹Ī
Ġport
)=&\
Ġneural
ĠGibbs
çĽ¸ç¬¦
le
éħ¶
ympto
çļĦæĮ¯å¹ħ
åĬĽ
èĢ¶è·¯æĴĴåĨ·
self
ĠBackground
ç»§
å¸¸çĶ¨
å¥³åĦ¿
ou
å·¥ä¸ļ
ç»ıæµİ
;\;\
Ġ\\&=\
ismic
Fa
åľ°ä¸Ń
ç¢±
ĠPhy
ç¢İçīĩ
rr
Ġwhat
idal
¿
æ¨
ä¸´æĹ¶
ky
ĠOur
åįĬå¯¼ä½ĵ
titude
è¡¨è¾¾æĸ¹å¼ı
ä¹ĭåŃĲ
æĭī
Ġreviewed
Ġintensities
opera
equival
ĠSM
Ġvio
ä¿®æĸ¯
ç©Ĩç½ķ
Ġpub
çļĨ
Ġexponential
åı¯ä»¥ä½ľä¸º
Ġcogni
åĵ¥ä¼¦
ĠSS
Ġgiv
ĠFollowing
åħ´èµ·
ĠVol
æĢ»çĲĨ
Ġpulsed
Ġelementary
åİŁåŃĲçļĦ
Ġoriented
è¾ĥä¸º
\|^{
çļĦæĬĺ
æĿ¿åĿĹ
Ġè¯Ńè¨Ģ
Ġthermo
mics
é«ĺ
åį³
å¤ªç©º
Ġcombinations
);
TC
preserving
Ġtopological
å½¢æĪĲäºĨ
å¤§åĪ©äºļ
åģĩå®ļ
éľįå°Ķ
Ġlie
Ġsurvival
éĹ´çļĦ
Gra
Ġinputs
phy
ä¾¿
å®¢æĪ·
èĭ±æł¼åħ°
Ġå¸ĥ
çļĦä¸¤
rb
åį³ä¸º
æĶ¹éĿ©
å¤´
èŀ
åĢ¼ä¸İ
å¤ļéĿ¢
Ġcell
|)\
mz
äºĭå®ŀ
rn
}|{\
è¡¨ç¤º
å¹²æī°
through
Ġroute
adron
éĩĬ
èĥ¶çīĩ
çİ«çĳ°
ä¸įç¨³å®ļæĢ§
é¢ĳçİĩ
Ġco
287
Ġç¢
åľ¨éĿŀ
Ġåľ¨æľ¬æĸĩä¸Ń
åįĸ
}}[
La
å´ĸ
Ġconsequently
mixing
Ġmix
Ġsufficiently
Ġang
åĮĸçŁ³
Ġlear
å¥Ī
Ġç®¡
ĠæĿĤ
ant
çļĦæĢ§èĥ½
Gr
)+{\
begin
æ°ĳä¸»
dR
Ġenough
ĠAims
Ġç¾İ
;-
mitting
nR
æ±¤
Ġsol
cre
æĥ©
Ġbranch
è¡Ĺ
Ġæ
}-{\
éĿŀéĽ¶
Ġhand
ĠHom
Ġadiabatic
å®ļä¹īäºĨ
Ġquantum
gra
Ġä¸ĢèĪ¬
åľ¨å·´é»İ
})),
å¯¹æĬĹ
è§ĦçĶ»
Ġinclination
åįģä¸Ģ
ç´¢
åľ¨æľī
çļĦæİ¥
Ġcompleteness
Ġcouple
Ġcalled
eld
å¯¹
åĴĮT
Ġpath
çĽ¸åĮ¹éħį
çĦ¶
Ġrep
region
$},
æľīä¸Ģ
Ġci
å®¿
ä¼¯éĩĮ
éĹªåħī
é¢Ī
SNR
å¨ģå°Ķ
ĠMarkov
456
åľ¨æĸ°
åĪºæ¿Ģ
endix
é³ŀ
fect
åīĸéĿ¢åĽ¾
æĭīçī¹
'-\
}),\\
åı¬å¼Ģ
åľ¨ä¸Ĭ
åĮĢéĢŁ
Ġpatter
aylor
èĢ¦åĲĪ
åĲİè¢«
Ġ\(=
åįĹéĥ¨
ä¸įçŃī
æįķ
åıĹè¿ĩ
wp
Ġimproved
rested
å¯Ĵ
put
.
oise
çĶŁçī©åŃ¦
Ġquark
æ®
underline
åıī
Ġbelieve
MNewton
åĢ¾
Tau
æ±ł
Ġdesi
Ú
zs
ĠTherefore
æľįå½¹
dash
Ġpar
æİ¨è®º
èº«ä»½
dily
ä½ľåĵģæĺ¯
Ġdep
ĠCompar
Ġkeeping
)=[
æĢ§è´¨
çĽ´çº¿è¿ĲåĬ¨
ç¼ļ
éĿŀæ´²
}(|
nces
onomy
Ġnoncompact
ģĴæĺŁ
çļĦåħ³ç³»
cutive
æİ§åĪ¶äºĨ
Ġmean
halo
itrogen
ov
Ġphysics
Ġal
æºī
Ġejection
KP
manifold
äºļåİĨå±±
æĿ¥æºĲ
èŃ¦
çĲĨå¿µ
ç»ıè¿ĩ
Ġsynthetic
)\|_{
ĳç»ľ
æ®¿
Nm
å®ĥä»¬
iguing
|}{
Ġbackgrounds
Ġ\(-
Ġgrid
éĶĢ
Ġoutline
đ
'}^{
Ġ^{\
Ġpseudogap
Ġcentered
çİ°åľº
æ§
æķĻå®Ĺ
'_{\
çĽ´åĪ°
å±ıå¹ķ
åı¯çŁ¥
Ġtheory
~,
Ġregi
Ġshifts
ç»ĳ
Ġmeasu
éĶ¯
åħ¬åİĺ
æķ°æį®ä¸Ń
Ġ-
forall
éŃ
529
å¤ļæł·
æ¤ħ
Ġbeco
KD
})\\&
æ²¿
Ġvicinity
gent
fore
el
å¼ķåıĳ
MX
Ġ\({
Ġatta
åı¯èĥ½åŃĺåľ¨
çļĦå±±
Ġinclu
æŀĦå»º
alla
tz
Ġpu
ĠeV
å¯¼çĶµ
éķ¿åº¦
ux
Ġæĸ¯
çŃī
åħ¶é¡¿
çļĦåħ¨
Ġåı¤åħ¸
æĽ¿æį¢
Ġ\,,
å®īå¤§çķ¥
Ġ&:=
Ġimaginary
ä¼Łå¤§
åĪĻæľī
Ġanti
bile
phase
çĳŁ
Ġaccuracy
åľ¨æ³ķåĽ½
åĨ°å·Ŀ
å¼¯
Ġfb
rays
æºĲçļĦ
æĶ¿æ²»äººçī©
Ġ~,\)
mselves
çī¹åħ°
closed
site
åĴĮåħ¶
sics
æī¾
DO
Ġè¿ĳä¼¼
Ġcontrac
Ġres
ç¬¬ä¸īä¸ª
Ġstate
å´
he
ģ
çĪ¬
'-
ĠãĢĤ
Ġfi
)+(\
æĪĳä»¬åľ¨
ĠQSOs
Ġiso
Ġpromp
Ġranges
¼Ķ
W
è¿ŀç»ŃæĢ§
Ġconsta
å°ģ
å°ĸéĶĲ
positions
æĺ¥
åıĻè¿°
åĩ½æķ°ä¸º
ĝ
éĿ¢ä¸Ĭ
Ġkink
çļĦå¤§éĥ¨åĪĨ
ä»ĸä»¬åľ¨
æµģæĶ¾
åŃĲçļĦ
^*(\
chs
side
åħ¬åĽŃ
ĠTheir
Ġfas
åıĭ
{-\
Gs
code
åĴĮå¹´
cb
AN
Ġuniversal
osephson
multaneous
violating
è´®
è¯Ń
}[(
tries
Ġis
çļĦç©ºéĹ´
éĩıåĮĸ
ç³»ç»ŁåĴĮ
}}).
Ġchalle
Ġdiverse
ä¿ĿæĬ¤åĮº
æŀ¢æľº
dr
orhombic
craft
Ġemission
åİŁåĽł
è¿ģå±ħ
èĪ¬
Ġelectronic
rhd
çļĦåŁºæľ¬
Ġamplification
åĲīå°Ķ
Ġben
Ġstep
765
ç»Ļå®ļçļĦ
iB
ĠçĪ
èĵĿèī²
ä¸¤ä¾§
both
Ġæ°Ķä½ĵ
æĵįä½ľ
Ġcontexts
åŃ¦ç§ĳ
Ġdetermining
Ġmostly
ĠPG
æ¸©ä¸ĭ
èİ²
æĹĭè½¬çļĦ
ç²ĺ
èģļåĲĪ
Ġrecombination
Ġeclipsing
Ġcontrolling
ç»Ħ
odinger
ik
Ġconduc
äºĮæ¬¡åŀĭ
Ġtarget
];
é²
çĮ«
Ġeasi
ç´§åĩĳçļĦ
sitive
;\;\;
Ġregularization
Ġç»Ł
å¯ĦåŃĺ
teq
utonom
å£°åŃ¦
gend
](\
Ġç³»
ount
Ġdetectable
Ġlayers
Ġmesons
çļĦåľ°æĸ¹
æķ°åĴĮ
æĪĲæŀľ
Ġthough
èĵ
ts
Ġestablish
Ġåį³ä½¿
Ax
Ġappearing
è§£åĨ³æĸ¹
åĪ¶æĪĲçļĦ
Ġsubsequent
åħ·ä½ĵçļĦ
åĮºåŁŁä¸Ń
Ġè¡¡
å¤ĦçļĦ
ĠNow
',\
ç¨į
ĠæĮ¯åĬ¨
Ġcollective
Ġ&&\
ĠNote
Po
Vol
clusters
¤
Ġadditional
Ġpass
position
æľīçĶ¨çļĦ
)}}\
çī©çĲĨåŃ¦å®¶
ili
Ġdecreasing
}\;
è¿Ń
ä¸
vich
</s>
å¹
Ġautom
\}.\
æĢĸ
QED
Ġè§£éĩĬ
æĺ¯ä¸Ģä¸ª
ç»Ļ
FeH
è¥¿åħĥåīįå¹´
rag
ĠéĻį
Ġends
åĪĨåĮº
Ġlar
plane
induced
æ³¢æ³¢
çŃĽéĢī
æĳĺ
'',
856
éĢłæĪĲçļĦ
æľĢå¤§çļĦ
ens
æħ§
Ġexcited
åº¦ä¸º
Ġè¿Ľè¡Į
Ġexpo
script
å¡Ķæĸ¯
ĠCP
åĨľä¸ļ
æ²
éļıä¹ĭ
Ġreminiscent
zi
æ£ī
åħ³ç³»
Ġåİ»
aw
è¢«åĽ°
ıè¿°
Ġcounts
pheric
Ġ*
æŀģæŀģ
Fr
)/\
éĢ¼
éļĲ
ĠĊ
total
éľ¸
ard
ç¡®ç«ĭ
åľ¨ä½İæ¸©
æµ·
æĺ¾å¾®
lumin
|+
ocities
bro
Ĭä¹±
PR
ä¼°è®¡åĢ¼
isting
ĠImp
Ġdemonstrated
Ġtogether
éĢīåıĸ
æĮĳ
two
Ġsolitons
åĪ¤åĪ«
äºĨä¸Ģä¸ªæĸ°çļĦ
omega
åľ¨ä¸įåĲĮ
ç»ĵæŀľæĺ¯
ç©Ĩæĸ¯
term
æľī
])
ĠåĨį
Ġconserv
Ġsci
Ġvacuum
æĪĳä»¬çļĦç»ĵæŀľ
é«ĺè¾¾
orbital
å»¶ç»Ń
åīĳæ¡¥
Ġsplitting
å½ĵä¸Ķä»ħ
éĻĢèŀº
Ġperturbation
ĠBoseEinstein
Ġcarrier
è½Ń
elds
Ġcombin
Ġtotal
Ġgy
Ġquasar
Ġm
æĲľ
äº§çĶŁ
ĠSe
éĿĻ
å¤ĸçķĮ
51
Ġgraphi
Ġinterpret
éĿł
Ġflo
Ġbeginning
è¾¾
Ġå°Ħ
Ca
Ġpreserving
cy
ĠPri
å®ŀéĻħ
ĠBayesian
[(
ä½ĨçĶ±äºİ
Ġ24
Ġtwopoint
Ġlangu
kip
åĽĽåįģ
Ġåľ¨è¿Ļç§į
}=:
mbe
åĮ»åŃ¦
Ġpulsar
ĠæıĲåĩºäºĨ
ĠLang
ical
Ġtrajector
éľ
Ġneces
35
æ¨¡åŀĭä¸Ń
æľªçŁ¥
128
çļ®
Ġcontin
sign
èĮħ
MnO
)=(
çĥŃèĥ½
analog
Ġéļıæľº
çĿĢåĲį
Cas
çĶ°
sym
f
Ls
æĢ§åľ°
itt
$}\
IV
æĬĹçĶŁç´ł
Ġè¾ĵ
ĠJosephson
BD
ä¸ĢæĹ¦
Ġlimit
å§Ķ
æĿ¾
BO
ä¸ºçļĦ
992
Ġoccupation
è´¸æĺĵ
çĦ°
113
Ġquanti
}.\)
Ġformulas
çļĦæį
æĪĳä»¬è¡¨æĺİ
hed
çľł
é«ĺçº§
Ġexplanation
olar
è§ĴçļĦ
çĦ
åłĨåıł
hookrightarrow
çĶ»
Ġ(,)
ä¸ºä»Ģä¹Ī
Ġspread
èļĢ
certain
çĽĹ
manu
äºĨä¸¤ä¸ª
èīĺ
ä¾µçĬ¯
ä¸Ńåº¦
éĿĻæŃ¢
å¼
åıĸä»£
biggr
used
Ġshell
Ġä¼¯
Ġtheorems
ni
$.}
Ġdeal
Ġorgani
èĤ¾
PC
atio
tice
parity
|\{
Figure
binding
å¾·è¯Ń
å®Ľ
Ġultracold
Ġhypothesis
Ġfinite
æĬĳåĪ¶
ures
çĽ®æłĩ
åĲĮä¸Ģ
ä¸īä¸ĸ
åı¥è¯Ŀè¯´
kb
åĬ¨èį¡
Ġcatalog
tau
Ġconstruct
ä¾Ŀèµĸ
iii
çĶµåĬ¨åĬĽåŃ¦
Ġderivatives
åįĥ
ono
Ġdistin
substack
é¢Ĺç²Ĵ
å·§
æ£±
æĺŁä½ĵ
åĵºä¹³
Ġsizes
è¿Ļä¸¤ç§į
.}
æĸĩèīº
Ġcorrected
^+_
æ±Ł
mpa
æ¡Īä¾ĭ
Ġlife
Ġstreams
)||
ĠTN
å¤§èĩ£
ĠçĽ´
Ġagents
NN
åĵº
Ġspinor
^+_{
ĠSeveral
åĥıç´ł
Ġconducted
ndard
äºĨè®¸å¤ļ
ç¼ĸçłģ
Ġcompletion
Vi
ĠåĽł
åıĻäºĭ
æĸ¯æĭīå¤«
cu
Ġrespective
Ġbinaries
WMAP
dicated
èĩªåıĳ
tric
ä¸įçĽ¸åĲĮ
æł¸ç³ĸ
ä¸ĵåĪ©
Ġcapability
åĴĮåľ£
672
æĺ¾ç¤º
è·Łéļı
é¢ĦæľŁåĢ¼
åķĨåĵģ
Ġç»ĩ
ĠLog
Ġeigenvectors
RP
Ġconfir
Ġcontained
Ġarcs
Ġdx
Ġåĩ½æķ°
Ġdivisor
Ġmul
frak
Ġè¾¹çķĮ
èĿ
")
ng
æ¤ŃåľĨ
ick
jlim
424
æıĲç¤º
ŀ
Ġdf
æł¸åŃĲ
æľªå®ĮæĪĲ
Ġthickness
end
æ¬§æ´²
ĠMor
ĠCasimir
HT
ä¸ºäºĨ
}}(-
Ġä½¿å¾Ĺ
eneral
Ġcar
ĠéĢļè¿ĩ
Ġplas
roweak
çļĦåĩĨ
characteri
çļĦä¸Ģèĩ´
Ġreve
Sp
ventional
æľ¬å¾ģ
scepti
å£«åĿ¦
Ġframe
ç¼º
ä¸ĭéĻį
Ġprocesses
Ġisomorphism
IRS
éĢĶå¾Ħ
eth
çļĦä¸ĢèĪ¬
ç¡®å®ļä¸º
Ġdevelop
cence
éĢŁåº¦åĴĮ
FM
ĠEuler
è·¯çº¿
ä¸įç¡®å®ļ
èĥ
åħ¼å¹¶
Ġimpu
Ġheating
æ¦Ĥå¿µ
tings
tere
å±Ĥæ¬¡
Ġmodest
|,|
Ġbaryons
Gyr
AlO
ku
sivity
å¦»åŃĲ
Ġpur
åį¤
ĠSN
isenberg
åĪĨåŃĲçļĦ
sho
Ġzero
èĪªæµ·
Ġpoly
Ġadded
æģ¯
Ġ&
136
Ġåħīè°±
ç»ĵæĿŁ
Ġconfirms
{{
çļĦæĶ¿æ²»
èĢĥ
çļĦéķ¿åº¦
é¢ĦæľŁ
trical
å°Ķäºº
Ġ-.
Ġobta
çļĦä¸Ģéĥ¨åĪĨ
æ¦Ĥè¿°
Ġrestricted
åľ¨ä¸ĸçºª
Ġundersta
æ©Ļ
ĠObservations
æĺ¯æĬĬ
ĠRecently
Ġfalse
Ġles
duced
symmetric
dot
itter
åı«
Ġillumin
çļĦæ¯Ķ
è½¬åĮĸä¸º
Ġhighenergy
pg
Ġsqrts
Ġsatisfy
çļĦä¸»è¦ģ
æĬķ
ĠçĶ¨äºİ
]\!
cess
Ġqualitative
ä¸¤å±Ĥ
è¿ŀä¸²
Ġoneloop
æĺ¯å®Įåħ¨
ç½Ĺå¾·
Ġoverlap
dH
NH
rit
ĠFi
æķ°åŃĹ
èµĦéĩĳ
çļĦæĶ¿åºľ
37
Ġfrequency
Ġçĭ¬
tet
ĠSur
ä¸īéĩį
]\)
Ġluminous
ĠBH
å¤§éĥ¨
dic
Ġice
åŁ¹åħ»
èī²
åħ¥
Ġvanishes
Ġactions
Ġtag
ä¸ĥ
Ġlikely
çĥŃå¸¦
èĽĭçĻ½è´¨
fermi
ç¾İæľ¯
Ġreplaced
temporal
ĠUpsilon
æ´ª
æ¸©åĴĮ
orizon
Hom
÷
}\|\)
Ġoften
è§ĴéĢŁåº¦
Ġdiscovery
tives
ç£ģåľºçļĦ
ç±»çļĦ
')^{-
çī¹åĴĮ
+|\
Ġsupported
Ġvolu
Ġenergies
plas
Ġch
æĶ
ellent
tant
ä¸ŃåĢ¼
dh
åıĤéĺħ
Ġfinancial
çļĦç¤º
Ġtwobody
åį³ä½¿
Ġescape
åĩī
ĠHamilton
Ġcylindrical
éĩįç»Ħ
Ġbur
dically
VO
utron
åĩĨ
slash
ĠæĶ¶
Ġæ±ī
çĽ¸åĲĮçļĦ
colon
Ġçķ
å¹³æĿ¿
BR
^-(
çļĦè¿ŀç»Ń
å¹¿æ³ĽçļĦ
åıĤèĢĥçĽ¸åħ³é¡µéĿ¢
åĮĸä¸º
Ġconstraining
Ġçĥ
Ġ{{
rx
ä¸»å¸Ń
pto
çļĦæľīéĻĲ
texts
Ġpromin
Ġprovide
Ġvanishing
ãĢĤ\
åīįæĻ¯
è¶ĭåĬ¿
Ġea
æľĢå¤ļ
æī©å±ķ
Ġå¾ĹåĪ°
Ġautomorphism
å¯Ħ
ĠSloan
887
Ġåı¯
ç¬¬ä¸Ģéĥ¨
limsup
è·Ŀç¦»
è¿Ļä¸¤
å½ĴåĽłäºİ
231
Ġthemselves
Ġimpossible
é¾
Ġrefle
Ġfact
è¿ĺ
Ġdraw
æĢ»ä½ĵ
Ġion
æĻ¶ä½ĵ
z
åĲİçļĦ
nder
Ġopacity
ç²¾åº¦
çĶ¨äºİè®¡ç®Ĺ
,\,\,
éĺĲè¿°
èĤ
Ġprogram
Ġastr
)={
æİĺ
Ġtextbf
trac
Ġgroups
iso
å°±æľī
pera
ĠVari
XY
Ġsparse
æĽ¾åľ¨
ights
{[
Ġimprove
Ġobservable
æĳĦæĶ¿
mov
^{'}
fun
ĠOp
Ġprac
bmatrix
çĶŁç´ł
å¯¼åĩº
king
uk
çļĦç´
ä¸Ģå¹´
Ġvic
Ġå¹³è¡¡
subseteq
744
Ġensemb
çļĦæĹłçĹĩçĬ¶
utting
ç³Ĭ
Ġä»İ
ç½Ĺäºļ
çļĦå¤§å°ı
èĳĽ
')^{
Ġproto
}}>
æŁ¯è¥¿
çļĦåħīåº¦
ç«ŀéĢī
positron
æļ´åĬĽ
quee
Ġclock
éĻª
¡
Ġcomputer
æĪĲ
æķ°åŃ¦
åĴĮä¸į
\!\
ree
æľĢ
èĲ
Ġelectronpositron
Br
vices
charge
enari
Ġrms
æľĭ
åĥ
ĠJe
éĦ
Ġfrac
magnetic
åĪ©
ç»Ŀå¯¹åĢ¼
åħĶ
çļĦåŃĺåľ¨
clin
èħ¹éĥ¨
Ġfew
Ġtypical
Ġactivities
çİ°ä»Ĭ
with
ctively
angevin
ä½Ĩåħ¶
Ġmodified
Ġspacetime
Ġdipolar
ryst
Ġsoci
Ġsuppress
ite
æĸ¯æ´Ľ
å¾·ç½Ĺ
æīĢæľīçļĦ
ĠGHz
ç»Ļåĩºä¸Ģä¸ª
Ġday
Ġisotopes
ular
ç«ĸçĽ´
Ġcovers
Ġgeometrical
åĬ¨èĦī
rceil
ç§°ä¸º
è¯¯å·®
çİ«
dio
{}_\
Ġinten
ctiveness
é¢Ħå¤ĩçŁ¥è¯Ĩ
Ġshare
6
ĠBs
Ġcapabilities
Ġ\(&
ä¸²
ĠPlanck
ä½Ĩè¿Ļ
æĻ¶ä½ĵçļĦ
der
pectrum
å¾Īå¤ļ
Ġdiscrepancy
Ġavailable
iF
Ġtypes
è¿ħ
particle
éĤª
360
Ġelement
æĭīå¤«
æĪĳä»¬åı¯
ples
ĠCephe
rupt
æłĩåĩĨ
ä¹Łåı¯ä»¥æĺ¯
kh
ĠLp
rbrace
å¹³æĸ¹åħ¬éĩĮ
æľĢä½³çļĦ
mately
çļĦé¢Ħæµĭ
Ġresistance
})+
Ġvel
].\
Ġbuilding
¾¤
ä¿Ĺ
Ġ}_
æ±Ĥå¯¼
moving
Ġbrain
è¥¿åįĹ
)\;,
Hilbert
åĲ«æĹ¶
Ġproves
Ġbund
Ġflux
æĪĳä»¬æľī
Ġequals
decomp
Ġliterature
canonical
çŀ
ere
Ġdwave
çĽ®æłĩæĺ¯
å¦Ĥæŀľåľ¨
Ġbiological
ŁĲ
åĽĬ
è§ĤæµĭçļĦ
çķª
é¸£
142
95
Ġagree
kj
ometries
mat
å°Ĩ
sp
çļĦæłĩåĩĨ
Ġminimizing
è°Ł
rat
ĠåĭĴ
)$
+\
}:
ĠæŃ¥
iota
ĠæĹłæ³ķ
æĪĳä»¬çłĶç©¶äºĨ
my
We
Ġsatellite
Ġsatelli
Ġmetalpoor
åŀ
Ġite
\,|
ross
æĪĳä»¬åı¯ä»¥æĬĬ
èĭı
éĥ½ä¸º
é¡¶ç«¯
æĺİæĺ¾çļĦ
Ġeta
åħ±äº§åħļ
ĠæĹĭ
é»ĳäºº
Ġs
Ð
ĠçķĮ
Ġequivalence
æĸĩä»¶å¤¹
çŁ
å¾®åħĥ
Ġsemisimple
Ġå·®å¼Ĥ
Ġconfli
æııè¿°äºĨ
green
ç»ĵåĲĪèµ·æĿ¥
çļĦåħī
mh
æģ°
æĶ¹åıĺäºĨ
Ġmicro
å¸ĥåħ°
å¯¹æīĢæľī
_{}(
ĠOptical
åıįä¹ĭ
Ĭ¹
Ġtranslation
distingu
Ġstarforming
ç¹ģ
ä¼ģåĽ¾
å¹´ä»¥åĲİ
å·²çŁ¥
fixed
}~.\)
äºĮåĪĨ
å¨ģå°¼æĸ¯
åı¤
çŁ©éĺµçļĦ
çĲĨæĥ³çļĦ
w
obtained
éĿĻæĢģ
Ġcontinued
æīĢåľ¨
Ġçħ§
ĠçĶŁäº§
çŁ¥è¯Ĩ
190
ĠæĴŀ
floor
åħ³èĬĤ
Ġ{{\
å¼ķåĬĽ
ĠV
ä¸»è¦ģçļĦ
Ġcongru
Ġrandomly
ĠåĵĪ
Ġtransmission
åĸ·æ°Ķæľº
)]^{-
é¡¾éĹ®
more
çļĦä¸Ģæ¬¡
æĺİæĺ¾
ĠéĩįåĬĽ
æĿī
_{\{\
ĠMaxwell
NE
Ġconsiderable
çļĦç²¾ç¡®
Ġæĵįä½ľ
éļ
è¿ŀç»Ń
Ĳľç´¢
ological
Ġsector
å¯Ĩåº¦
å¤ı
æĿ¥è¯´æĺİ
assemb
åŁºè´¨
å¤įåħ´
Ġfrustrated
Ġéĥ½æĺ¯
çļĦæ¼Ķåıĺ
ĠçĤ
Ġprobable
åįıè®®
æĸĩ
383
ä¸ĵä¸ļ
åĬªåĬĽ
çľŁå®ŀçļĦ
ĠSpitzer
mentation
åĵºä¹³åĬ¨çī©
ĠLie
\;.
çļĩå®¶
åĪĿå§ĭ
ĠSitter
}}|^
ä»»ä¸Ģ
,\\(
roscop
Ġimm
å¦Ĥæŀľä¸Ģä¸ª
dk
æ°´éģĵ
åĽ¾
å·¦
})}.
Ġoriginating
è£ħç½®
Ġå¤«
æĻ®ç«ĭ
nq
lan
everal
Ġlongitudinal
èµŀåĬ©
åĬ
Ġconsiderations
gV
Ġhybrid
Ġparticles
ĠLC
ed
ĠäºĴ
ĠdW
Ġreduction
åĪ°å¹´ä»£
Ġåı¯ä»¥
æĸĩçĮ®ä¸Ń
æĸ¹ç¨ĭ
æĩ
processes
å®Įç¾İ
ĠèĢĥ
Ġoccup
Ker
ishable
æ°´ä¸Ń
åĨµ
orpho
åĪ¤åĨ³
Ġcong
_*
ä¹ĭä¸º
}^{*}\)
Ġconvection
Ġexamined
Ġlaser
sump
Ġpolarizations
ug
å£°ç§°
Ġcrossings
Ġinterpolation
Ġcryst
Ġç¡
ĠæĶ¯
è®ºçĤ¹
sti
èĴ¸æ°Ķ
ogonal
è¥¿åħĥ
åĿ¦
çĽ®åīį
éĵ¶
åľ¨æķ´ä¸ª
æķ¬
Ġspon
Ġrele
fermion
çĥ¦
Ġconsiderably
Ġcaus
é²¸
çļĦç¦»æķ£
Ġdependence
Ġexistence
å®īä¸ľå°¼
éĢĴ
å°±è¯»äºİ
Sha
Ĕ
ĠæĢģ
posed
Ġfound
Ġexplains
å¾·æĸ¯
115
succeq
éĽĨåĲĪ
j
ä½įäºİ
Ġwho
çļĦéĢļçĶ¨
|/
çļĦæĽ´
Ġplateau
ä¸ŃæīĢ
ä¼łåħ¥
beck
lVert
}_{+
Ġspatially
lim
çĽ®çļĦ
Ġabundances
åºĦ
å«
Per
ĠThrough
åħ«
çļĦæ±īå¯Ĩå°Ķé¡¿
å¼ĢéĽĨ
Ġmaximal
Ġequality
omorphism
ä½ķ
Ġemerging
èıĮ
Ġprote
Ġexcess
å°±æĺ¯ä¸Ģä¸ª
åľ¨è¿Ļé¡¹å·¥ä½ľä¸Ń
æĺ¯
æĪĳä»¬å¾Ĺåĩº
tency
ĠæĶ¿
ç©Ĩæĸ¯æŀĹ
Ġäºİ
ä
é¡¹
åıįæĺł
ERN
ç®Ĺç¬¦
éĻĲ
Ġglass
çļĦå°ı
OT
åıĺéĩı
çĮ©
éĩıåŃĲåĬĽåŃ¦
},\,
åĨ²çªģ
ĠMeasurements
æ³°åĭĴå±ķå¼Ģ
å¸ĿåĽ½
wers
134
gu
Ġzeta
å®ļçĲĨ
},(
é¢ĺåĽ¾
LA
Ġmicroscopic
æ´ģ
axter
çĶŁäºİ
Ġä¸İ
Ġ,\
Ġremnants
BAL
æłĸæģ¯
è®²
Ġfinding
ç¨³å®ļæĢ§
è¯¥ä¹¦
Ġcollaboration
)&=\
Ġrev
çī©çļĦ
band
Ġreco
åĮ¹éħį
Ġunderstanding
åĪĿå§ĭæĿ¡ä»¶
åľ¨ç¾İåĽ½
æĸĩæ¡£
å¹´è½»
Ġdiamond
frequency
Ġchains
com
éĥ½æĺ¯
é¹°
Ġlikelihood
Ġopposite
åı¯ä»¥ä½¿çĶ¨
èĢĥèĻĳçļĦ
æĴ¤
ä¸įä¸ºéĽ¶
åĨĻäºĨ
r
dxdy
beta
Ro
ĠLCDM
oll
Ġcata
çļĦæ¦Ĥçİĩ
Ġæ¦Ĥå¿µ
å¸ĥé²ģ
æĪĪå°Ķ
Ġprevent
æĦĪ
å®
Ġclari
channel
adic
éģį
èĢĮåıĺåĮĸ
Ġdimensionality
oli
æĸ¹å·®
å±ĢåŁŁ
SH
Ġcapa
å¤ĸåĽ½
Ġmanage
ç«ĭä½ĵ
Ġnanowires
oltz
ä¹Įåħĭåħ°
space
ĠMeV
dent
åı²è¯Ĺ
èĦīåĨ²æĺŁ
Ġsemic
glo
Ġexamples
rm
æĺŁéĻħ
æıĲé«ĺ
ä¸ĢèĪ¬çļĦ
Ġtuning
ĠäºĨ
phantom
æĺ¯åħ¶
Ġdid
tane
åįļå£«
jj
sph
Ġtransit
å®¹
IR
äº¤äºĴ
çħ§
Ty
Ġstrategy
åĴĮè¶ħ
neighb
Bz
æĸ¹æ³ķæĿ¥
ĠæĪĳä»¬ä»İ
äº¦è¯·
';
486
å¤§éĩı
åľ°è¯´
Ġdetectors
Phi
Ġseparating
issner
Ġcompounds
Ġä¸Ģ
Ġå¼ķåħ¥
jA
cr
9
Ġphotometric
centric
æķ´çĲĨ
LX
ourier
seous
}\}=
Ġ={\
Ġgener
ä¼Ĭæĭīåħĭ
ä»ĸä»¬
åĪĨ
ĠæĪĳä»¬åıĳçİ°
exc
Ġsele
ä½Ĩåį´
ĠLet
Ġluminosities
ĠMeth
Ķç©¶
å¯¼
æķ´ä½ĵ
åĲ¸å¼ķ
Ġuse
Ġaccre
Ġsq
éĿĴéĵľ
èµ¤éģĵ
ĠIRAC
Ġpolymer
éĴ¦
'[
Ġdeterministic
Ġforming
Ġdominated
^{*}(
rope
åĪĨè§£ä¸º
åĭĩ
wing
åĪĻæĺ¯
Ġ{(\
æĪĳä»¬è°ĥæŁ¥äºĨ
ĠIndeed
å¾®ç±³
ternational
899
Ġinstability
éĿ
æľīæĹ¶
Ġsight
Ġi
åı¤æĭī
è´¨è´¨
èĴĻçī¹
Ā
ural
é£ŀæľº
çļĦæķ°æį®
Ġmultip
ç»ĵæŀľè¡¨æĺİ
Ġcross
èģĶéĤ¦
Ġsmal
SP
ĠLa
æĸ¯å¾·
gon
Ġç»Ń
åıĶ
æ··åĲĪçī©
çŃīçŃī
Ġevaporation
Ħæ¦Ħ
Ġinconsistent
}\|_
éģįåİĨ
åīį
ĵį
Ġéħį
ko
FF
DF
Ġob
Ġdepending
Ġcomp
åĩĿåľŁ
delta
Ġopera
)),\)
Ġmemory
å®ŀéªĮå®¤
IMP
ult
åħ±èİ·
square
æİ¢éĻ©
Ġcomponent
ĠDM
æīĵçł´
acci
çļĦåİŁ
Ġderiv
Ġexop
Ġconsists
AF
åįķæŀģ
å¥¥æĸ¯
evatron
ssess
å¤§å°ıåĴĮ
åĽ´
çķĻä¸ĭ
Ġresonances
è¿Ī
çº½çº¦å¸Ĥ
Ġæł·æľ¬
Ġæł¸
çļĦç«
que
çĿĢä½ľ
äºļåİĨå±±å¤§
Ġ\,\,\,
}~
ä½Ĩåľ¨å¹´
Ġincluded
'})
±³
also
mbed
äº§çĶŁä¸Ģä¸ª
ª
æī©å¤§
Ġresponsible
åĨ
ä¹ĺ
çıŃ
orting
Ġproduce
Ġspecial
åıĺå¼Ĥ
çļĦæº¶
ç±»åĪ«
pha
Ġeffective
pu
ĠdB
31
ä¿ĿåŃĺ
éĥ¨èĲ½
derived
ce
çĽ¸äºĴ
Ĺħ
ĕ
for
Ġbaryon
})=
mit
Ġparametric
æİ§åĪ¶
Ġincommensurate
è¡Į
ä¸Ńä¸ľ
åĴĮçĶµ
å¡Ķå°Ķ
åĨ¶
)>\
Ġ&-
ä¸įä»ħ
Ġop
è¡Įäºİ
èĮĥå¾·
dag
ential
Ġsimplicity
æ¯ķä¸ļ
Ġuv
igital
Ġproper
})}{\
ĠWeb
«
ĠçļĦæĺ¯
Ġgeodesics
Ġcatalogue
æ²¿æµ·
Ġ([
æĸ°æĺŁ
Ġspa
_{|\
ĠéĹ¨
Ġhadrons
Ġsymmetries
å¾Ĺå¤ļ
åľ¨æľĢ
value
poles
!}\
åĪº
Ġæķ°
åĪ«
Ġsimpli
ĠAdS
ä¹ĲåĽ¢
MN
}}=-
çľģçķ¥
)(-
Ġæ£Ģ
ä½į
imed
çħ¤
æŃ¦è£ħ
Ġtur
Ġboundary
ĠLipschitz
Ġintegra
Ġsituation
ä¸Ģå®¶
å¤ļä½ĵ
çļĦåĲįåŃĹ
åµĮåħ¥
ĠComparison
sr
fre
å¤ĸäº¤
ĠFran
Ġearlier
æķ²
åıįæĺłäºĨ
Ġanomalies
åĲ¸
ä¸»ä¹īèĢħ
ä½ľæĽ²å®¶
æ³°åĭĴ
Ġtightbinding
'}{\
titive
éĩıåŃĲ
,[
è¥¿è¥¿
ĠAGB
=:
Ġrela
gredi
è½®å»ĵ
éķ¿
çŃīçº§
Ġconfining
Ġä½İ
åħīè°±ä»ª
äººåĴĮ
å¹´è®¾
del
ĠæĪĳä»¬èĢĥèĻĳ
æľªèĥ½
Ġadd
oint
è®¨
ince
Ġcommunity
^+_{\
Ġmonitoring
Ġå®ŀéªĮ
Ġund
Ġsymmetric
prec
æīĭä¸Ń
osi
åıĺéĩıçļĦ
Ġadju
å¤®
mj
Ġtry
ç¤¾ä¼ļä¸»ä¹ī
textsf
æ´Ľä¼¦åħ¹
ub
Ġref
Ġhal
Ġsecondorder
è§£å¾Ĺ
çļĦé¡ºåºı
partite
è¿ĽåĪ¶
Ga
åĪĿæľŁ
ĠDbrane
ĠNext
Ġthresholds
spen
æµģä½ĵçļĦ
Hy
isk
Ġtends
Ġelectrical
è¯ŀ
ĠCauchy
many
ç»Łæ²»èĢħ
Ġcompact
ĠGyr
Ġgoes
Ġç¼ĸ
åĲĳéĩıåľº
Ġflare
ative
©éĺµ
Ġfilling
orov
uring
ya
ç«ŀ
æµı
ĠçĻ½
æĸ¹ç¨ĭå¼ı
ä¹Ķæ²»
ĠMean
duction
icke
eper
ĠèĮĥ
t
Ġsen
Ġover
éĽ¶
ĠTM
{}_{
åĬ³å·¥
ä¼ª
äº²çİĭ
ĠæĪĸ
Ġhowever
Cor
èĥļ
Ġfailure
è½¬åĲĳ
}}
Ġmissing
åºĵä¼¦
BCS
é©¬éĽħ
ovian
ĠKac
omp
ç»ıå¸¸
HST
Ġds
Ġfinds
zzy
Ġna
Ġconjuga
Ġtempera
æ£į
çļĦæ°Ķ
å´ĩæĭľ
Ġencoding
ĥ½
åĩĨç¡®æĢ§
Ġaccou
æľ¬å¾ģçŁ¢
ĠdX
Ġpurpose
ç§į
igh
ä¸Ģç»´
æĹĭè½¬
Ġhigherorder
tron
vw
èµ·çĤ¹
Ġrole
åĮĹæŀģ
åį°è±¡
è¿Ľåħ¥
ĠHes
Ġsystems
rations
Ġarchite
æģĲ
Ġvacua
ĠResults
æĻ¶
mits
\{-
å®ŀä¾ĭ
è¿Ļä¸ªæ¨¡åŀĭ
Ġar
éĥ¨åĪĨæĺ¯
ä¼łç»ŁçļĦ
Ġnal
çļĦåĬŁèĥ½
462
çī¹åĪ«åľ°
Ġsour
è®°ä½ľ
Ġç´§
Ġrelic
Ġsurround
æķĻèĤ²
dissi
çĶ»å®¶
å¹½çģµ
cle
åı³
ç§ĭ
cribed
_-
æĭ¥æĬ¤
Ġmember
ĠBut
å®´
ä¹łæĥ¯
åĦ¿åŃĲ
auto
pol
ff
è½´çļĦ
åĲĪæĪĲ
ared
çĪ±æĥħ
åįķä¸ĢçļĦ
ults
polarization
åı¯å¯¼
éķ¿è·Ŀç¦»
incre
ç¨ĭå¼ı
Ġæķ°åŃĹ
approach
èĦī
è°´è´£
åįĳ
å¼ł
åħ¬å¼ı
æĬ¤
){\
density
æľĢåĪĿ
å»ºæ¨¡
dcases
ey
çłģ
Ġåıį
äºĭæĥħ
p
æ¯Ķå°Ķ
Ġprediction
rates
æĸ¹ç¨ĭå¼ıçļĦ
}
Ġapplications
})}\)
Ġ\\-
spi
ĠBre
è´¢å¯Į
Ġgrains
ĠSr
underbrace
ä»»ä½ķ
åİ¦
Che
theless
DC
Ġexpec
/|
åĨł
éŁ¦
Ġ\\&+
Ġkms
Ġextinction
Ġkm
çĭ¬è£ģ
}^{+}(
è¿ĳä¼¼åĢ¼
cid
that
Ġenvironments
å°Ħ
'\,
Ġmetallicities
æŁĲäºĽ
çıĢ
æķ°ç»Ħ
pal
éĢļå¸¸
Ġterminal
åľ£å½¼å¾Ĺ
çĽ´ç«ĭ
Ġavera
æī«
ffic
Ĳ
495
èĢĮæĪĲ
å¹¿æ³Ľ
reen
algebraic
Ġdeals
,(
åıĹæ¬¢è¿İ
Ġlowfrequency
åİ
å¼¹
Ġmod
Ġä½į
èŀºæĹĭ
è¥¿æĸ¹
ji
Ġinclude
}}-
Ġvast
ä¸Ģç§įæĸ¹æ³ķ
Ġoutside
177
èĬ±
åĳ¼
æ¿Ģåħī
Ġluminosity
é»ĺå¾·
æłĳæľ¨
éĻĢ
ç£ģåľº
Ġbelieved
æľīçĲĨæķ°
Ġformulations
Ġèĭ±åĽ½
ĠR
Ġview
Ġnew
ĠåĩºçļĦ
Ġlabel
ä»ĸçļĦä½ľåĵģ
hh
ĠReynolds
}}[\
}-
Ġ\((-
ä¸Ģç»Ħ
ç§Ĵ
èĭıæł¼åħ°
èĲ½
åĵį
åľ¨å°ı
Ġplayed
stu
Ġcenters
ometers
èĥ°
calcu
æŀģéĻĲ
æ¢¯
Ġreactions
ä¸ĢæŃ¥
pul
å®¶æĹıçļĦ
ĠçĿ
æĭ¥
yz
un
cessing
ĠLIGO
ç¡
åĴĮM
æŀĦæĪĲçļĦ
Ġå¹¶
åĳ¨åĽ´
åĩłä½ķåŃ¦
æĳ©
èį¯çī©
ĠJacobi
|_{
Ġattribu
Ġof
Yb
Ob
åģ¿
åŁİéĤ¦
æĪĳä»¬
ĠModot
uds
è¯ģæ¯ķ
å¤§å¤ļ
structed
çļĦä»»ä½ķ
dt
åĲİèĢħ
ç§»åĬ¨
Ġkernel
åĮ»
æĹ¶éĴŁ
ä¸ĭæĸĩ
Ġhol
ä¸įåĨį
Ġload
ĠPer
tite
Ġvalued
oung
backslash
ä¼Ĳåħĭ
æķ°æį®
quasi
Ġrecogni
åĩ»è´¥
é¦ı
Ġweakly
åĴĮéĺ¿
Dx
Ġboo
Ġhandle
Ġear
Ġfractions
å¤§å¤§
éĺ¿å°Ķ
search
ä»¥å¤ĸ
çļĦéĩįè¦ģ
rest
æĻ®éģį
eline
Ġelectromagnetic
Ġaligned
tv
çªģçĦ¶
Ġastrometric
gamma
Ġç®Ĺ
Ġunex
Ġfair
Ġcomplex
é¡ºåºı
éªĳ
war
Ġremains
èŁ
è®ºçļĦ
ç¥ĸ
ä¸Ńä¹Ł
ĠDyna
å¿ĥçĲĨåŃ¦
æĮĩæłĩ
ĠHST
çīĩ
leftrightarrow
''
Ks
å¾ģæľį
ĠçĶŁæĪĲ
è¡
æĥ©ç½ļ
Ġconstruction
)}\
kets
sor
åĺ´
Ġtransformations
ĠåĮĸ
Ġéĺµ
çĤ¹çĶµèį·
Ġrecursive
éĩįäºİ
ä»·
æł¼éĩĮ
å¼¥
åĨ·åĩĿ
Ġindi
é©¬å°Ķ
Ġstringent
=\{\
å¯¼æķ°çļĦ
boson
mping
Ġinterfaces
^*
ä¹Łåı¯
Ġsimilarly
ä¼´éļı
å©ļ
Longleftrightarrow
åĤħéĩĮåı¶åıĺæį¢
æĶĢ
çķ
åĽ´ç»ķ
evich
IA
ĠNavierStokes
åĮ¿
ĠChar
å¹¶çłĶç©¶
éļıæĹ¶éĹ´
Ġæµĭéĩı
ĠåĲĮæĹ¶
é¦ĸèĦĳ
Ġdue
çļĦæİ¢æµĭ
çŀ¬
å¤Ħäºİ
åĴĮäºļ
Ġwavelengths
Ġmatter
è¯ģæį®
spheric
folding
Ġscien
Ġcareful
Ġæ¢
å¼ºå¤§çļĦ
Ġstabilization
=(\
rom
ç½®äºİ
gers
Planck
èı²å¾ĭ
é£İçĲ´
çļĦM
or
å¥¹
Ġneutr
è®¯æģ¯
ophy
ä¼ļæľī
æĪĳä»¬å®ļä¹ī
''}
çļĦç¬¦
ely
gest
Ġç±»
è·Łè¸ª
arency
æ¯Ķäºļ
)|=\
ãĢĤ(
èĩªçĽ¸
otnote
åıĸ
Ġgammarays
Ġimaging
Ġcate
äºĮç»´
LP
Ġplate
ä¸¤ç§į
ormal
çķĻ
æĹłå¼¹æĢ§
BA
ä¸»è¦ģåľ¨
èĩªçĦ¶åľ°
çĤİ
mannian
antum
åľ°éĿ¢çĬ¶æĢģ
inzburg
ä¼Ĭ
ä¸ĭçļĦ
Ġrad
çļĦæĶ¯
éĵģ
Ġç¡®å®ļ
é¡
Ġprovided
sis
ä»¥ä¸ĬçļĦ
å¯ĨçļĦ
{(\
qf
|=
Ġlightcone
Ġ}.
\|\
ĠK
åĩºèº«
ĠVLT
é¢ľèī²
)\|\
èģļ
ä¸Ģä¸ª
345
åħģè®¸
äº¥
ãĢĤï¼Į
cross
Ġbelongs
meson
arctan
conformal
æł¼åĪĹ
Ġsupercondu
åįģä¸ī
Qu
æĸ¯åħĭ
alu
aly
ä¼ĬåĪ©è¯º
ah
Ġsignaltonoise
å·´åĵĪ
cul
jx
)^{-\
è¾ĥé«ĺ
ropol
åĪĹé¢ł
Ġæµİ
Ġultrac
åĬŁèĥ½çļĦ
éľį
ĠCent
åħļ
Ġ\([-\
Ġresto
æĴŀ
Ġbond
)^{
ic
Ġnormalized
éĢīæĭ©çļĦ
Ġcle
ohn
è½¬åıĺ
234
æ³¡æ²«
resh
ĠThree
Ġdone
},&
ipa
Ġclassified
strong
Ġseen
Ġgrav
lung
Ġblocks
Ġshor
å®ĩå®ĻçļĦ
{$\
åĨįæ¬¡
åıĤæķ°çļĦ
Ġtha
ä¸įå¤§
Bigr
æİł
Ġ\}\
æµģåħ¥
Ġrelease
ãĢģ
Ġradiation
Ġcont
Ġéķľ
Ġteleportation
isen
Je
èĻĶ
ç½Ĺæĸ¯ç¦ı
Ġxi
Ġparti
èµĮ
åĽłä¸º
}}(\
ç£ģåľºä¸Ń
Ġnons
Ġå°±
!\!\!
tup
åĽ½
æĸ¯èĴĤ
éļ§éģĵ
tiny
åĴĮH
Ġengineering
ĠRelativity
gre
:\;
Ġemit
Ġä»¥ä¾¿
pb
Ġevidence
mass
fied
Ġdonor
Ġprima
è¡ĮåĪĹå¼ı
abcd
æĪĳä»¬åľ¨è¿ĻéĩĮ
Ġoriginally
é»Ľ
tates
ç±³åħ°
ference
Sol
åħīæºĲ
Ġcrystalline
Ġinduction
quid
ĠåĢį
çļĦç»Łç§°
æŃ»
éĿŀè´Ł
ä»»æĦı
pheres
çī¹æĢ§çļĦ
è½¬è½´
æ¼Ĥç§»
åĩłåĨħäºļ
Ġring
Ġbinary
ä½ľæĽ²
esis
Ġoptimize
¥
éĽĨä½ĵ
èµı
åĲįçļĦ
][
ç¦»æķ£
åı¯ä»¥éĢļè¿ĩ
iton
Ġenables
Ġæ°´å¹³
Ġbul
sity
çļĦç£ģåľº
åľ¨æ¬§æ´²
NT
Ġexpression
Ġsoli
))^{\
äºĴåĬ¨
ptions
ç»´åĲī
SD
Ġreliability
Ġeigenvalue
oci
Ġconstitutes
Ġquick
Ġadequate
x
çļĦä¸»
åĬ¨éĩı
Ġhave
yl
_{(
}+{\
Ġquasars
89
Ġmach
å¤·
å¤¸å°Ķåħĭ
åħ³ç³»çļĦ
degenerate
Ġdiffusion
igner
mbal
Ġflavour
åħ¬å¹³
è¢Ń
Ġdyna
ä¿Ŀ
ĠKahler
.\)
è·³è·ĥ
Ġwe
äºĴè¡¥
Ġconsisting
çĽ¸äºĴåħ³ç³»
psi
ç»ĦåĪĨ
odal
Ġassignment
Ġanalyse
aled
|,
æĹ¶éĴĪ
deformed
ç¦»åŃĲåĮĸ
GRA
sc
çļĦä¼łç»Ł
çº¢ç§»
åıĺåĪĨ
bian
èº¯
èĪ¹åıª
pert
åħ¹
}}/
}[
ç«ĭæĸ¹
é»ľ
äºĨä»ĸ
åĽ¢
ı
Ġimpact
éĥ½åľ¨
çļĦåŃĲ
åºĶçĶ¨åĪ°
æ³Į
ç¥Ŀ
ç´¯
ä¼ļåľ¨
æŁĦ
aki
Ġ30
Ġcone
ĠåŀĭçļĦ
itors
Ĺĩ
åĽŀæĶ¶
£
ä»¥åĲİ
ĠHERA
Ġåĩº
æĪĳä»¬ä¼ļ
vors
_{,
Ġprec
Ġat
Ġsingularity
horizon
æķ£æĸĩ
Ŀ
atomic
hydrogen
Ġfilaments
è¹Ī
æĮĤ
+(
æģĴæĺŁå½¢æĪĲ
åĲĦèĩª
æ··
Ġprospects
text
Markov
leq
Ġensemble
çº¯
Ġç½ĳç»ľ
Ġcyclic
ä¹ĺæ³ķ
è¥¿åħĥåīį
sul
å¾ģ
Ġquery
]+
Ġleptonic
Ġ+{\
Er
Ġcomplete
ĠBon
Ġvolatility
}}.\
Ġvolumes
)|}
varPhi
zw
eries
æĶ¿
\;
ber
ä»Ģä¹Ī
æĹ¶æīĢ
Ġconcrete
ĠæĮģ
å¡ŀ
å¹¶ä¸įæĺ¯
Ġviscosity
}{\
tation
ngth
Ġtransf
Ġmetallic
our
èªī
þ
Ġhomogeneous
åĽŀå¿Ĩ
æ²Ī
çļĦç²ĺ
éĺ¿éĩĮ
He
cryst
ĠSurvey
((
åĶ®
lescop
Ġextension
ring
æĺŁç¾¤
LHC
Ġmild
æłĵ
æĶ¯æı´
åįıè°ĥ
gorith
é¢ĳ
æĭ¬åı·
ure
lassical
ä¼´ä¾£
å·©
èıĬ
åĪĨéħį
Ġtracks
oir
Ġtemplate
ĠSimilar
Ġgeneralised
Ġè¿Ļ
Ġreddening
çľŁæŃ£çļĦ
å¥ĩå¼Ĥ
åħ±æľī
Ġmodification
Ġ=:
è¦
Ġabrupt
ĠéªĮ
æ²¹
ä¹Ķæ²»äºļ
åħ»
ĠVLA
çĳŀå£«
176
dder
mensu
lower
ĠBel
ĠMIMO
Ġtorus
çļĦå¯Ĩåº¦
JA
èĻļæĭŁ
éĻ¤
Ġre
rication
Ġinfluences
æ¶ĪéĻ¤
var
#
Carlo
Ġ\,\
Ġæ´ŀ
åĲĥ
å¤ļå¹´
Mu
è¯Ħè®º
çļĦéŁ³ä¹Ĳ
çĶŁéķ¿
Ġä¾ĽäºĨ
ID
van
pes
usdorff
æĤ
å®¶åĴĮ
Ġgeome
40
åİ»
çļĦèĥ½
©
åĲĳè¥¿
åĽĽä¸ª
ass
Zu
æĸľåĿ¡
Ġsquares
ĠZn
Ġet
ĠNE
ĠPa
topic
äºĨè§£
),\\\
pied
Ġeccentricity
mulations
å¸ħ
æĿĥéĻĲ
è¿Ħä»Ĭä¸ºæŃ¢
Mac
\|
æĪĳä»¬ä¸º
FP
çĦļ
ç§°ä½ľ
),&
projlim
cfrac
åĨĻçļĦ
çĶµ
è¯µ
çŁ³çģ°
Ġsynthesis
|(\
éĥ½å¸Ĥ
æľĢå¤§
ç¥ŀ
Ġåħ¥
è·¯æĴĴ
Ġperiodic
Ġng
è¿Ļå°±
çĥĪ
Ġcolumn
dden
Ġlen
ç»ĵæŀĦåĴĮ
å¤§åŃ¦åĴĮ
iJ
Ġmission
æĺ¯ä¸º
deed
Ġspacelike
tf
åįĥç±³
Ġbehavior
çļĦåıĺ
çļĦåįķä¸Ģ
è¡¨çİ°
210
çļĦæ°ĳ
åıĳçĶµ
æ£®æŀĹ
Ġemer
éľįå¤«
right
åĵĪå¯Ĩ
Ġmultivariate
å¤ĸç§ĳ
æľĢéķ¿
Ġdependent
æĦŁ
è´¨éĩıåĴĮ
$,}
\:
CK
Ġuseful
Ġmetallicity
Ġfermion
ĠAmong
iG
æĭľåįł
orial
ĠSto
dc
Ġç¼ĺ
blems
æĿĳåºĦ
è¯¸å¡ŀ
state
<-
èĭ±éĽĦ
ä¸ĸçºªçļĦ
maxi
æķ°æĺ¯
HK
Ġusu
okker
åĿĢ
æıı
GeV
éĢ
SO
kins
ĠThi
direction
è¿Ħ
Ġlike
Ġorientations
ĠGRBs
ertain
çļĦçĻ½
Ġcoupling
åı¯ä»¥çĶ±
å¥³åŃĲ
ropic
æĽ²çİĩ
tur
Ġè®¤
Ġdia
rator
æµ·ä¸Ĭ
Ġaper
Ġexhi
Ġstruct
Ele
Nx
64
çĽ¸è¿ŀ
Ġspectroscopic
Ġregularity
ricity
ĠAGN
Ġ\},
ç¬¦åĲĪ
ĠæĹ¶
çļĦæ±Ĥ
ç²ī
riers
positive
çļĦæľĢå°ı
Ġquantity
æĿ¡ä»¶ä¸ĭ
çļĦæ¦Ĥå¿µ
Ġlith
omer
åģıç¦»
169
||
Fourier
Ġvelocities
åįĹç¾İæ´²
Ġnever
éĢıè§Ĩ
åĵĪå¸ĥæĸ¯åł¡
ĠFa
243
Ġtrap
ĠèĲ¨
Ġ&{\
Ġlevel
Ġè¿ľ
Ġhalos
ĠCM
Ġinterstellar
æĬķç¥¨
Ġdetermin
Lf
\\&+
ä¸ĭä¸Ģä¸ª
Ġgroupo
pho
manifolds
Ġinfrared
å¸¸è§ģ
]]
osition
æıĲåĩºäºĨä¸Ģä¸ª
Ġprojections
Ġdisk
TA
æĮ¯åĬ¨çļĦ
footnote
å¹³éĿ¢çļĦ
Ġangles
Ġcircumsta
ĠGRB
éģĹåĿĢ
ä»ĭè´¨ä¸Ń
æĺłå°ĦåĪ°
Ġred
coupled
\{\
åĩłä¹İæīĢæľī
galactic
éŀĭ
å»ºéĢłäºĨ
å¹Ĥ
ç»´ä¹Ł
åľºåĴĮ
Ġafter
Ġrealizations
Ġcompeting
Ġ27
\,.
çİĭåĽ½
)\!
Ġdiagnostic
Ġaxis
ĠSchr
Ġæľ¯è¯Ń
éħĴ
Ġ\;.
å¥¥è¿Ĳä¼ļ
Ġmetals
éĽ
ĠFaraday
æĪĳä»¬è¯ģæĺİäºĨ
çŁ³æ²¹
åĵ©
è´§çī©
èĿĩ
åĬłæĭī
éĹŃéĽĨ
gust
}}^
Ġæľ¯
Ġoperations
Ġå¤ªéĺ³
each
Ġeff
ç»ıçĲĨ
fractal
çĽĨåľ°
äºĨä¸Ģ
ç¥¨
åĪĨå¸ĥå¼ı
çĽ¸å¯¹è®º
Ġdeposited
Ġå±ķç¤ºäºĨ
ĠLorentzian
'+\
æķ°ä¸º
æĺ¯çĶ±äºİ
tization
åħ±
rever
è®¸
Ġreleased
Ġtemp
Te
Az
elian
å¿ĥçĲĨ
)}+
ä¸įæĺ¯
åĢį
åĪĨç¦»çļĦ
åŃĲæłĳ
Ġå¹³åĿĩ
izing
æķĻå¾Ĵ
èĲ¨æĭī
å®ŀæĸ½
Ġcheck
Ġæ±Ĥ
dually
åķ¡
ĠnearIR
å®Įåħ¨
æĹłåħ³
Ġmana
finement
æįŁå¤±
({
|}{\
åŁŁä¸Ĭ
Ġä¸ĸ
kB
triang
ç¤¼æĭľ
åıĸæł·
æŃĮèĪŀ
}(-
nictide
Ġpreferred
Ġinfinite
åı²
æľīåĬĽ
kk
Ġnonmonot
};\)
warz
Ġimplementation
Ġ}^{(
ï¼Įï¼Į
\;,\)
è¾¨
æĺ¯ç¾İåĽ½
ĠJaco
Ġpossess
ç¼ĸç¨ĭ
434
Bohm
Ġshortest
å¾®å°ı
Ġtasks
çĿĢç§°
}^{+}\
",
Ġfour
:=(\
ä»¬
å®¾å¤ķæ³ķ
æıĲ
rt
è¤Ĳ
æľĢæľī
LMC
çİī
Ġautomorphisms
rily
\;.\)
çĶ¸
Ġfermi
æĬĵ
æĹ§çº¦
Ġinitially
utes
Ġabout
æľ«ç«¯
çļĦçī©ä½ĵ
Ġcompati
ĠLe
Ġaccep
åħ´è¶£
^{\#
Ĵ
ĩĥ
ä¸Ńæĺ¯
gence
Ġrecipro
äºĨ
ä»£æķ°çļĦ
ĠSgr
èº
Ġcellular
Ġbosonic
diag
éģµ
matter
Ġperiodicity
Ġarguments
Ġage
åĬ¨åĬĽ
note
æ³¢åĬ¨çļĦ
algebras
å»ºäºİå¹´
åľŁå£¤
æĻºæħ§
Ġpn
ermite
è¯¥å·ŀ
å®īåħ¨
Ġå°ĳ
Ġwider
çļĦç£ģæĢ§
Ġhorizontal
fine
è¯ī
äºĮæŀģ
geometric
assive
ĠFrobenius
ä¸Ńæľī
verage
çļĦæ¶Ī
çļĦä¸Ģç³»åĪĹ
Ġaccepted
åĲĳéĩıç©ºéĹ´
åĪ¶
æ¨¡å¼ıçļĦ
Ġ(-\
Ġbin
ctral
relativistic
èĪ¹
...,
æĶ¿æ²»
Ġwal
nergy
åĿļæĮģ
åħ¬çĪµ
ä¸ĺ
formation
æ¬¡
{-
Ġblu
åĿĲæłĩ
lication
Ġdiscrimin
çļĦç½ĳç»ľ
Dirac
Ġ40
æ³ķåħ°è¥¿
ĠEqu
å¤«æĸ¯åŁº
ype
relation
Ġuncertain
èħĵ
æŀļ
ä¸ĭåĪĹ
859
çļĦç½Ĺ
yclic
sd
Ġwind
tting
Ġdeep
Ġenvelope
ĠHalpha
Ġæľ¨
ä¹Łä¸į
Ġfrequently
ĠFP
æ°ĳä¸»åħļ
eded
åĬ¿çļĦ
çĤ¹æĺ¯
]}}
Ġperiods
ä»»æķĻ
çĶµæµģ
éªĳåħµ
Ġquies
Ġsuperconductivity
Ġtranslational
Ġparameter
è¯¦ç»Ĩ
alpha
çļĦæ½ľåľ¨
åĽ¾ä¹¦
ĭ
Ġdisturb
iq
å®īæİĴ
éļĶ
Ġmotivation
xu
èĵ¬
éĿŀ
å£®
Ġcommunities
Ġpuzz
æ¨¡ç³Ĭ
æĥ¯æĢ§ç³»
æ·»åĬł
Ġ}=
ĠCF
aling
Ġseems
})&=
flo
ĠApplications
Ġ((
äº¤åĵį
æº¶æ¶²
Ġstart
æŀĦä»¶
Ġfinitely
ä»İä¸Ģä¸ª
åħīéĢŁ
Ġexploit
Ġextre
Ġquarkgluon
ĠCFT
åı¤åħ¸
preceq
FeO
åĴĮç¾İåĽ½
Ġparadigm
\
col
23
çĳ
Ġ/\
bri
Ġanalysis
è¶ħå¯¹ç§°
ĠæĪĳä»¬è®¤ä¸º
ï¼Įï¼Įï¼Į
æł·æľ¬
ĠKK
²
NA
åĪĹè¡¨
Ġbehind
æ°§åĮĸçī©
¯åı£
BE
Ġrema
}^+(
å¸¸çĶ¨çļĦ
Ni
å·²è¢«
ee
Ġaxial
ĠFr
çļĦçĿĢä½ľ
æ´Ľä¼¦åħ¹åıĺæį¢
ä¸´çķĮåĢ¼
çº¿åĴĮ
ĠCompton
Ġç¼©
smile
æĿ°
ĠåĪĨ
çģ«
ho
ius
iP
Ġattenu
ĠExperi
93
æĥ¨
æĸ¹ä½ĵ
æĸ¹æ³ķä¸Ń
åĴĮå¹³
osynthesis
Ġsmooth
Ġå¹¶æĺ¾ç¤º
}{}^
Ġmediated
å¯¼å¯¼
inu
Ġpermutations
Ġdesired
Wi
linear
Ġflavors
Ġhierarchical
Ġtwodimensional
Ġsensitivity
èĹ¤
670
æ¯«æĹł
ä¾Ŀæ¬¡
åĮĸ
breve
åį«æĺŁ
Ġendo
åĽ½å®¶çļĦ
æ³¢åĮħ
814
åįķä¸Ģ
Ġcompa
è£ħé¥°
æıŃç¤ºäºĨ
ĠLorentz
Ġå±Ĥ
137
ox
\;,
åħ¸
izable
grad
physics
çººç»ĩ
},\\
sw
åĲį
ü
US
Ġclus
ä¸Ńå¾Ĺåĩº
Ġéĺ¿
çļĦæ¯ıä¸Ģä¸ª
bh
Ġfits
æľĢç»Ī
branes
Ġä¼Ĭ
åĬłæĿĥ
Ġdistinguished
æĹ¶ä»£çļĦ
Ġå°±æĺ¯
æĶ¿æĿĥ
çĩĥæĸĻ
è¶ħå¯¼ä½ĵ
åĲįä¹ī
Ġå¾ĭ
Chern
Ġtimes
Ġaim
)=+\
Ġdiver
Ġä¸ĸçºª
èĳ
ä¹
Ġinstabilities
sizing
åħĭéĩĮæĸ¯
Ġappli
Ġåľ¨ä¸Ģä¸ª
æľĢé«ĺæ³ķéĻ¢
åº¦è§Ħ
Ġå·ŀ
}_{-\
Ġmixtures
144
åº·ä¹ĥ
U
Ġauthors
Ġattrac
cretion
Ġdegene
Ġdispla
åĨľåľº
varepsilon
æ±ĤåĴĮ
èĶ¬èıľ
Ġassumption
ĠKS
å¾Īéĩįè¦ģ
)\\&
éĻĦ
Ġ\}
stein
GR
Ġmin
éĺ¶æ®µçļĦ
gravitational
}_{\
For
Ġinvolve
æ³ķè¯Ń
\|,
çļĦåĲİ
212
cing
çĭĤ
ordin
)|_{
Ġtopology
åĩłéĩĮ
Ġ|
fold
çº¿æĿ¡
})^{-
Ġcloser
èıľåįķ
Ġvisible
ĠçĶ¨çļĦ
attering
ĠçĶµåŃĲ
warf
äºļå½ĵ
Ġreflection
targe
Ġtetra
cc
ą
åħ³éĶ®åŃĹ
åĥı
types
Sch
dout
çĽ¸å¯¹æĢ§
ĠWa
åĲ«æľī
ĠAfter
éĢīä¸º
Ġ.\)
åĨ¬åŃ£
Ġtensor
è¢«
æĭľåįłåºŃ
real
ĠMark
location
}}}{
Ġwh
ĠUnder
ments
tion
åģ¶æŀģåŃĲ
),~
éĥ¡
BB
ç®±
åıĮæĽ²
äºĮåįģ
è¤
åŃ¦æľ¯
çĶ¨äºİçłĶç©¶
Ġproperties
ken
dance
Ġte
Ġoffers
vartheta
å¾Īå¥½åľ°
Ġsafe
è¾
Ġquiver
ç¬¬äºĮæ¬¡ä¸ĸçķĮå¤§æĪĺåĲİ
gino
Ġsheet
tified
è¯ģæĺİ
Ġmaterial
Ġpat
è½¬æį¢ä¸º
dshift
çĶµåľº
Ġcome
Ġæł¹æį®
Ġ\\(
Ġassump
æĿ¥æııè¿°
Ġstrange
éº¦åħĭ
HE
ç¯
ĠBer
è¿ľç¨ĭ
Ġcite
Ġequi
ç½
fla
Ġsummary
çŁ©éĺµåħĥ
éº
Ġdefinition
Ġæ·±
^{-}_{
äºĶåįģ
çĿ¡
åľºä¸Ń
Ġdepar
mized
åĽ¾çļĦ
nucleon
¬¦
Ġsamples
æ´Ĺ
åħĭæ£®
dro
odyna
middle
]).\)
omen
å¿ħéľĢ
Ġtilde
Ġintensity
Ġstarts
ä¸ŃåŃĲ
Ġmanner
Ġdistributed
LR
cription
Ġimper
ĠåıĸåĨ³äºİ
ç¥ŀåľ£
monot
ĥ
ĠåħīåŃĲ
ç±
ĠæĶ¹
å¼Ģå§ĭæĹ¶
é©¬æĿ¥
jp
Ġagreement
è°Ī
Ġcuprates
Ġrea
æĪĳä»¬è¯¦ç»Ĩ
})^
è¿
Ġreservoir
Ġthat
èĤĮ
æĪĳä»¬å°±åı¯ä»¥
sv
éĴ©
Ġgi
Ġcutoff
rence
ctr
aku
TX
çļĦåħīåŃ¦
çºłç¼ł
board
Ġå¤¸åħĭ
phic
78
}\{\
ĠåĲĳéĩı
clu
)&\
è¾¾ç±³äºļ
Ġ;\
é¦
ĠDespite
ĠProb
ç«¯çļĦ
akov
)^{\
åı¯æµĭ
Ġæķ°åĢ¼
çļĦé¦ĸéĥ½
åºı
æī°åĬ¨çļĦ
odot
åĬĽåĴĮ
Ġsocalled
Ġ13
æ¸¯åı£
åħĭæĸ¯éŁ¦
Ġgrows
Ġpulsars
ĠéľĢè¦ģ
çļĦæĬ
æĪĳä»¬çļĦåĪĨæŀĲ
æģĲæĢĸ
åıĤæķ°åĢ¼
æĤī
zz
ĠçĽ¸å¯¹
æĿİä»£æķ°
Ġhyperfine
æł¼ç½Ĺ
OF
ä»¥ç¡®å®ļ
Ġassigned
ofs
Ġoperation
éª¨
cave
cli
Ġevol
å¹¶
Ġcli
åįķçĭ¬
å¯¼èĩ´
ĠCR
Ġmutual
HP
é¢ĦæµĭçļĦ
cx
åĨ·åį´
ĠDark
æŀģå¤§
ĠNS
})).
Ġran
Ġnaturally
ill
xs
åĵĪä½Ľ
å»ºç«ĭèµ·
upsilon
ç§Ł
ĠåĮħ
'=
èĭ±åĽ½
Ġantiferromagnet
Ġstructures
åıĤèĢĥç³»
^-)
ĠEmp
æĸ¹ç¨ĭçļĦ
olumin
ĠSYM
osov
Ġtoward
çļĦæ¯Ķä¾ĭ
ä¸Ńå¾®åŃĲ
Ġæİ¨
Jaco
blem
CE
Ar
zing
verse
GLE
)}.
æĸĩä»¶çļĦ
æ¸©åº¦çļĦ
åĵĪä½Ľå¤§åŃ¦
mos
ĠSpectro
Ġperfor
duality
ĠKer
Ġrandom
æĸ°æķĻ
dire
Ġindices
åĪļæŀľ
Ġmy
veys
LC
éħ¸çĽĲ
Ġexcept
çĲĥè°Ĳ
çļĦç¬¬ä¸Ģä¸ª
data
æĬķéĻį
åĴĮB
Ġphi
Ġäº§
vable
î
çļĦå¤§åŀĭ
æľºåĻ¨äºº
èı
å¸¦çļĦ
çİ°ä¸º
ories
æīģ
æ©¡
electr
Ġtre
å¸§
dal
åıīä¹ĺ
æĸĩä»¶
nal
æłĪ
Tx
èĢĮè¨Ģ
Ġcircu
Ġä»¤
åŃ¦éĻ¢
èĲ¨æĸ¯
Ġæĭ¬
åľĨçĽĺ
çļĦåĶ¯ä¸Ģ
å¼ºçĥĪ
olmog
ĠçĶŁ
style
æĹłçº¿
)=|
insulator
))=-
ĠHol
Ġproperly
æİĴåºı
çļĦæĢ§è´¨
æķĻ
ĠGu
Ġcorrespon
æĴŀåĩ»
Ġå¤ļ
Ġpol
åĨĽ
æľīéĻĲçļĦ
æ£ļ
å¤§åİħ
oo
}}^{-
ä¿
Ġrelaxation
Ġ+(\
Ġneighbor
i
Ġsymbolic
iint
æłĩå¿Ĺ
Ġæĥ³
ĠThese
ture
Ġ\\\)
ç»ĺ
èĽĩ
æĪĲä¸ºä¸Ģä¸ª
åĴĮç½Ĺé©¬
åħ¬å¼Ģ
})}(\
respon
Ġscre
èĪŀåı°
å¿ħé¡»æĺ¯
illa
ntial
æĪĳä»¬ä½¿çĶ¨
cha
âĢ
æĶ¾ç½®
è°ĪåĪ¤
Ban
Ġspre
çļĦåľ°ä½į
å¡
åĿļç¡¬
çĽ¸è¿ŀæİ¥
åľ¨æŃ¤
nda
iff
ours
underset
¦Ĥ
èī¾
çº¿
éĺ¿æĭīä¼¯
ç»ĻåĩºçļĦ
èĻİ
nf
longmapsto
å¹´è¢«
Ġupda
breaking
Ġå®½
åŃĲå®«
11
ions
Ġhelical
å±ŀäºİ
ĠMon
æĤĸ
Ġing
Ġunprecedented
æ¼Ķç¤º
Ġfunctional
}^{+
çĽ¾
åĪĨåī²
Ġequipped
}=-
Ġåīį
ĠXMM
Ġæķ´
Big
}|\
Ġensembles
Ġinv
åħ³ç¨İ
Ġca
jX
æĢ¥åī§
éº¦
Ġsuc
ä¸Ģæł·çļĦ
Ġsingularities
ĠNoether
}\)
mbic
ä¹ĭ
(\|\
ĠEx
ĹĩçĬ¶
Ġç®Ģåįķ
çī¹åĭĴ
Ġåħ¨
jt
ĠmJy
çļĦåĲĮ
Ġsl
Ġsuperpotential
Ġstatistically
Ġå¤į
ç¥Ī
Ġèĩ³
Ġtreatment
åľ¨å¹´
æ¯ıç§į
æĺ¯ä»İ
ctiv
crip
æİ¢éĻ©å®¶
ä¸´çķĮ
æīĵåį°
eter
Ġ)}\
biqu
è°£
theoretical
çĶµå¼±
å«ģ
ä¿®å¤į
Ġvis
çĸĳ
éĢļå¸¸çļĦ
è¯ĳ
Ġloops
ern
æī©å±ķåĪ°
åħ¬éĩĮ
åĲ»
ounce
èĭıèģĶ
åĲĮæĢ§
å¹³è¡¡
qs
çī
Ġruled
por
æĬ«
Ve
Ġcontrols
æľŃ
äº§éĩı
å±ĤéĿ¢
çī¹æĭī
èµĸ
Ġtopologies
åĬ¿
Mal
ĠHubble
åľ£æ¯į
æ£ķèī²
çĽ¸äº¤
\})
å¯¼ä½ĵ
loss
)\}.
èĩ´åĬĽ
nv
çļĦæĶ¹è¿Ľ
çļĦç¨ĭåºı
ĠæĪĳä»¬éĢļè¿ĩ
sey
ä¸Ńéĥ¨
tra
çļĦç½
vals
la
Ġbehaviour
ä¼¼ä¹İ
fter
Ġautoma
é¸Ł
ä»£çłģ
Ġnecessarily
å¦Ĥæŀľæĺ¯
Ġconsiders
propaga
Ġparametri
source
Ġå§ĭ
æŃ¦åĻ¨
ppings
å¸ĥä¼¦
found
èĹī
å¦Ĥæŀľæľī
'}=\
åĩºåıĳ
Ġè¯ģæĺİ
åı³æīĭ
åŁİåł¡
åŁ
}|\)
æ±Ĥåĩº
Ġrelev
ä¸Ĭæľī
]=
ep
-
"
çļĦç±»åŀĭ
Ġexe
Ġsim
èĦı
è§
åĽłèĢĮ
åĤħ
æĪ·
çļĦè´¨éĩı
æĻ®
Lv
ç»Łè®¡
çĶµåŃĲçļĦ
Ġcommutative
åľ¨åħ¶ä»ĸ
dinal
æ¯ıä¸ª
([
ĠEn
work
dipole
Ġsynthe
ĠPo
ĠMar
æ··ä¹±
ç³»ç»¼
Ġremn
ä¸ºæŃ£
è¿ĩæ»¤
Ġinsulating
Ġdistances
)!(
Ġtotally
mathrm
Ġid
Ġvariable
æķı
Ġexhibit
çĶµèį·
æ´¾çļĦ
placian
ĠTo
Eu
Ġå°¼
Ġ20
Ġ({
ç»Ħç¾¤
Ġreceiver
lines
æĿĥéĩį
å°ıåŀĭ
}\}\)
oni
lt
Ġ&+
å¹²æ¶īä»ª
ä¸¾è¡Į
sn
Ġbetw
Ġcarefully
çģĮæºī
ä¸ĸçºª
sx
æº¶è§£
Ġy
^{*}_{
Ġspheres
é£ŀèĪ¹
tween
])=
ĠMotivated
pq
((-
uct
Ġcarriers
Ġcreating
Ġhydrodynamics
Ġoutcome
Ġimp
çļĦçĪ¶
å¼ķ
Ġcombines
æł¼çº³
å£«åħµ
Theorem
å·±
çļĦæĤ
ç¥ŀç§ĺ
iE
Ġconcent
Ġwor
Ġæĸ¹éĿ¢
äº
,&
éľĢè¦ģ
Q
èĮ
éĻ©
åı¦
Ġnature
Ġellipso
ĠæŃ£
å®ĭ
çģŃç»Ŀ
çĤ¹åľ¨
ace
å¤§è§Ħæ¨¡
^+(
}^{|
-}\
hskip
ani
explo
æĶ¶éĽĨ
}{(
Ġconsideration
Ġdevice
simeq
varinjlim
ady
\,,
Ġconven
ç³»ç»Łåľ¨
Ġapplication
_{
å¥¥æĸ¯åį¡
limi
Ġapplied
Ġæ¯ı
Ġdiscri
èŁ¹
åħĭç½Ĺ
æŀģ
Gauss
peak
éĢģ
cyclic
tesimal
Ġdm
Ġ<\
amples
éĺ²æŃ¢
chitz
çĶµç£ģåľº
Ġå¾Ī
copic
izations
ä¿ĿçķĻ
rally
åĩºçĶŁäºİ
>\
Ġbefore
387
çļĦä¸Ĭ
Ġæ®
çļĦçŃī
ĠNu
ĠæŀģéĻĲ
ema
è¯ĹéĽĨ
Ġtails
æ³ķåĽ½
ç®Ĺ
'.\)
åİŁæĸĩ
åĨ²
Ġpulsation
åĲ¸éĻĦ
éĺ¿å¸ĥ
Ġscanning
,~~~~
éĢīæĭ©
Ġmorphologies
lik
ä¿®
æĽ´å¤ļçļĦ
)}^{\
particles
æīĭæľ¯
ases
å¸Įæł¼æĸ¯
æµĵ
NF
asis
vectors
bly
ex
]\\
åı¯ä»¥è¢«
åĮħåĲ«
çªĥ
Ġyx
Ġadmit
_++
æĥħåĨµ
çºº
Ġlimiting
asing
ä¼Ĭæĸ¯
pT
æ³Ħ
kA
bertson
åĢºåĬ¡
*}
æłĩ
nderson
Ġign
ury
æ¯ģçģŃ
å°±æĺ¯
åµĮ
mathring
æĦıå¤ĸ
Ġcascade
101
Ġrho
å®ħ
å¥³
zq
Df
æĸ¹åĿĹ
nu
Ġparticular
)}=-\
]|
å§»
Spe
ba
Ġgraviton
æ°¸è¿ľ
ä¼łç»Ļ
pos
å±Ĭ
æ¯ĶèµĽ
åħīåľĪ
Ġå£«
speci
ç³»åĪĹ
co
æĺ¯åı¯
bel
äºĮä¸ĸ
dq
Tu
Ġè®¾è®¡
æĢĿæĥ³
TQ
¨³å®ļ
ĠDeep
subarray
åĬłå¯Ĩ
Ġè®¸å¤ļ
QR
æĪĲäºĨ
æĪĸèĢħè¯´
ä¸ĢçĽ´
æĪĳä»¬èİ·å¾ĹäºĨ
Higgs
éĹ¨
æĹĭåº¦
]-
åıĹæ¬¢è¿İçļĦ
Ġbalanced
onormal
Ġspinning
layers
iger
Ġreports
ĠFurther
Ġmaxi
Ġmatched
}\,.
Ġexplained
ats
ä¹ĭåĨħ
ĠçĽĸ
Ġcomplexity
Ġcompactification
ç»ĺåĽ¾
cyc
)~,
åĲĪçĲĨçļĦ
ä»ĸè¢«
çļĦæģĴæĺŁå½¢æĪĲ
å¤©çĦ¶
boldsymbol
Ġatoms
çļĦåĪĨæĶ¯
cus
ĠæĺŁ
Ġä¸įåĲĮçļĦ
Ġinsu
~~~
ĠnonGaussianity
æĺİå°¼
Ġdevelopments
Ġparallel
æıĲä¾Ľä¸Ģä¸ª
Ġconstrained
ange
Ġhistory
mil
åı¯çĶ¨
orbit
Ġåľ¨æľ¬æĸĩä»¶ä¸Ń
Ġv
æĪĲåĳĺ
ink
ira
ĠæĿ¡ä»¶
bing
çº¢
{(}
éģĩåĪ°
é¦Ī
asimir
è°ĥåĪ¶
Ġ~.
SUSY
ĠNambu
xg
ä»£
Kf
ĠDa
Ġæĳ©
Ġelimin
åĲĪæ³ķ
éĺĲ
åĪĽå§ĭ
radio
oloop
Mag
çİ°
period
cept
arpoon
instant
map
crossing
å¹»
Ġcorrelated
ç»´æĸ¯
ĠæıĲä¾ĽäºĨ
Ġä»»ä½ķ
åĪĹ
ĠSt
åħīæĿŁ
941
å½¢æĪĲçļĦ
enti
Ġconver
colla
]_\
Ġintu
Ġpecu
Ġsimulation
mic
Ġdetected
ĠæĬ¥
ä¸¾ä¾ĭ
FL
ignific
aa
èĢħçļĦ
)}\,\
è¯±åıĳ
çļĦç¬¬äºĮ
,~
)}\\
SS
æĹ¥åĨħ
Ġhexagonal
åį¡æ´Ľ
Ġforces
ç¨»
çģ¾
12
è¾©
Ġappears
Ġcompli
æĺİ
Ġsche
Ġprinciple
æĺĮ
çļĦç¥
Ġterms
972
))+
ä¼¯æł¼
tum
Ġdramatically
modi
åı¯è§ģ
Mic
è¥¿æ¬§
HII
à
é«ĺçļĦ
æĥ³è¦ģ
Ra
racies
day
Ó
Ġreci
Ġidentified
Ġepi
ABC
èİ«å°Ķ
çŃīæ¸©
Ġinstantaneous
Ġupdate
ditive
å»¶éķ¿
å®ļä¹ī
åĲįåŃĹ
çĽĳçĿ£
ä»ģ
çļĦéĽĨåĲĪ
çļĦèĥ½éĩı
Ġcoun
èĩ³å°ĳ
Ġè¿ĻäºĽ
èĢĮ
æķ°åįĥ
Ġsynchrotron
TM
mar
ĠTho
Hopf
Ġéĩĳå±ŀ
Ġprodu
Ġher
ott
ashi
å¸ĥæĭī
luster
Ġction
åľ£ç»ı
Ġä½ķ
-(-
éĢļçĶ¨çļĦ
ä½ıåľ¨
åĩºçİ°äºİ
ĠFeH
ĠGe
AI
thing
Ġæĺ¯åľ¨
ĠNGC
ĠJohn
145
åĮĸåĲĪçī©
ç¨³å®ļçļĦ
Ġexamine
Ġfermionic
æł¹å»·
çļĦå¥³
ç¼ĸ
åįģåĪĨ
))\\&=
Ġlogical
éĺ»å¡ŀ
ception
çļĦä¿¡æģ¯
{\{
md
è¯ķéªĮ
ä¼ĬèİīèİİçĻ½
cz
Ġstationary
åĽŀåĪ°
ç®Ģæĺİ
çº¹
Ġæ·
çļĦæİ¢
nations
Ġä»İèĢĮ
Ġdatab
åıĬåĪ©äºļ
Ġpartitions
ä¸»æĿĥ
èĮµ
rg
éĢļè´§èĨ¨èĥĢ
å¼ºåĪ¶
Ġanomal
ĠMulti
Ġcompletely
lin
Ġcumula
Ġmedium
åĨħéĥ¨çļĦ
Ġsuperposition
Ġapproximately
ses
nkov
Ġsatisfied
ĠEq
Ġscales
æĻºèĥ½
ĠGW
.,
å½¢å¼ıçļĦ
tiga
ĠSpace
åįģä¹Ŀ
æ¯ıå¹´
è¯·æ±Ĥ
Ġholds
Ġfrustration
}(\|
Ġmultiplication
ĠNP
Ġissues
Ġdeveloping
Ġlater
fications
é¢Ħæµĭ
Ġcausal
åıĳèµ·
Ġèµ·
logarith
ara
èĩ
ored
ĠåĿĹ
çļĦçī©è´¨
ä¸ĢèĪ¬
ä»£è°¢
des
é¡µéĿ¢
Ġsymmetry
ä¿ĦåĽ½
ä»¥ä¸ĭçļĦ
åıĺæį¢
aka
çī¹çļĦ
94
Ġevent
çĶµåŃĲ
æ²»
Ġseparable
éĽĨæĿŁ
cry
èİ±åĿŀ
Ġfourdimensional
ħ¢
Ġsuperstring
åĿł
Ġlinearly
æĸĩç«ł
meth
é¢Ĩå¯¼
ä¿®å»º
æ¸ł
ä¸įå¹³çŃī
'^{
å°ºå¯¸
.}\
ong
Ġnodal
ĠCr
gap
stri
Ġnodes
mel
çļĦæģĴ
\|=
fically
åľ¨å¾Īå¤§
divi
À
æŀĿ
åįĹæŀģ
ĠèģĶ
Ġrevis
Ġformulated
å¹¶æ²¡æľī
Ġacting
æļ¨
Ġapplic
è°ĭ
ä»İ
Ġconcerned
):
è®¢
Ġperform
ray
æĭľ
_+(\
å¯¼çº¿
ä¹ī
nan
Ġworking
ADS
Ġdifferent
Ġespecially
fit
154
Ġexpansions
çļĦæİ¨æµĭ
ĠHI
åģ¥åº·
æ³¡
Ġ)=\
